BE56D429
BE18A2E9
BE3914BE
BDAE2219
3D97FFA5
BD4CF10C
3D16BDA2
3E0B30B7
3D5E4C0C
3D2FCEAC
3C1F0E10
3E08AA20
BD253C2A
3DA09B78
3C119976
BD825D54
BD361BD1
BDCF34B2
BDAE5D1C
3E254CA9
BE0C0F6B
3DAD8288
3DCD124A
3D8A2D4C
BD37CF94
BD81274B
BD736AC1
BDB73BF6
BDBE198C
BDE64ED5
BE34026D
3DFDF0D8
BBFBFAD7
3C3E99CE
BE1E7186
BE225D7C
BD2E4580
3DFB39A6
3CD751BE
3D73037E
BE48729E
3E252B6F
3D9C7B23
BCA2B77B
BD2D036E
3CAB7AC3
BE1A8E05
BE3817DE
BE142FB5
3C67D97B
3D266DB6
3C4D434F
3E2F040C
BCD2BF05
3E01959C
3DC490DD
BD453C70
BE231E1A
3E3D171D
3D5FFAB9
BE1D96E0
3A21CA8C
BDB065D4
BE40879A
BDE8C6F4
BD8C4FC9
BDEAFBE2
3DD7AA02
BE17D13C
3E2A5E2A
BD23355F
BE38A5CB
3BE1ED06
3CF08969
BDFC6F5D
BC896346
BE0C4B28
3D79D257
BBFF3DFC
3D89EEB3
3DE96BD3
3CB3908A
BE1E3CA1
BD04189E
3D63048B
BD476171
BDD60B17
3CA2AE54
BDBBA1D3
3E1F4F14
BDEC7D98
3E434C46
3D749255
BD659B67
3CEC7D91
3E10B8F2
3E240283
3D0F55E5
BDFC5CF2
BDD4E63B
BB639716
BC1CCB4B
3DD62368
BE00C72B
BD9F07B9
3BD0E83C
BE0C34FB
BE11811D
3E007CEC
3CD3EDE3
3DFB9802
3E236759
BDBAEE8D
3E31550B
BC45AE59
3D004B36
3C8D965C
3E358857
3E0B34BE
BDC1721B
3E5A7807
BE34B59E
BE1403CE
3D997DBC
3DA50C6E
3E70BE92
3DBC6165
BDAA785A
BE3F848A
3D4A0303
BDBE3BEE
3E11BCBC
BC4BDE7A
3CDAC65E
BE0D7923
BD0C576F
3E406C8F
3DC664D9
BD83DBEA
3D72871E
BCDD97F5
3D9374C4
BE406C65
BE41CD16
3AAB6344
3DC6AA11
BC862911
BD344CF1
3CB3329D
3E22431E
3D4EB3C5
BCCDE211
3E3A96EF
BDF0B488
BE1D4213
BDA576DD
3C9AFF91
BE63D9F6
3D3CF8F1
3D25F3BD
3DEA4204
BE2CD6C3
BDC0E57E
BC484A6B
BE3D5C99
3CD70292
3E4207E3
3D916774
BD8F45BB
3E68B992
BD41E1BF
3DC42079
3E2E7507
BD7E2FF4
3E47F401
BD347658
3E26F4DC
3B3FF6BB
BC75D358
BE32EAB8
3D8F2B4B
3BA0020F
BE0CC110
3E010E53
3D42A9EE
BE117276
BCFE96C9
BD715180
BE6165B3
BC976329
BDBBB13E
BD86C5C2
3DA94924
3E3F4989
3E31F492
3E0353A8
3E0D4A60
3E0DF0B8
BE500276
3E25A62C
3E06F9AC
3D864D65
BE58C3C8
BBB8FFFB
3DC1D545
3DDA88FB
BE229301
3D9ABA48
3DF71BE7
3C4D4D9F
3D02FB49
BDF9D774
BACDC324
3E527059
3CB7254F
3DB2BC21
3D9D1AFC
BD16B557
BDA5B0FF
BAD6C0F0
3E26BF16
3BDEBDA4
BE327650
BE2959D1
3DA914AF
BE2E8E0A
3D9404EB
3D06A332
BE1E8D6A
BD805D6B
BE24BF2D
BE52FEDF
BDE79903
BE0CF131
3D771D3F
3DC8DFFE
BE0EFAA5
BE755F58
3E56485A
3DC948B1
BDBCC0E0
BD884A14
3CBB7715
BE4D97C5
3D457C14
BC749992
3E459ECD
BD28A5C1
3CA99837
3E58E8C8
BE2D4115
BE325F10
BD8DD53A
BE0D0FA8
3D3DC213
3CCAEDF5
3E36FBA4
BDF635CD
BD458C24
BD06B27C
3E4560DA
BC4F854D
3C8F35FC
3DEDA35D
3D9AABB0
3E46B566
3E558F9C
3E2D78DD
3D5749E9
BD626634
BE24378B
BE317B6F
3B1850A4
3E0EAD69
3DB54150
3E3148B1
3E42C9B8
3D9DC4C8
BE12E902
BD9078E7
BDC3F172
BCC9C102
3DC68F8A
BBE6319E
BBF06A86
3E04297A
3D826C36
3D243397
3D81A400
BD986AFD
3DFBD14C
BC4E11C6
3E1E45A2
BE1D8995
BE2D0008
BE2F98A5
3E0AC016
BE0F2188
3D95B2EB
3BC3CF7F
BD912465
BD0AEC73
BE0910C1
3E5D8C26
BE10C3D0
3DE3B7D4
BC8C339D
BE0BCB9D
BE506992
BE2BB06E
3CF3A657
3DD41335
BE27F409
3BB82482
3D1F6687
3DCBCB49
3D8A556C
3DB678F7
BE494240
BE3CD477
3D5C4AB0
3E06CCB9
BDD09580
3D8EC8A6
BE59A4E2
BD591E26
BC9734D9
BE3557F7
3DCE63DE
BE296082
BE0DB288
3E13C91D
BDB5B779
BC3BAAD7
3E3F8F34
3D37C289
3D5101A8
BBF15F9C
BDD23E0C
3CA71853
3D8B3B1E
3E003799
3D602ACE
3C644C2D
BE49C9CD
3CCD53BB
BE29E9F7
3C4E38C8
3E25B80A
3DE7E2E7
3DC4FFBA
3E2EC775
BDE66FEE
BDF2E5F4
3D6C1880
BE4D8C45
3D82A5EC
3DE0D012
3E443536
3E3FBEED
BE183258
BE06411A
BBF335AF
BE27AF58
3DE39E05
BC34C95B
BD0D7257
BE3B482A
3DA1A781
BD82D7CF
3CA2B061
BDFC2A74
3CC57CC7
BBDF056D
BD54EDDA
3DB5FEA8
3E0BC8A8
BC786558
3E294AB0
BDCBFC07
3DA0EADF
BDD0FE65
BE2A6B7F
3DACB9BB
BD707556
3DFC47AA
3E442A3F
BE105ACE
3E0B2543
BE0E61F9
3E0AB897
3CC5406A
BE1CC787
BDE124BA
3D5A0F83
BDC3E135
3E05511E
BE225370
BDEE1613
BE161D20
3E335FA3
3E1C03E0
BE209B79
3DD06F6A
BD5071D3
BE368941
BCBF6868
3DE3866F
BDCA71FF
3D169BD9
BDF99B1F
BE100809
BDBD6CB4
3E04E2A2
3E541235
3E3A7096
BE2C4278
BDE239C5
3C2A6871
3E5CE085
3E117336
BE481D75
BDE7CE76
BE3D70A6
BD554201
3D2BFE80
B85CA3C8
BDF314CD
BC995147
3E53F194
BE546209
BD9DB992
BD2E0BB5
BD40D074
3C691C49
3E235D01
BCA9A200
BE093A40
3D5C9C2D
BD4334E4
BE2D56BB
3E162E3C
BD952F2C
3E11B2CA
3D8CCC1D
BCC8643A
3D163CFD
3D78B70C
BE577C22
BD62E1E9
3DE1B359
3E2CFF1D
BE0479A2
3E35385C
BD290A65
BD6BB08A
3D1E95C8
3B5B57D3
3D2DEE5D
3DF1E701
BE0C0DC4
3C2E9A25
BB68D1C2
BE589A06
BE2F74EE
3E39C749
BDE432C1
BE0804EC
BDCCDDB8
BC900286
3DA39F46
3DA7D396
BE327C77
3E2E9059
3B557728
3E12C666
BDD54C7A
3E1250FC
BE1CD4DE
3E21E67A
BD09D89C
3DAF4D7A
BD86A920
BB7973FF
BDB58234
3B364727
3E10D182
BDB2E4E7
BD405111
BDC5192F
BE204070
3D01F264
3B0203AA
3E4176B3
BE18CF1C
3DF8F25A
3DF53CC6
3D218ADA
3D2D4FB5
3E1E3CE7
3CDEE716
3E1D3752
3E36BEA4
3E477721
3E1C1B81
3D09BC76
3CD1BA38
3DF9C830
BE123F0F
BD54BE1B
3B11CBA3
BE1C27D2
BE1E0422
3C7F3D74
3E6DC231
3DF9DDF1
3DB2F6C5
3D0EB1C7
BDEBFD2F
3DC63A74
3CA06192
3E30258B
BE4E561E
3DF1B52E
BE0BA18E
3D9A3BFF
3D279E5A
BE01DCA9
BCAFE871
BDD042A6
3D1B1477
BE1584B8
BE4AF962
3DFECEE7
3DA1708F
BDB81D7F
BC180EB6
BDF033D9
BD56F3E0
3DD3D95F
BE48F58C
BE20BB81
3D163769
3E2E2A56
3E42B7C9
BD1795B0
BDB8D106
BC628E6E
BE299E1C
BD5A8843
3D94B905
BDFAE49C
3DCAAF00
BE1C9654
BCBB5185
3D416631
3DDB8480
BCFE9514
BC0BD55A
BD7AE56A
3DE6CDD5
3E325734
BE0FBC1C
BDA89E5A
BC2EA395
BD862665
3E2A3DC9
3DE3B2EE
BE427700
3D8E692C
3CD79A98
3E1BDA66
3E5AD96E
BCEB17B4
3E2F3725
BDE40F52
3D86E0E2
3D56099C
BD3E9199
BDC5D3D8
3E05343C
3D2E43AE
BC167FCF
BD81FFA7
3E0CA231
3D853175
BE12DE09
BDFBD62A
3D22D538
BAF10F62
3E1C1DF7
BDE5CBBE
3CF6128A
3DCC638A
BE46C5BB
3E06F814
BCD1D636
3C2E41B5
BDBA1625
3CEBDD21
3DCAD6E5
3DF9FB4C
3E2A5436
3C640692
BD870417
3E14D3C9
3E0C4304
3E203C2F
3E0E71C5
3E20099B
3D17E38E
3E2433A6
3E4A48AC
3E15353D
BE3DA0B1
BE52E367
3E584338
BE02E88B
BD082642
3D768534
BD5B8A23
BCC0D962
3DF9DF32
3D509146
BE189C17
3DA14BDB
3DCD1762
BDDBA693
3D04CA2C
3E2A66AA
BD73F69B
BDB8309A
BDD26640
BE168469
3CA37C92
BDF6ABF0
3E385AFE
BCD62024
BE297BCF
BD061392
3D529078
BE589721
3E3C8763
BCAB5C1E
3D965B99
3E53F96B
3DAFA7A1
3E06A175
3D333D67
3E625FBA
3DC76D01
BDBA102B
3D6EE91F
3E7C87AA
3D16B478
BD41C1F8
BDEE3710
BE5049E6
BE4F8018
3D37B803
BE65A57E
BCAB7E6D
3DF07112
3B92DB49
BE5F070C
BD537952
BDC23893
3E243B1F
BE31AA40
3D7A1C47
BD0B3A1B
BDD6B22E
BE3DB3F8
3C3C2FA4
BE47FF38
3E2F6DBF
BD74A3B5
BDA6B2F7
3D494651
3D93D5BF
3E061FE9
BD355F7A
BDF0DF2C
3E099DB7
BE17A29E
BE82AEBF
BDD65E91
BE2FB66D
3E6DC58B
BE8A1C98
BE3992C8
3DF2458F
BBD96202
3E0580B2
BDFC0689
3CA83194
3DA3E875
BE53FCB2
3DCE7829
BC239174
3E75DA46
BCBB694C
BE593EC8
3DA5FA23
3E3E2E65
BE0997A7
BE0717A0
BE295501
BDF10E93
BE007A88
BE492F9C
BD9078D1
3E011B52
BDCD5BDE
3E4EE44B
BD857BED
BE2EAE49
3E240770
BD0420C1
3C570EAF
3DE29029
BE146BEB
BDE91930
3DF62234
BE6E804D
BE252A3B
3DA5FBDE
3E046261
BE08A86A
BD040C99
BE8445A5
3DB9F3A6
BD3DE624
BD9DC0C3
3E6FC194
3E7CC986
3CC7DFF0
3D658471
3DF0DB26
BD9CB148
3E1BFB7F
BE39DBAD
BE473F4C
3E444BB2
BD4ADB44
3E5216AE
BDDE12DF
3E6DDC7B
3E149F92
3E5B96B2
BDA539E1
3D807B2B
BE8B043A
BE83ADFF
3C90D2D1
3E20409C
BE20E056
3DC320FD
BE4460D0
3AB5F25B
3DD4A130
BE497B61
3D584BB0
3E5968F4
3D817098
BDA7C081
BCD1C9EF
3E6CD901
BC84A20F
3D0DD3A4
BCAA3535
3E33075A
BE2A84C1
3D83F021
3DF5A2AE
BDAC1396
3E1C0299
BDBD470F
3C6583ED
3D6101D7
BE3A6890
BD1D7C53
3CC65774
BE1ADC42
BE1A6383
BDBB397D
BE0283B7
BE2F0690
3D9D4E15
BE0CDF34
BE010AC1
BD68AFC1
BD2EF92E
BD2DDCFB
3DECE31A
3A6FF32C
3E4BC9CC
3D87377A
3D902367
3CF16493
BE078B54
BBC6BBDF
3DB25730
3DD15418
BE336AAF
BCF99A6B
BE3471F6
BD77E3F1
BC883A8A
3E2BC65E
BDBDB491
BE087F25
3C915445
3CC652BC
3E1F92C3
BE5CD8C5
3E46DB7F
BDCCDCD8
BD8E4DE3
BE24A353
3D08332E
BE1549B4
BDB0FEE2
3E16BB44
3DBA8965
3CD0563C
3C45D304
BDE0C359
3CD53BEB
BE046B0E
3CEE3EB8
BDF906A5
3CB824CF
3E38F11D
3E1EF804
3D61764E
3E1E2ED6
BC9D89E4
3D92ECF6
3E374319
3DF0E0E2
BD13B658
3DDA5DE3
BE19A4FC
BE1D747F
3D68AC03
BDC7E06E
3D2D5A66
BE22DD3D
3E1AF5DA
BE481FDA
BD231D7B
3DE7EBAF
3E03B194
3BF778CD
BCA585F5
BE3907D0
BE173654
3E0D5CA3
3C4C9DFB
BE2A2386
3E6E3483
BDB82DEE
BE4281F4
3DC6D223
BE06E348
3C3223A8
3DE3F237
3DB2E838
BD121E94
BE40AAC7
BD763E0E
3E17AF5D
BD1EE647
BD40990B
BDC711BC
BE0FA1D3
3E1E46A6
BD50A9BC
BD74E484
BE0580DC
BDC4DA5F
BD973D95
BD31110A
3E6996D0
3AD94249
3CD414CC
BD23C45A
3E156D15
BD2B993F
3E084D7C
3E4D570C
3E3546BD
BD87D7B3
BDD795EB
3C227D17
BDB759FF
3DF69AED
BDAA0A20
BE3B04C1
3DD0F9F4
BE09B390
3E3DE86F
BE2BCBBD
3D259D3F
BE39DA40
BDE04D85
BC1BA141
3BC6B05B
3DEA64EE
3D2C3F69
BC1E1A4C
3E336ECD
BE5B2D56
BDB7E30E
BD99D234
3E32BE03
3D536F51
BC95317F
3AD6A612
3D974659
BD35D43E
BDC88B51
BD8847D0
3E392AF3
3E3F53E7
BD0A09A1
3DBA469E
BDEC1ED4
BE245A6D
3DBC24C1
3E3915A7
3E1D19D6
BE4B5DF2
BDEE1860
3E182853
3D732263
3E1E7E1E
BE120F58
BCBFE665
3DD53D51
3E5C3556
3C84BC0B
3D4B9D1E
3E133F01
3D231013
BE443366
BCF479B6
3DB090A5
BE02FD2C
3C309FB8
3DF4EB65
3AE19AA8
BE329B37
3D9870C0
BDA89B22
BD9D65CD
3DE71CAF
3E1650A3
BE30CA63
3D8579AF
3E1A8168
3E1E9760
3E40F222
3DEC2FD8
BD24D101
3D75217D
BC3FC056
3DE06ABA
BDD81D90
BCD5E293
3CCAE3D6
3DB3D6ED
BDD36EBB
BD5950FB
3D86670E
BE0CCE67
BDD327D2
3E01DAE0
BDF3FDAF
BCD9F4BF
3D10ABEE
BE056EED
BE0DF36D
3DDEE463
3C083598
BBAEEC6F
3DBAB3D0
3E2CD177
3B9E2290
3E24FD97
BD92FA3D
3DF593F6
BDB6E1B4
BD326872
3DA683E5
BE518BFA
BE26C4FE
3E4565D8
3E0897E8
3BF549B5
3E5F6FC8
BBDB1C79
BCFC92F8
3E2A0B10
BE326638
3DEE000B
BDAC80F2
3CF0700E
BDCF711F
BE0384DF
3E514EBB
BDC62EE7
BE65ACB6
BC3F2F92
BD818F4F
3E4A9FB4
3D9F04AA
BC6A5034
3E1DEAE0
BE435481
BDE91C2B
BE24210C
3D61ED9B
BE2AC87A
BE001656
BE3E27CC
3C7D8DF8
3DD02BFF
3DA1CD3E
3E1B055F
3DC37972
BE2D26C5
BCC85CE4
3DB207C8
3D6FD0E4
3DF26B6D
BE1F5C89
3DDCCE79
BE1A034F
BE246007
BD91B73F
3E056760
BDB1AB3C
3DDDB471
BCA15C3A
3D85984D
BC85CFB9
BD749F33
BE1312CA
3D50B783
BD0B3595
BD9ABBAF
3D01A1F8
3DBDE95E
BDD08074
3E3B1334
BD0CECBA
3D9F3A85
3B9F6CDF
BE36FBE9
3CB11E92
BDC44D8F
3E42D053
BE1A2468
BCD59AE9
BD5D91DE
3E2035EA
3E3EE217
BE2AB00B
BD4BC757
BDE00C8B
3E1A89A7
3E2C9F00
BE0E8A02
3AA53D64
3CCC1633
BD7255E8
BD82D1D4
BBACB53A
BE12EE8F
BDC5327C
BCC2BD3A
3D885496
BCDBE171
BDE3EF5C
BE4B5F36
3DDACAFE
BE553848
BC7E196D
BDE154DC
3E1A0A48
3D7BBE85
3DE5AF6B
BE22A0DA
3E29E1FA
BE23783D
3C6A5410
3DF3FD74
BE1F2E08
BE11F5BF
3D76BBA8
BC064704
3E5C6461
3DD2AAE8
3A3A5F57
3E24A256
BE2C16E0
BD60CBFA
3DAA6197
BD904F06
3D946B82
BCC0CB7D
3CE83A95
BE46930F
BDCA4570
3C1266F8
3D63E220
BDF62A37
BE40F1DE
BD835304
3CE0C3A7
BD7FDDD5
BE682F7F
BCD85E9E
BD4123BD
BDD04393
3E0D0B76
3E13F399
3E0CEDCD
BD307E73
BE02E0FA
BE4E90A1
3E3A7005
3CBF5CA0
BD1A1BBE
BD56C128
3E329F36
BCB6DC66
BDC8E6FC
3DD5F606
3E379D21
3D640D33
3E4A7534
BE20AB3C
3DCAB355
3D4E6E7A
BE10F99B
BDFDF3B0
BC827DBF
BCD9F4C5
BDE90F51
3E585068
3D6F5E97
BE3F9B42
3CFED2B5
3E1C9B0B
BDDF1F3B
3E39A942
3DD4B01D
BC82FB6C
3E2934A7
BDD9480C
3E2C9B52
3E3EA651
3C1A47F2
BDA9832D
BCED6EDC
3DB7247D
3D9F5F79
3D97B13D
3E6328AC
BDFECA84
3E6091C3
3D691B0A
3CA2462E
BD879E74
3E40D2FC
BE37BCF4
3D3D9741
BD46EA39
BC8DAD5C
3E278CB7
3B308AC2
BE4AB4D5
3D8DDA8E
BD822FCC
BDE3C20D
BE0F7EE6
3E46DDD3
BD6425A5
BD9C9DB0
BDA6953C
3DCDB8FF
BE334ABC
3DED6852
3DE6079F
3D9C7517
3DB8E031
3B348BDC
BD7E3C76
BDD19FEF
BDDC9A84
BD938C92
3D8BB541
BDA12444
3E0A28A5
BE16ED07
3E107213
BD4D0B12
3DCE4090
3DBAA71C
3DF1B153
BDE299EC
BE6DDF17
BDF0E8CE
BDA55700
3E5D5175
3E372DF4
3DC152E7
3CB7CF03
BE041A2D
3BEBE3FD
BD49496F
3D053710
BE05CF87
BC4B66FF
3E36A659
BE1180E6
BC8B55E2
3D8FC3FB
3DB74D0F
3E2C4BE8
BE3DF63E
BD3F7A3C
BDA0919C
BDD40513
BE345F1D
3B9FEA5B
3C4D0872
BD843AF8
BDCCE95D
3E18DF3D
BE20FD26
BD3E43C0
BD31E29F
3E3350E5
3E2B1A7B
3E0B0175
BD8C8C6D
BE236E00
BE0E4EFA
BC91A80D
3E2B190B
3DB430B2
3D46E758
BE0DE6AE
3DA8677D
BE403192
3E390C18
BC7CB5BD
3C881E66
3DC0D2D8
3DBB809F
BDC88400
3D61EA5C
3E369A25
3CB24DA3
BE020C84
3E21788E
BBEFC9CC
BDD9581B
BE032E03
3CD981A1
BC0B0636
BD1B9B44
3DC747A7
BE0F4FDC
3D1933C9
BDC5751D
3C1DDEA5
3CAC3A8D
BD85D01F
BD8BD202
BD8F081E
3DE7BA74
3D835AFB
3D037EDC
3DE686FA
3E69444C
BE394C69
3D72C81D
3E09F31D
BE49E6C0
3DB7279F
BE00164C
BBE37925
3E448DB1
3DE4EAFE
3DD1F442
BD2F501F
3D48FB9C
3D7DD3FF
3D12DEB8
BE14395B
3DB663E3
BD30D5E1
3D9EDB77
BDE1C9F2
3D0647F2
BD743467
3D9A8C38
BDF86F3A
BE005C27
BD4B5757
3E001EBA
3C6B8B37
3E44B0D0
BD276CD8
BD9423FB
BE2F35C0
3D4236AE
BC06C869
3E5202FA
BD613B0E
3D36FC4C
BE029E99
3E3F0DB6
BE519420
BD1D991D
BD96B4C5
3D7F6536
3D4425CD
3DCA1E4D
3DDE7478
3E0F3FD8
BAE0CBE4
BD07C0D3
3E0123DD
3DE64A8B
BE2BD09B
BDC6B3A4
3D1CC363
BD5ACA48
3D4C8EBA
BD875B05
3E115DDA
BE2ACEE0
BE08552E
BDA3DEE4
3D9AB8A8
3D02726A
BD9D5AE9
BDB8BD5B
3DD5ADC4
3E3B2CDA
3B4858DA
BDE8F3D7
BC9E964C
BE3B3AD1
3C50BBE6
3C832B80
BE0906B4
3CAFBF9D
BE1ECB87
BD4C64AB
BB9F8540
3E3032CA
BE1C17FD
BE08880A
3E2C7310
BE108D2D
3DBAD093
3E32AC6A
3E4F5240
BDF1A263
3DA80BB0
BE373EF2
3E1235CB
3D4BA7F7
BDD3968B
3DA75817
3E16AE34
3DB1937E
BDA17B17
3D983874
3E0D985B
BCEF917E
3DB95641
BE139F51
3CB42E10
3D8E35B3
BD9AF5D0
BE3B2C5B
3E445979
BD04A2FD
BD8548B6
3DCB90D9
3DCB8C2D
BE022544
BD839AD3
BE0F8B34
3D9CF1FA
3E562ED5
BD884360
3E196492
BE20044D
3D063F05
3D7D6F91
3D1628D9
BD184A27
3C25A82B
3A14265D
3E61D8B9
3E58D8E7
BDE950A2
3DFCB238
3DAECBF4
BC34D3F5
BCAE6D4D
BE34C066
3D659A8E
BE42DC08
3DFEC110
BDB30087
BE3B5603
BE542892
3D4342B1
3D8798BA
3C8769B1
BE06C616
3D1C3CAD
3E30DC25
3E47BA18
BE26F597
3BC60F4C
3E2D53CB
3E4DAA3B
3E32A12E
BD7472EC
3DC1F797
3E6E8A40
3C9A941F
3E1DB851
BDEDF6FE
BE0753E8
3DC354F6
BC9A0236
3E321DB3
BDBE87D4
3DB8B4C2
3D514643
BD34D25A
BE0407DC
BD44892E
BD578F82
BC35B91F
BE2466E3
3D325293
BDB04BDF
BB8DB77C
3E4CB575
3D410E17
BCEAE705
3BF4871C
BE4B15AC
3E60347C
3D33F52C
BC9029BA
BC368AEB
3CC30649
BBDDE064
3BD5606C
BC5F5B44
BDC1F904
3D96CC05
BE16E9ED
BDE563CF
BD6D5F83
BDEBBAED
BDA5C41D
3E14693A
BE2CD80D
3DD867A0
BE20B9DB
3CD4D780
BC3FBCD9
BE03F18D
BE04F8C4
3D2AF020
BE37E688
BC0BD7E5
BD04B4F4
BDE26604
BD804B61
BE2772B9
BE3289A4
BE503071
3E00656D
3DE673CF
3DF1A27A
3D976F7A
3DE610C2
BD028689
3E2AFF18
3C5F93A5
3E033793
BE030828
BE0724AE
BD3E59F4
BE138CF4
3DB4E243
BD3A6021
3DF9E098
3D729FE3
BD27DFC7
3E0080A8
3D0F488B
3DBEC542
3D7E83D9
3DCC56C3
3E2A95EC
BE26F69D
3E44D5A2
3E08E9FD
3E5F0130
BDD66E75
3D849782
BE15CAAF
3D3409BC
3D9F481A
3E394CC1
BE2C8DA1
3E4DC65E
3E007E6B
BE1BC822
BE138FF0
BDD13F77
BDAD6681
3BC70274
BD38346D
BDE669DA
3DDE6156
3E01CFCA
3E0D153F
3E120C38
3E1945AA
3D06B036
BE4B80DC
BDFEB4B8
3DA58A7C
BD855CC5
3DC2BD0D
BD956674
3E24E2C1
3D99A9D6
3DFD546A
BD8C446F
BDBB35F5
BDE39FF3
3E2A98B1
BAF4B7AC
3E0D6302
BD9E52CC
3C739AF1
BD3F596F
BD29BD9B
BDB20EED
3DD572F6
BE33D692
BE0BC816
3E3DFDF4
3DD87D97
BE446853
BDFA36B8
BE38E3FD
BDCF5E03
BE4C3481
3DEBB526
BE07FD2A
3C8BD030
3D530E88
BC56F563
BC4A142D
3DC48D76
3D65732B
3BDF6614
3E4D36F5
BE1F6567
BD410833
BE388C99
BB8CE9BC
3DB24A77
3E52E9BA
3D758F2B
3B635047
BE3D30DD
3DB9A2D5
3CB343B0
3DF35E7B
BE1806EE
BDD2C9FC
BDC495FA
3E299C1A
BD9B6D54
BD948318
BDEB31AB
BB0DD6C4
3CC475B1
3D21730A
BD99BA47
BE14EC7A
BDA04104
BD0FD56D
BD71F2E9
3B886B97
BCDC8814
BE0191FF
3CDFCE10
3C53F3B5
BDC3A09B
BE32E148
3C0F3433
3E365049
BE28BF52
BDD2E538
BD905CE5
BE2B751A
3E26B991
BD1BC758
3D013CC7
BE366FFB
BE2FB30C
3E1BF228
3DEE4BEB
3D759946
BE4B82DB
BBB39B55
3DC1FCE9
3E0BB9A4
BD9C879E
3D2A4DE0
BD4EB254
BDF78844
3E4F9A09
BDD83139
3C95EE44
BD638E1D
BDB9D333
3DC6135E
3E391F38
BE199BE6
3DC1B3DF
BE3F48E7
BDE55AA6
BE2F67E0
BD6DE70C
3DF7991D
3D32B733
BC3FEDC0
3B5BC701
BDBD9AAA
BD50C915
BE2ABB84
BE1B1247
BE3E0E19
BC713280
BE2A528F
BE23A622
BDD4DF8C
3DB367DA
3E2E1435
3DDD6205
BE262744
3D9F0FD4
3D507046
3CE32D9C
BD11884E
3D2C1DE7
BE1FA3D1
3E1A44E3
3DB0AE4D
3E4AAB42
3E2C1298
BDD2246C
BE27C9E1
BD6D84BD
3E5B3D86
BDE2DABD
BD40E1CA
BE0B5333
3D9F626E
3DA7A9A7
BE023099
BE15FF35
BBCF2C78
BE016C87
BE0E9583
BD1523D8
3D82D6B8
3E13828B
3E2AC768
BE32FEC7
BE046DF4
BD930AA6
BE540FE5
BE12A854
BD196E6C
3E0C0980
BC8F4C23
BDA5EB10
BE37B183
3E0EAB78
BD81F0C3
BD4322B8
BE21C51B
BC19A112
BCB18C06
3CFE67CA
3D9661E4
BE3D6623
BCF87CC2
3E1B1AAF
3DD53ABD
3D208FE4
BE21B05D
3DEC1E5A
BD81CD7D
BD31DA99
3C3F1531
3CB47D00
3DBBCCAF
3C5A300A
3E30B080
BC0EE424
3D49F63A
BE128186
BDFE26C5
BE04CED4
3D994140
BD53B988
3D374E1F
BD434FB3
3D9B45AE
3E3EA471
3DF4F1A2
BE11CC14
BE499132
3D05EB47
BE03BD3D
3E00CA80
BC817CBA
BD217A60
3CEC4875
BE339878
BE097628
3E20C404
BD85340B
3C516C42
3DD099AC
3E2D4880
BB06BE63
BE03ACAA
3E04F1C3
BE2A56C6
BE1D9B97
BCA87987
BB3DECE1
3DA381E6
BD55D964
3E553376
BD897C49
3D0D2BF2
BCBDB9C1
BDD0BEB2
BCC65DD2
3CAF726A
3CCCFBDE
3E1E1467
3D43135C
BDC6BD29
3C46513F
3E1E11A1
BE2F61AB
3D07439F
BE593F2D
BCEEFECF
3DC155B7
BE188B7D
BDC71987
3CC1B776
3DADE4D8
BE10F203
BD798AB6
BE2B7482
3DF59E6A
3DC50818
BB9FA005
BE2ADA52
3E38FFD3
BD6CECAD
BE47900A
3DCA0DA3
BD0B195B
BE06F3C1
3CCE9030
3DDD3B31
3E21D79F
3DE3DBA9
3DF31C3E
3DF90625
3DC9CCA7
BD9652BF
BDE6BA2C
3DC0EE00
3DEE0AA5
BDD3D09F
BE11E2D0
BD4E1D34
BE34B30C
3E1155BD
BE496E27
3E6C6448
3E33CBA4
BDE3BE99
BDE24B97
3B701C74
BC982E15
BDFE1B7E
BE313C21
BE073FC3
BD882190
BD9F7DB4
BD83D3E2
3DCB1420
3E4FCCAF
BE2F444E
3E5D564A
3DAED3F5
3CDF7233
BE589E06
3E50D55D
3E575768
BCF3430A
BDFC5130
BE4DE4D5
BE46C82D
BC8D4921
BD350AC4
BDE6454F
3D284981
3B80D44C
3E23037F
3DB32CC1
3D9A442D
3DF386DF
BD31EDD8
3E32E26A
3DFA7710
3C9B924F
BCA488E3
3E5BE922
BD83FE1B
3E5627CF
3E52B007
3E44C1A5
3DACEF0C
3E1DFAA5
BBA2FFBD
3E331673
3DFC1559
BD453347
BD8066E5
3E23C774
3E4AD2FA
BDFD5F83
3D6A8156
BC1606A6
3DEE2815
3D8B0345
3E065777
3E1DBC9B
3BCA4914
3E3B7293
BDF93303
3D22D7A0
3D7CB0D4
3D2C3ABD
BB14F822
3C3CABF7
3D8E9A5D
3D00862C
BE2DEDC8
BDED0A6A
3E4F7DF6
BCABC65F
BE1958E8
3CB624B9
3DEBAD7D
3DFEF368
3D0F0497
3E413704
3DA2E150
BC7B897C
3E57E31C
3DB2D28C
3E128D6C
BC0435B6
3D8F0C53
3E450836
3D25690B
3D05A53E
BCF501A0
BD75AE4B
BE36D0F1
BE24D15A
3DC2A0C1
BDD421FB
3D73CFA0
BDC0EAE6
3E2A8822
3E3C9459
BDADF997
BE2C0AE6
BD917AB1
BE4FA829
3E2040A3
3DFF4CBF
BD129AB5
BD7D0C08
BD85C5EA
3E279F1C
3DE71270
3E003B28
3E455606
3D133D14
3D5522CF
3E1D6C59
BE2632E9
3DD91F49
BE40D622
BE0AE2A6
BD3B6C0F
BE15F0BE
BE537744
BD01A695
3E1B0895
3D30481A
BC8664E7
BE12C5BD
3E5EEA77
BE33FCD4
BCCAFC7F
3E520941
BDE25BAA
3D686B3D
BD5168D2
3CE5BFDE
3D4D9725
BE2CB7EB
BD7043FB
3E20202F
3DA15076
3DA39AAB
3DFAE862
3D18D1D8
3E283456
BD1DCC09
3DB1CB0A
3D91F098
BE2A50B9
BD743B54
BE16E214
BE212555
BC6E3C0D
BD8399B0
BD2CCE7F
3BDC25E2
3D66AB8B
3D8F865E
3E26EA83
BDF2A5A0
3E106DA4
BE48939E
3E1B752C
BD2AC6EB
BCFCF320
3C96B5CF
3DDE69CF
BC96F1E1
BDD064AC
3E4C7AE1
3DF59CE9
BE0CD0D0
3DE1F45D
3E2D58B7
3E36808F
BE0D9AE2
BE15A447
BE608E4B
3E1FF557
BE052036
3E2E65A2
BDB79299
BD2AE209
BE0B9200
3CE20964
BE16E43A
3E0C63FB
3DDD5B10
3DD105FF
BE588595
3D8DCA54
3D258955
BD6B0149
3E2A0CB6
BC826FB2
3E1DBEAC
3DB93E0A
BDC9A982
BE354BAA
BD29792A
BC1857DE
3DD9709E
3D84E27C
B91B2FD1
BD1B98F2
BE3C3E65
BE0A2A3A
3C3429F5
3D25BB15
3C51ACF0
BE4E5543
3D1C86AB
3E427DAD
BE0D0C14
BE2AADCA
3D7CC7F2
3D751A96
3D2A0095
3E3AC92B
BE439827
3C1D0EB8
BD800117
3E419560
3E0322C1
BCB51D16
3E3E962F
3D5A380F
BE0FA972
BE4B6BF8
BD12DBF2
BD34A820
BBCF1337
BC3AD2BE
BE186FB4
BDD335A7
3D1E7407
3E265295
3DD244E2
3D97255E
BE379474
3D4845BB
BC6ECE21
3D6E0AD6
BDB6CD6C
3CA8C5C2
BCAFB6E6
3D7A23DC
3D180CA6
BDA069C6
3DE42A69
BE313582
BE55E8CD
BE4CA77C
BE16405A
BE44CE80
3E3C81DB
BE301583
3E1D94D1
BDA2CD0C
BD848BB9
BE18CCCF
3C672694
BE0284F0
3D8D01F2
BDA9ED88
3D565031
3E4532F0
BD7F0501
3E545B73
BB474BB3
BE51F642
3D9B0846
BD819900
BC08334D
3D93E6E4
BCCFCEC6
3D211929
BD406DAC
BDEB974A
BD8A38F9
BCE08229
3BDC7A6B
BDD0DB04
3D5CC6AA
BE1BC1E5
3E2DAA28
BE619176
BE0C3C38
3D852D9B
3E0E5083
3DF92ACD
3DFA6BC1
3E019EAA
3DF11AF4
BDBC5264
BC68073B
BDA6E7E6
BCFF055B
BE3EFBE0
3C18BC0D
BDDF3DB8
3E1DCD19
BCEFC45C
BE48D71F
BE1507D8
BE011656
3E02F238
BD69AA7C
BCE995CF
BD411794
3DDB27AF
3DEA967C
BD18E19A
BDD72EEE
BD7BFFE8
3C73992F
3D003B45
BC94B606
BE20BF81
BD96639A
BDAC8E6F
3E14AB34
3DD5739F
BE1F7D9A
BD35B1E2
3D48F6A5
3D802B1F
3D5C6B80
BCCEF840
3DA8BD2C
BE129ED4
BDF96622
3D8812B5
BDC9269C
3D77C680
BC58C2A9
3C90A674
3E2B69C6
BB10618B
BD8297AA
BE3E71AD
BDCC84FD
BD50E219
3E39D00F
3C42DF1C
BD94AB3D
BDA4AB92
BBC461F7
3DFD7B72
3E3FD3DE
3D8AC1FD
BCCB9C51
3D086135
3AEF6275
BD0C92B8
3E12A7E8
3E020A7C
3C86FFFB
BC9014C1
3C2A7646
BE1E51B2
BE36AA34
BD660CCA
3DD0B6E2
3E188CF6
3E0C1246
3DD38D55
BE05C854
BCF0558D
BE0576CC
BDF8A66D
3E17A907
3DF8820C
3E318BD4
3D6AD346
3D8B45C5
3DA9E947
3D6C4C3B
BE3396D4
3D904301
3E2BCF3B
3E269ECE
BCA52CEF
BE04CB2B
3D068EB7
3E058C14
3E29E8F1
3D6A0A16
3D70B603
BE7124E0
BB0F92E9
3D3105D1
BD91B6C9
BDC0381D
3E1CF732
BE0D3436
3E5077BC
3E425483
3C65349B
3DF499AA
3D6B5666
BDD5AC7D
3E1CE1ED
3E580508
3CE5B51E
BDDD2027
3DE41235
3D2AC3F0
3E0BB4FA
BC95A8A4
BC271091
BDE6B03A
3DF41266
3C6F6B8D
3E38A2E0
3C9FC50E
3E44EF08
3D96BA27
BDB21952
BE02FCC2
3DD92202
3DBBE116
BC690FA1
BE2970B2
3E17E993
3CE2EA26
3E0C885F
BD5E40E5
BA2FE5E8
3E3DFC71
BDDA9CBE
3D954C48
3D95B487
BBD2421A
3DAAB1B6
BDCEBAF5
BDE9F7B4
3DB85915
3AC264BC
BDE34582
BD2234A0
BC60D0E6
BE076D09
3E260BB6
3D75DBC7
BA814AE8
BCB4D0F1
BD90D326
3D93F6A6
BE3E9193
3E3A2DE5
3E484D36
BE41ACA1
BD02C360
BE0A9631
3D4ACB6B
BDE8112E
3DD3C54C
BE14CEFC
3BBECCC5
BD5E0149
3D3C97C3
3D446053
BD459F87
BB8B8395
3DC040E5
BCDF8C00
BDFBDC52
BD524D87
3E4AD9D5
3D765477
BE2568D8
3E2354B7
BE062D94
BD72ABC4
3E225023
3DCCDEFE
3C2914FE
BD8351DC
3C53CD19
BDA88445
BE2B53AC
BE07C848
3D744D07
BD628869
3E36865C
BE3A4771
BE4A7D10
BE1BBA7E
BD93F8CB
BDCB8A11
B980A752
3DEAA14F
3DE6FE7C
3E2DF2E8
BE424ED1
BE750A37
BC5C8F48
3D3EF40E
BE0AC5C6
3E0742D7
BE3015AF
BDF9206A
BDBF623D
BD6813C7
BE107DFF
3D014432
3E2E4AD6
3E107179
BB97DC2A
3E1C5CCC
BCBAC934
BE1B1550
3E0DE3BF
BDEF4BBC
3D8BADAB
BDC24D25
BE14C632
BD3B625E
3E3564A1
BE05C5B3
3DAD3CF2
3D5B8E1D
3D605A66
3E456D55
3E14E160
3E56597A
3E250C03
3D54BBCA
BE0E459D
3B2910A3
3D481BDA
3D2A55D6
3DBE9FFD
3BAEDB1A
3DDF9DCF
BC9AA395
3DE9AD28
3E2AB41F
BE121615
3C57DFB4
3E1DA891
BE1A716E
BC17B7C9
3E2C7C10
3D4870BE
3CB43F12
3D8EA3D5
3DD1710D
BD18077A
3DFAC602
3D76400B
3E29EDDA
3E041EC0
3E396264
3E37A92F
BD0473BF
BE18DF88
3D551125
BE0741AD
BDA6AAA1
BE36E8A1
BE09D6FD
3E500FDD
3DF11B97
3E22D2E2
BDBD79AC
3D54D8CA
3E5AFEC3
3E23B110
3DC6714E
BE0033B1
3E187F5C
3E37B786
BDAB413A
BD91D9EB
BD46D259
BE370950
BE0D662E
BE0F82D8
BE065E31
3DBA1428
BD5A569A
BD7F82A3
3E1F648A
BE4C5972
BD81670E
BE6B95B4
3C5D660E
BD9DEF3F
BE2A3341
BE05AF77
3D317CE4
3DA86691
3E821F04
BA8EB682
3E109A9B
BDFFB89A
3E2C58ED
BE019137
3D01ECB2
BE1155F7
BE2B57B1
BCD01177
BE31E7E8
BDA2C141
BE3DB8B8
3DF74B80
3D7715E5
3DA6BFF1
3CC11D42
3E02AC70
3D736617
3DFA3E13
3DC46D83
3D4D27CE
BDA54AFE
3CD4D052
3DD22BF1
BE3174F7
3DAFF1F7
3E32EB34
BE142303
BD72ED95
3E51C13A
3E0A78FC
BE52B5C1
BDDABA88
BC2388C2
BDBB6F4A
3E2A97AC
BE65E8A4
BD552FD5
BE097B62
3C9DAEE6
BDA34ECD
3C8E3FD4
BD56EE0C
3E019490
3D350067
3E035070
3E4C5D98
BD5BCF1B
BE069CC3
3D70DFF3
3DA2ABDB
BE196C86
BDB435E4
BD1CA515
3D9AA2D5
3D5E3438
3C41D45F
BC232D35
3E20A545
3DD70A2C
3D73B458
3D36D638
3DD4DB65
3DB71863
3D8EEB46
3E37D8FB
3CED0F66
3D1078AC
3E0A9634
3CE08690
3BBC1AFB
3E2BC60E
3E283908
3D18E10B
BE2EB8B4
3CCFA004
BC78122A
BD874453
3D636930
BDDC5AEF
BE4FD709
BE3AF216
BDAD15EE
BE220A6F
BD7A86B4
BE1073CE
3E16A77A
BE12FA6A
BE1902C2
BD84A419
3D9545ED
3D00874C
BE302359
BE0DB2FC
BC87274F
BE3916A3
BE167CCD
3D999DE3
BD3F96B1
3DE75FE2
BE4D707E
3E0A5074
BD9759F2
BE48B868
BDDFC761
3DB9E60E
BE31C6BC
3E152A0D
3E25C274
BC4DA71A
BE2BDAF1
BE067C2A
3E4E8F4E
BDCED40F
BE783CFC
3D932063
3B943C02
3E2B6206
BD02890F
3E165945
BDCEDF1F
BD1BC535
3DA77509
3DBCE60A
BDB93FB6
BB8631C7
3DF85AB3
3E238484
3CF5F4B4
BE392BB9
3E2C543A
BDE5C854
3E11CFEF
BE0B8436
3D885033
3A5A7EE3
BDD82D49
3E591E20
3E379473
3DF93E9C
BE0FE4A8
BDF7DFD7
BE4A3AF2

