BDD4FA59
BE2AAECE
BD4F42FA
BC1E716D
BC37D1BF
3E3B7EDC
3E263432
BD0FB324
3E2FE223
3D942D05
BE0AD12E
3DD98B14
BE25F178
BDB0286B
3E1BCCDE
BE18FF65
3DA340A3
3D8399E2
BD906544
3DBB4C1F
BD80F433
BE65BC10
3DEAF563
3E566D4A
3E2E8524
3B03D6CE
3A2B91C7
3E78702F
3D06801A
BD85F15B
3DB87082
BD931B9A
BE26A3D6
BE36D489
BBD63543
3D4CF7AF
3C22BA81
BCAB8689
BCB507D1
BD266AFC
BD8BB01B
BE601626
3D5B3394
BE0DD828
BDBDA6A1
3E54EF9D
BDAD954C
BE1C3103
BDCB892E
3DE98F9A
3D86BEAB
3D6EDD4F
BE33EF9C
BE1EEFE6
BDE4BADF
BCFD855E
BE4BF13D
BE3FC289
3D5B00C9
3D1E3756
3E438435
BDA2208A
BD6B84C7
BD533F99
BE229AE1
3E65AB18
BD5088AC
3C5FAFD5
3E13CEA3
3E46D6D4
3DF0107C
BD937D26
3DE80061
3E2FF0FF
3A7A69E3
BB5D081A
BE3D6B84
B957D312
BE2475D5
BDECAC4D
BD6888AB
BDE46717
3E3AE284
BE0A46FE
3D50EE12
BC2A1D1B
3E36DCF6
3E4256B3
3E244629
3DAA5681
BD55C4FA
3C9010A3
BD42A935
BDBD3ACE
BD848558
3E2E8B49
BE19C200
3E106E1F
3DD2591E
3C626205
BDBE03EA
3DE6FE08
3C4523C4
3C81DC60
BDA08C77
BD056404
BA24FB05
BE07BAE7
BDEF89D4
BB9DAA01
BE4D55D4
BDE59B81
3E4312E1
BDDD32DD
BC31E379
3DD6F8EF
BD486284
BD8EBC96
BCEF9F3A
3DAB13F9
3BD61419
3DBE79BB
3E1755CE
3DFCC5B6
BE44AED1
BCC76B93
3CA14D5B
3D1BB9C0
3CF53B69
BE35282D
3E0DE630
3DEC58B9
BE4DF9A3
3E13A2B2
3DB0E605
3DB2F034
BDEABE61
3E3CF054
3E115A13
BDA4B21E
BE2B5E0A
3DE00A7C
BD13B512
3E6BE5DB
3E312B8D
BD1075C9
BD4FC9A6
BC8A9C0E
BE266497
BD4BE32E
3DFD4F02
3E2CFD4A
3E1780C9
3E0F7859
BE107B30
BDA7F383
BE37900E
3E0674B1
3DEFB54E
BDAA8E27
3D904C4C
BCB85152
BE36CF4E
3E0E09D0
BE319DF4
BDF5BC72
BD989287
3E0D3FFE
BD904EC5
3E60632C
3E623125
3E303B96
BD89265F
3BBA3E98
BB5DDDA0
BC4D7D96
BC9A21F6
BD852512
3E0FEAC8
3D5713E6
3E0274EF
BE010340
BB7E9EFC
BE27F504
BD7E1934
BD67280A
3C390960
BD791EFF
3D22621D
BCB9CF0C
3DD527CF
3E0D4AF1
3DD834DE
3D369A7B
BD80DA99
3D9ABAAB
BD8D6AA9
3E05F412
3E381BBC
BE10AD1E
BBFA4789
3E2E7926
3C82AB77
3E1A6B56
3DD81C97
3DF50E8B
3D4D47FB
BCF3E827
3E1DD444
3D8A7DFE
3DA1C662
BCD17E75
3E238311
BDF83DBA
3C5DB899
BDB07895
BE271255
3D728F85
3E4368BC
BE13BCDD
3E12E68B
BCA12B1C
BD867F3F
3D8EEFC0
3E138A1D
BDEC1F76
3E5CCB78
3DC5133D
3DE4304D
BC6ED86C
3E2FC735
BDBE61BA
3E247EC0
3D950D32
3D185A9E
BDE22DC4
3E293DE6
3DF5970D
BD95E8F2
3D3BD393
BBA41E13
BCB631D7
BE32F2BB
BDE6FC67
3CA61C68
BC761437
3C5B8EFB
BBDC9330
B9FD25F6
3DEFE454
3E0C02F6
3DAB0877
BDCC13F4
3E3468B0
3DE49CF4
BC69AB11
3C870B4F
BE1D4B10
BD83BA96
3D50241A
3E0ACA12
3E81B685
3E5C611A
BE0A397F
BE1BE86D
BDE701D4
3C20CEAF
3DB91C84
BE1EA1CF
BDFFC036
3E58BC7B
BD9285C8
BE4FB6F5
3E51FABB
BD9FA971
BBA46685
BD22AE88
3E21B57D
3E60B396
BD6B362D
3E3936F0
3BBA55AA
BDCF21F8
BDA7FAA1
3D3F6914
BDDDF088
3E629F52
3CCCC775
3D9F80BC
3DE940AD
3DAB89DD
BD0BA07D
3D3742C2
3E234D5E
3E0F044E
BE298B28
BD64E312
BCDB1072
BE448D36
BD97C6C6
BDBAC290
BE057CAF
3D811904
BE2AF2C9
3E4EB5DC
3DCD5BB2
BDD5673C
BE0B66F7
3E3040E9
3CB6045B
3D8A6FBE
BDA6DA19
BE04913E
BAF27BA1
BDF232CB
BD7478EA
BD1CD61F
3D33856C
3DCEABEE
BE0FF217
BDD4638F
3E041662
BCD299D8
BC0C1B1C
3D9B69A9
BE086CBC
3D2EFFDB
3E1CB6D1
3DD860CE
BDFD0FBF
3E4D49DE
BE108FD2
BE4DB0C5
BE33C7CE
3E1C4247
3E1C06E0
3D0433B0
BDC0E69A
3D9E72CD
3DC352EA
BDDFA420
3C72AEB3
3D3121F0
BD9D889A
BE0DAF11
BD60C398
BCB6A1B0
BDD86130
3E24BF74
3D2127C9
3C4F199A
BD147E74
3DD70CBD
3C8D7598
3DFE42A3
BE21F764
3DD92EBE
BDFAD814
BC8964DD
BDA72713
BE118C10
3D7AA75F
3E2F6BDD
BE37C74C
BE205AD2
BE06A6BA
BE134ACB
3CC24BAB
BE1F2465
3BCD8D81
BDC0F160
3DDF9AF8
3D27B0DB
BD45AE45
3E3DD518
3D986FFE
BD0D4864
BCE1BB96
BE026966
BDB6BB4C
3E0375F6
3DCF6CBA
BDFFD13F
3E1F212A
BE01B637
BDE8EF38
BD69A79E
3D32A732
BDCE1D00
3E0F88AC
BE1EBB8B
BE1B64BA
3E37A577
BD9E0108
3DAD1938
3E150ED5
BCCB8D6C
3E4B6613
3D96398B
BE0039E1
BD281D56
BDFB568A
3CF86E82
BB954709
3D0131A2
3E33D270
3E658CA4
BDCE3F96
BD429093
BDB17CE8
3CCE62CD
3A9D32E2
3C0E88F1
BD685379
BE657547
3E747C42
BE121A73
3E261E62
BD905601
3E24E801
BDCEFAD5
BD8BDA80
3BEDE462
3DE8194C
BE0DBF04
BDCBD56A
3E13EA0B
BCE5ED75
BE008221
BE3BAF79
BDCDFFD1
3E0169B7
BDDB1600
3D71F5D6
3E14F153
3E724602
BD9CD460
3DB32257
3E141F87
BDF84306
BDF50669
3CC02866
3DEBEB64
BCF48F1D
3D38EAFC
BBBE4EC2
3E330E51
BDF786C6
3E13482C
BB9DB281
3D9CDD2E
3DC086E1
BE2D7F77
3D86D43B
3E6A017B
BCE37AF6
3E3AE2D5
BD637F2D
BCAB63FB
BC9934DC
3E2347D3
BE33A2E1
3E228D2B
3DA78966
BB4492F8
BDA68766
BBB6873A
3D909A14
BC9E7912
3CC559A2
3D90E410
3D687EE9
BE33B7EC
3DC41C9D
3D2C2FAC
BDC85FEE
3D7A4C00
BE10E679
3D7E7F7B
3D11BDC2
3D85705E
3BE93C30
3E431BC5
3E07BC7F
BE44EBB3
BCFBA261
BD575A77
3D6AB9E0
3D5C1AA2
3D5AA0A1
3E132987
3E3B7D31
BD886359
BD1E296C
BE1F359A
3E34F73F
3E0AD6F5
BCEF1501
BE070494
3E19DA5F
BE3D81D4
BCCAE25A
3D91C6FE
BCA70AD2
BDD9B0A8
3D82A20A
BE13ACE6
3E0CBA29
BE16C6D4
BB5F08AE
BBC39EF9
3E31BA48

