3E0B30B7
BD825D54
3D8A2D4C
3DFDF0D8
3D73037E
BE3817DE
3DC490DD
BE40879A
BE38A5CB
3D89EEB3
3CA2AE54
3E10B8F2
BE00C72B
3E236759
BDC1721B
BDAA785A
BD0C576F
BE41CD16
BCCDE211
3D25F3BD
3D916774
BD347658
3E010E53
BD86C5C2
3E25A62C
3D9ABA48
3DB2BC21
BE2959D1
BE52FEDF
3DC948B1
BD28A5C1
3CCAEDF5
3DEDA35D
BE317B6F
BD9078E7
3D243397
BE2F98A5
3E5D8C26
3DD41335
BE3CD477
BE3557F7
3D37C289
3C644C2D
3E2EC775
3E3FBEED
BE3B482A
3DB5FEA8
3DACB9BB
3CC5406A
BE161D20
3DE3866F
3E3A7096
BE3D70A6
BD9DB992
BD4334E4
3D78B70C
BD6BB08A
BE589A06
3DA7D396
3E21E67A
BDB2E4E7
3DF8F25A
3E477721
BE1C27D2
3DC63A74
BE01DCA9
BDB81D7F
3E2E2A56
BDFAE49C
BD7AE56A
3DE3B2EE
BDE40F52
BD81FFA7
BDE5CBBE
3CEBDD21
3E203C2F
BE52E367
3D509146
BDB8309A
BD061392
3E06A175
BD41C1F8
3B92DB49
BDD6B22E
3D93D5BF
BE2FB66D
3CA83194
3DA5FA23
BD9078D1
3C570EAF
3E046261
3E7CC986
3E444BB2
3D807B2B
3AB5F25B
3E6CD901
BDAC1396
BE1ADC42
BD68AFC1
3CF16493
BD77E3F1
BE5CD8C5
3E16BB44
BDF906A5
3E374319
3D2D5A66
BCA585F5
BE4281F4
BD763E0E
BD74E484
BD23C45A
3C227D17
BE2BCBBD
BC1E1A4C
3AD6A612
3DBA469E
3E182853
3D4B9D1E
3DF4EB65
BE30CA63
BC3FC056
3D86670E
BE0DF36D
BD92FA3D
3E0897E8
BDAC80F2
BD818F4F
3D61ED9B
3DC37972
BE1A034F
BC85CFB9
BDD08074
3E42D053
BDE00C8B
BBACB53A
3DDACAFE
3E29E1FA
3E5C6461
3D946B82
BE40F1DE
3E0D0B76
BD1A1BBE
3E4A7534
BDE90F51
3DD4B01D
BCED6EDC
3CA2462E
3B308AC2
BD9C9DB0
3B348BDC
BE16ED07
BDF0E8CE
BD49496F
3DB74D0F
3C4D0872
3E2B1A7B
3D46E758
3DBB809F
BDD9581B
BDC5751D
3D037EDC
BE00164C
3D12DEB8
3D9A8C38
BD9423FB
3E3F0DB6
3E0F3FD8
BD5ACA48
3D02726A
BE3B3AD1
3E3032CA
BDF1A263
3DB1937E
3D8E35B3
BE022544
3D063F05
BDE950A2
3DFEC110
3D1C3CAD
BD7472EC
BC9A0236
BD578F82
BCEAE705
BBDDE064
BDEBBAED
BE03F18D
BE2772B9
BD028689
3DB4E243
3D7E83D9
3D849782
BE1BC822
3E01CFCA
BD855CC5
BDE39FF3
BDB20EED
BE38E3FD
BC4A142D
BB8CE9BC
3DF35E7B
BB0DD6C4
3B886B97
3E365049
BE366FFB
3E0BB9A4
BD638E1D
BE2F67E0
BE2ABB84
3E2E1435
BE1FA3D1
3E5B3D86
BBCF2C78
BE046DF4
BE37B183
3D9661E4
BD81CD7D
3D49F63A
3D9B45AE
BC817CBA
3DD099AC
BB3DECE1
BCC65DD2
BE2F61AB
3DADE4D8
3E38FFD3
3E21D79F
3DEE0AA5
3E33CBA4
BD882190
3CDF7233
BC8D4921
3DF386DF
3E5627CF
BD453347
3D8B0345
3D2C3ABD
BCABC65F
BC7B897C
3D05A53E
BDC0EAE6
3DFF4CBF
3D133D14
BE15F0BE
BE33FCD4
BE2CB7EB
BD1DCC09
BD8399B0
BE48939E
3E4C7AE1
BE608E4B
BE16E43A
3E2A0CB6
3DD9709E
3C51ACF0
3D2A0095
3E3E962F
BE186FB4
BC6ECE21
3DE42A69
3E1D94D1
3D565031
BC08334D
3BDC7A6B
3E0E5083
BCFF055B
BE011656
BDD72EEE
3E14AB34
3DA8BD2C
3E2B69C6
BD94AB3D
3AEF6275
BE36AA34
BE0576CC
3D6C4C3B
3E058C14
BDC0381D
BDD5AC7D
BC95A8A4
3D96BA27
3CE2EA26
BBD2421A
BC60D0E6
BE3E9193
3DD3C54C
3DC040E5
BE062D94
BE2B53AC
BD93F8CB
BC5C8F48
BE107DFF
3E0DE3BF
3DAD3CF2
BE0E459D
3DE9AD28
3D4870BE
3E041EC0
BE36E8A1
3E23B110
BE370950
BE4C5972
3DA86691
BE1155F7
3DA6BFF1
3CD4D052
3E0A78FC
BE097B62
3E4C5D98
3D9AA2D5
3DD4DB65
3BBC1AFB
3D636930
3E16A77A
BC87274F
BD9759F2
BE2BDAF1
BD02890F
3DF85AB3
3D885033
BE4A3AF2

