3D97FFA5
BD253C2A
BE0C0F6B
BDBE198C
BD2E4580
BD2D036E
3E2F040C
BE1D96E0
BE17D13C
BE0C4B28
3D63048B
3D749255
BB639716
3E007CEC
3C8D965C
3DA50C6E
BC4BDE7A
BCDD97F5
3CB3329D
3C9AFF91
BE3D5C99
3E2E7507
3D8F2B4B
BE6165B3
3E0D4A60
3DC1D545
BACDC324
3E26BF16
BE1E8D6A
BE0EFAA5
3D457C14
BD8DD53A
3E4560DA
3D5749E9
3E42C9B8
BBF06A86
3E1E45A2
BD912465
BE506992
3D8A556C
BE59A4E2
BDB5B779
3D8B3B1E
3E25B80A
3D82A5EC
3DE39E05
3CC57CC7
3DA0EADF
3E0B2543
3E05511E
BD5071D3
BDBD6CB4
3E117336
BC995147
BCA9A200
3D8CCC1D
BE0479A2
BE0C0DC4
BDCCDDB8
BDD54C7A
BDB58234
3B0203AA
3CDEE716
BE123F0F
3DB2F6C5
BE0BA18E
BE4AF962
BE48F58C
BE299E1C
3DDB8480
BC2EA395
3E5AD96E
3E05343C
3D22D538
BCD1D636
BD870417
3E4A48AC
BD5B8A23
3D04CA2C
3E385AFE
3D965B99
3D6EE91F
BE65A57E
BE31AA40
BD74A3B5
BE17A29E
BBD96202
3E75DA46
BDF10E93
BE2EAE49
BE6E804D
BD3DE624
3E1BFB7F
3E149F92
BE20E056
3D817098
BE2A84C1
BE3A6890
3D9D4E15
3E4BC9CC
BE336AAF
3C915445
3D08332E
3CD53BEB
3E1E2ED6
BE1D747F
3DE7EBAF
BE2A2386
3DB2E838
BE0FA1D3
3E6996D0
3E3546BD
3DD0F9F4
3BC6B05B
3E32BE03
3E392AF3
3E1D19D6
3DD53D51
3DB090A5
BD9D65CD
3DEC2FD8
3DB3D6ED
BCD9F4BF
3E2CD177
BE518BFA
3E2A0B10
BDC62EE7
BE435481
3DD02BFF
3DF26B6D
3DDDB471
BD9ABBAF
BE36FBE9
3E3EE217
3CCC1633
BCDBE171
3D7BBE85
BE11F5BF
BD60CBFA
3C1266F8
BCD85E9E
BE4E90A1
3DD5F606
BDFDF3B0
3E1C9B0B
3E3EA651
BDFECA84
BD46EA39
BE0F7EE6
3DE6079F
3D8BB541
3DF1B153
3CB7CF03
BE1180E6
BDD40513
BD3E43C0
BC91A80D
BC7CB5BD
BE020C84
3DC747A7
BD8F081E
3E09F31D
BD2F501F
BDE1C9F2
3C6B8B37
BD613B0E
3D4425CD
BE2BD09B
BE08552E
3B4858DA
BE1ECB87
3DBAD093
BDD3968B
3DB95641
BD8548B6
BD884360
3A14265D
BE34C066
3D8798BA
3E2D53CB
BDEDF6FE
BD34D25A
BB8DB77C
BC9029BA
BE16E9ED
BE20B9DB
BD04B4F4
3DF1A27A
BE0724AE
3E0080A8
3E08E9FD
BE2C8DA1
BD38346D
BE4B80DC
3DFD546A
3C739AF1
3DD87D97
3C8BD030
BE1F6567
BE3D30DD
BD9B6D54
BDA04104
BDC3A09B
3E26B991
BE4B82DB
3E4F9A09
3DC1B3DF
3B5BC701
BE23A622
3CE32D9C
BDD2246C
3DA7A9A7
3E13828B
3E0C0980
BC19A112
3D208FE4
3C5A300A
BD53B988
3D05EB47
3E20C404
BE2A56C6
3D0D2BF2
BDC6BD29
BE188B7D
3DC50818
BE06F3C1
BD9652BF
3E1155BD
BDFE1B7E
BE2F444E
BDFC5130
3E23037F
BCA488E3
BBA2FFBD
3D6A8156
BDF93303
BE2DEDC8
3D0F0497
3D8F0C53
3DC2A0C1
BD917AB1
3DE71270
BE40D622
BC8664E7
BD5168D2
3DFAE862
BE16E214
3E26EA83
3DDE69CF
3E36808F
BD2AE209
3D8DCA54
BE354BAA
BE0A2A3A
BE2AADCA
3E419560
BD34A820
3D97255E
3D7A23DC
BE44CE80
BE0284F0
BE51F642
BDEB974A
BE619176
BDBC5264
BCEFC45C
3DDB27AF
BE20BF81
3D802B1F
3D77C680
BD50E219
3D8AC1FD
BC9014C1
3DD38D55
3D6AD346
BCA52CEF
BB0F92E9
3C65349B
3DE41235
3E38A2E0
BC690FA1
BDDA9CBE
3AC264BC
BCB4D0F1
BE0A9631
3D446053
3D765477
BD8351DC
BE3A4771
3E2DF2E8
BDF9206A
3E1C5CCC
BD3B625E
3E56597A
3BAEDB1A
BE1A716E
3DFAC602
3D551125
BDBD79AC
BDAB413A
BD5A569A
BE2A3341
3E2C58ED
BE3DB8B8
3DC46D83
BE142303
3E2A97AC
3E019490
BE196C86
3DD70A2C
3D1078AC
3CCFA004
BE220A6F
3D00874C
3DE75FE2
3E152A0D
3D932063
3DBCE60A
BDE5C854
3DF93E9C

