3D25F7ED
BDF86F2B
3E26E729
BE144C0E
3DC905F4
3D56A433
3C5FCFB1
BD192741
3E025175
BE229426
BD39E0A1
3E4DA33A
3E2086B6
3E2CC192
3E187629
3DFFB802
3CB4148F
BDBA3EB3
3C60A537
3D8D181A
BD4E4ACE
BE07384B
3DCE3DB3
3E6F01B9
3DA7B807
3D55CC7E
3D603BA1
BE07C918
3D8AC231
3D1C9A9D
3D308DDB
3DB478E1
3E2D571F
3D33567A
BD41A3E1
3E37C41A
3DCECB7F
BE18E5CF
3E25EB65
3E2F7EF8
3E116C45
BDD9822C
BD9194CB
BE21F74B
3E2E2B1B
3E0F713C
BE3EC71B
3CD89D0E
3E3FD39A
BE08C9C0
BE135725
BD2A82C1
BE1D589D
3D6E8C62
BE18C35F
3D0197FB
BDDDF041
3E3F438C
BE075A26
BD3916CB
BC8E5314
3E1A8E52
3D7F5849
BE52C7F1
3E493A08
BD73C74C
3E2655D8
3D81B8B4
3E35D233
BE461040
3DEED24F
3D981C5B
BD271FB1
3D15EA79
BD07CEC4
BE32CAB2
BD49C53E
3E46E3DA
3D8FE531
BD70C8F1
3E5D3DC8
3D2B3669
3B61D74A
BC6C1209
3C56BA56
BE097456
3D9D4278
BCE73D52
BDEA19F4
BC506650
BDB81F31
3E1A795A
3E0A12F5
BDB94EE5
3E0E9837
BAAF4CC3
BC6C6AB2
BBEE38AD
3D6346FB
BB5447CE
BCB887FA
BE2C59E2
BE42BE07
3D001233
BC825A9A
3E357E88
BDDA67C5
3E1BA12D
BD2089E7
3B97E7DD
3DFE0713
BD13FC86
3E36A325
3D82C314
BE60F3EE
BD058381
BE204267
BD43A979
BD00CD2B
3E3A6B39
3E44347C
BD9FCA8B
3D130DC7
3E1809E7
3CB73463
BCC32836
3E284CC1
BCA247BD
BC7335D9
3D0C1762
BD109F9B
3C0FF4B6
BDB997EA
BDECDF25
3E2ADC92
BDF8B111
3E2154B7
BE201074
BDDCC79F
BD4BE37E
BE2BE90F
3DABB06B
3E4CFE04
BDB3A6E6
3E296D33
3D899DF7
3E15E27B
3DC946C6
3E67ED0C
BD389B01
3DD84C0E
3D733242
3DE33939
BD20F222
BDCBE9A2
BD42954A
BDA6CE7B
3DF84E62
3DB64095
3DE95FD5
3E1F8CC9
3E120A62
BD9E7E9E
BD2CD719
3E1F5C38
3DD78322
BE2B4D6D
BE042D72
BC90011F
3DC0AEF9
BC1A5643
3E259AEC
3DA8EADE
BE009C1F
BDD678BF
3DC42168
3DE30FA3
3DE93F77
3CC06E07
3E217072
BC8D5FF7
3DB33002
3E111FE7
BDC4E0B8
BDA17BB0
3E03E382
3C7A1A7A
BDDC7E06
3E0FBD0C
3D060C20
BA14F5C2
BD293FDB
BDC681C1
3DBC8E3B
BE146BC4
3DFE4B38
3E43D7D4
BE071FAE
3E0F7B48
3AC2A353
BD9778BF
BDA655A4
BE2BE568
3D525174
BDEE9547
3E28C143
BD106938
3D51F68B
3CDB6C31
3E0ED82E
BB43D863
3DAD2BAB
BE322E6E
BD397F07
BCC1D456
3D13F4D7
BCC3ED90
BDA2BCF4
BE05098E
3DDDE65A
BDCBAB08
3E2D3DD3
BDCF50B6
BDC99EA5
3D9E26AB
3E0C9F7B
3DBAA444
BBE21D82
3E0E36CA
3C5EF7FB
BDB3C787
BE18E564
BB396F8D
3E59A6AD
3E2DAF6E
B8C0E14A
BBC7660F
BDCEBCA3
BD0D9E59
BDC183C4
3D5DAD81
3E45B826
BD9EEB8C
3C9B8D92
3E54D883
BE17C4B7
BE2A93C7
3CF0688A
3DAF5848
BDF11DEE
BE448C93
BC1D0C2E
3DB27DE3
BCB79929
BD9B80E8
BC033FE6
3D2C94A4
3D704E57
BDE09235
3DA4AFBE
BD77D494
3D849D54
BE588073
3CA2774A
3D7F9D95
BCDE50DF
BD1B02B8
BC97C598
BE1817AB
3DAE10D7
3D015DB4
3E1F1D89
BD5DE883
3D6450FA
3E0AB03E
3C1EF759
3E7668A0
3DA2BBE2
3E1F9361
BE58E203
3DC45CAC
3E23228D
3E1A1970
3D6AACCA
3E7588AF
3D803573
3CEA7B86
BE5B00DD
BDF2B370
3E2CBD16
3E16BC1B
3B8D0C14
BDBE5DD4
BD0FFC3A
BDF0BA23
3E1DC81B
3E320ECF
3E214B86
BE385E98
3E3253A1
BDA5ADED
3DD395F2
BE2890DC
3CF6D340
3E6929D3
3DBEB164
BDABDBA8
BD4650F5
BDB8E1BB
BC8B4500
3E510C82
3C9E37D0
BDE4E565
BE19D3AB
3E0F1E8A
3D512954
3D9537FE
3DF16C9B
BE5A616B
3BBB3CB3
3DFBFEE0
BD4BA537
3DED033A
3E08F8DB
3C598177
BE0CFD67
BE18B47D
BD890D30
3E23CDD7
BDAB3B3A
BD660F67
3E093E98
3D870AE4
3CDA2014
3D8EFF1C
3E5816FE
BAC3A01E
BDC4C4DA
BDD16179
3CC9370B
3E383CD2
BDE62076
3E173F72
BE2AEF5A
BE221496
BDCC3E36
3E371D3D
BB00C3E9
3D64F557
3E22D172
BD8D535B
BDAD943E
3E7CCADC
BDE52BFD
BCF18BA9
BD9687DD
3E430705
BE070960
3E05A203
3BB284EE
BD82A522
3DAA620B
3DACCFAA
BE0E0961
3DCE18A3
BD2DF5EF
3E4B03AE
BDAE4426
3C638806
BB7BC5E6
BE5B9202
BDDE8AA6
3DF98173
BD4CCA85
BE16E6C3
3E3CFBC6
3E023373
3D4F69E2
BDEFBD9C
3E1DAA00
BE3D1E7F
3D81C490
3E3EF224
3CA46B5C
BE1B7984
3C2A3C96
BD87113D
3DB6EA8B
BE1333FB
BDE08241
BE0F5FF9
BDA99B82
BD9D6AFB
3E371B87
BD1782B5
BD82EE61
3E1BA52C
BDE87B0E
BC4DDC59
BCA5344A
BE428DC1
3D16CCDC
3E0E966D
3E551E92
3DF6D875
BDED51A6
3CD8169E
BA545776
3E39B9DC
3DEF8186
BE13DC12
3DB62896
3DC5D33D
3E06E27C
BDE8E273
3E136C01
3D0A85F5
3D097BF6
BBA34D7F
3D2104B3
BE27F6AC
3E2F7C89
3E05A711
3D7E4B40
BDEEE8C8
BE07CF8A
3E2A5E39
3DECDBEA
BC79644E
BD53FD6A
3D8F86EA
3E0F3768
BD924CBD
3D822DBD
3D6C8189
BCB9D29C
BE3A842B
3E3BF659
3B0BD7B6
3E73B6CE
3D8D3AF2
3E383D3C
3D59F55F
3CF2B9C0
BE2C15A4
3D9D87A1
3CC8323B
3DABB6F9
3DF45725
3DD9FE16
BD88292A
3D600B3F
3E74D665
3DD4F480
BE01E31F
BE043516
3D8EEA00
3E042F10
3E3A28A8
BE22CF35
BE41301B
BE0288FF
BD74E715
3DA54250
BB44617D
BD241AF8
3C54462D
BD25EEBD
BE3C180C
3E19254F
BD260736
3E187915
BD830DFE
3CD76604
BE27F02A
BDF6D38A
3D87968F
3D3A8EED
3D46EF91
BDED75E0
BDE3D273
3E45BE6F
BE24C379
BD8DF58F
3E32F2AA
3E133DE7
BE1C95B0
BE592703
BE070B7B
3AE20B27
BC987DDB
3DC9D408
BE08B886
3D9FD0D6
BB3FC5CE
3E5AF596
3D9850AC
BC052AEE
BDC9CD24
3D03FD54
3DEA38B7
3E30AD25
3CF60372
3E405133
BC8C9CB2
3D1A6489
BE2EF67D
3DC2F35C
3E13A893
BD2E69C7
BD6F28A1
3E1221AD

