BE0DAD28
BE4DA7FB
3C322210
3D095BB5
BE1D335C
3CABF93B
BCB62CE8
BDAF8251
BD8B820C
3DB504D0
BCCB73D7
3D219C5F
3E1808EA
BE3ED33D
BD7A3347
BBA66C11
3D013736
BD1003D9
3D3F5838
3E03D24B
3E13169E
BE222DFB
3DAD0D23
BDBA7920
3E011605
BD85B30B
3E21D091
3E06C7DD
3DFD403A
BD986832
BDEE3BDA
3DFE35AC
BC2E6584
BDEE6312
3DE12515
BE08CB90
BD5DA4E8
3E18E201
BE1067D0
3DEE5E96
3DC9FEE7
3D7BBC11
BD771399
3DD4A79D
BA18C3B8
BDCDAE96
3E5B1FDF
3E3E8A05
BDCF3A9F
BE3EDD86
3DA5E738
BE121CA8
3E2C2D60
BDB2FF54
3D3CEF0F
3DD60A01
BD7AA44B
BE24E97B
3D5902A8
3CFA4DCB
BE207CD2
3E2BD0A0
3E62A1D4
3E16D39E
BDBFB853
BE127D42
3DB6E387
3E1AF09A
3DCBA369
3DF4DB5D
3D34DF8E
3E2DB83C
3D77664A
3D938C56
3E067793
BD64FFBF
BD9E1CE5
BD7E7B52
BCD4D317
3E3CCCC5
BE386486
BCAB1437
B9762C9A
BE06CCCA
3D21E301
BE0A2016
3E371EF5
BDF8150B
3DDC202D
BE431B72
3DE637BA
3C853B6C
3D9B0E3F
3E318986
3E55D6C8
3E099032
BDF9236E
3DFE99E4
BDEA6855
BE05F19D
3E50B0AA
3D608B76
BD042245
BDCF1271
BCD67B98
3D8A3A66
3DB2764A
3E14A446
3D353A99
BDE63133
BD34592E
BC78EB07
3E49048C
3D192DE4
3DE40BA1
3E48B9C4
3E31DA1E
3DE139B7
3E231EA7
3E5F6406
3D625314
BDAAB061
3BD7DF7B
BD0143D8
3E3B0B1B
BE035E81
BD42EF82
BCD6A601
3E3AC38A
BDFA4EB6
3E2AD7FB
BE19A740
3DF4FA5D
3DE56162
3E744F5C
3E44A6E9
BDA777A0
3CCC6734
3D6A049B
3E010A91
3D91F323
3D843B31
3E24A6F5
BDFD105D
3E279052
3D4ECE1C
BCEC7C22
BDDF0D5A
BE1635C3
3D2F9F07
3DEED8DE
3DA6CC99
3E51D4C9
3E17EA24
3E2D4903
BD288E75
3E2FD043
3B6621F8
3D9A12D0
3DDA43C0
3C85EDFE
BC500BBF
BE105B54
3C385D87
BDA1E1EC
3DCEC07E
BDCF8B83
3D17CFA3
BE23AE79
BE26770C
BE015FB2
BE30471D
3E4B3921
BD808651
BD896CA1
BCC8BB35
BD1A76C3
BE5386B7
BD993CDB
BD74B001
BE10A3B7
3DB60BEC
BBEE2395
3DCC11D1
3E0EE6AD
BE51F804
BDEF2EB1
BE07BFFB
BE3147A7
3DD71DE3
BD6C888D
3DBBED01
BD645775
3E0110C7
3E678F0F
BE2B0848
3D9EE3EB
3D63E647
3E26A40A
BC9493CA
3C7C09F3
3E20FA0C
3DF36224
3E1E3A78
3DC366AA
3D845D51
BE1569C3
3DE20F82
3E2FE7A4
3D903A25
3DEB5364
3DED86DB
BE1C0A15
BDF5A9AB
BC0B7650
BE276D63
BD02BE23
3DE2FE91
BE0B8C64
3E0BE466
3CD782E6
BE16C80E
BDA9D971
BE0CC4FF
BD14A0A1
BD267811
BD075188
3DCCAF90
3DE3407F
BE49AC50
3E494951
3DB6ED2E
3E3E3C88
BD968971
3D16F5F9
3C97AEF5
BE28DF8A
3CF26D77
BD68B0DC
BCFF57D8
3C4EBF98
3DD67D46
3DE39E21
3DE06D5B
BDA662E1
3E1FF76E
BD9F5C9B
3BAD2CA6
BDE03F40
3E184F0D
3E1E8F67
BE063586
3C6DA3BF
3DF1F0BC
3E06D5DD
3C042CDA
3D532F30
3D05F709
3E11E929
3D014991
BDCC2C65
BD92007D
3E7F2236
BD810D0D
BC85EE1F
BE26A63C
BDB1C99F
3D9EEA7A
BE1498EC
BDF065CF
3E57B6A8
3D01E56A
3E47FF4E
3DD5FB4F
3E373C50
BDBC244A
3E16D9E7
BE13386D
BE106596
3DD3BC70
BD775D50
3D113919
3DD05D71
BBB62DDF
3DBBE783
3E092F6E
3E589271
3DCC6E84
3E145D0C
BC106480
3DD5192D
BE098BE7
BCD38AA3
BD924354
3DEBACBA
BD4E629A
BDEFB231
BDF90851
BE2B4D4E
3DFB16E4
3E3172B9
3C530C45
BDF23E28
3E1AFF37
BE18A285
3D3FAF20
3D5F55AB
3D409C2D
BD58E7AC
3DC7ABA8
3BC38B1B
BCED78B3
3E54B977
3CB6F556
3E6B571F
3E29363B
3CA74F6C
3DC4770A
3D84C6F7
BC51545A
BDAFA3DD
BD342206
3E5BF59D
3C28C910
3D60A3C7
BD45FD6F
BDF1B44E
3D81A722
3C4BE13B
3E1EAC5C
3E064BFD
BD8AB6C1
BCB7A1CF
BE0BA51E
3E3C499B
3DBDC34E
BD8558FF
3E1FD913
BD92C7AF
3D626705
3DFCF85B
3DDEF015
BDCA1EA9
3E0549B3
3DD56B46
BE2564B7
3DC8A702
BD67CE26
3D5BFE27
3E0306E1
BDD175B1
BDAA7ACE
BD7F0CDA
BC37E31B
3E2AC522
BE52F4E8
BE0B464D
BDAA9EC1
3E46178F
BE2E4290
3DC2A586
3C877ED0
BE0F306B
BD51757A
BD10A8A2
BD5086E7
3CDDDBC2
BD1CC27E
3C2BCC55
3E00D14A
3D45189C
3DE66C5B
BE12CE04
BD03AF2C
BDA009FC
3C8A3D5D
3D2A8607
BE45CE48
BD20C88C
BC6E2C60
BC4655B7
3DA9600E
3DDC7577
3CB369FF
3DA07B8E
BE1BB69F
3DBC59FA
BD1BC262
3D67CE6A
3C984106
3E3A0D50
3D0A4421
BD9BF776
BE4918ED
3E3B6160
BE16857D
BDC50DE1
3D10E200
3D078048
BDC66553
3D619449
3E330515
3E44BDB7
BDCA5DD2
BD17E6A6
3DD6C07B
BE1993AB
3CBBDEDE
3E1E20A3
3E1E368F
BD9D6C28
3CB34C93
BC830664
3BABC273
BDB717AA
3DB881DB
3E599316
3CE92CFF
3E1A2E33
BE1E7548
BDCCA308
BE5BA07E
3DF7F515
3D5C7120
3CCE0101
3AFF8F6C
BCF5149D
BDAA7223
BD479593
3DAC2FDF
BE06CF33
3E0FCD0E
BDAEAC30
3CB16B3E
3DAEB865
3CEC6AC7
BDC2D5D9
BDFF5FAF
BE1132B0
BE15DFCC
3DC98551
BE0C709B
BE063222
3DCB3A7A
BDC18A59
3E0DC75F
3DA89ED4
BDE0B444
BE40E89E
3E2CF667
392E9242
3E299281
3E339FE9
3C427911
BCB4A674
3DBE2BEB
BC8A79DB
3DFA4C54
3DB78DCA
3DF6B934
3D374C8F
BDAE3426
3DEFEFFA
3E17DB7F
BE1C3ED6
BE1A34BD
3E61DD2F
BDFC1A3A
3DA58D39
3E07F5A5
3E0FBAB3
3E60DD95
3D8E0504
BB3B5D1E
3C522C47
3E2197AF
3D1CFBB4
3DED5816
3E53EDFF
3E31C06A
3E44A657
3E2A2E44
3DA33380
BD83725E
BE10467A
BE3234A6
3E097155
BDC69CC3
BDD10F29
BE296518
3DE9F49C
BDB110D4
3E1827F6
3D396A90
3E2EFA7A
3E2A882E
BD95B7FD
3C26BBB2
3DA5CECA
3DB59D6A
BE2571CC
3DFDEEAF
3E2872E9
BE126CA8
3C39EAFA
3DDEA578
3E724ECE
BE064DFD
3DC6326E
BE32C304
3D9998D2
BC81B9C1

