3D16BDA2
3C119976
3DCD124A
BE34026D
3CD751BE
BE1A8E05
3E01959C
BDB065D4
BD23355F
BBFF3DFC
BDD60B17
3CEC7D91
3DD62368
3DFB9802
3E0B34BE
3DBC6165
BE0D7923
BE406C65
3D4EB3C5
3D3CF8F1
3E4207E3
3E47F401
BE0CC110
BDBBB13E
BE500276
BE229301
3CB7254F
BE327650
BE24BF2D
3E56485A
3E459ECD
3D3DC213
3C8F35FC
BE24378B
BE12E902
3D826C36
BE2D0008
BE0910C1
3CF3A657
BE494240
BC9734D9
3E3F8F34
3D602ACE
3DC4FFBA
3E443536
BD0D7257
BD54EDDA
BE2A6B7F
3E0AB897
BDEE1613
BCBF6868
3E541235
BDE7CE76
BE546209
3D5C9C2D
3D163CFD
BD290A65
BB68D1C2
3DA39F46
BE1CD4DE
3E10D182
BE18CF1C
3E36BEA4
3B11CBA3
BDEBFD2F
3D279E5A
3DA1708F
3D163769
3D94B905
BC0BD55A
3E2A3DC9
3E2F3725
BC167FCF
3E1C1DF7
BDBA1625
3E0C4304
BE3DA0B1
3DF9DF32
BD73F69B
BE297BCF
3DAFA7A1
3D16B478
3DF07112
BD0B3A1B
3D494651
BDD65E91
BDFC0689
BE593EC8
BE492F9C
BD0420C1
3DA5FBDE
3E6FC194
BE473F4C
BDA539E1
BE4460D0
BCD1C9EF
3DF5A2AE
3CC65774
BE010AC1
3D902367
BE3471F6
3E1F92C3
BDB0FEE2
3CEE3EB8
3D92ECF6
BDC7E06E
3BF778CD
BDB82DEE
BE40AAC7
BD50A9BC
3CD414CC
BDD795EB
3E3DE86F
3D2C3F69
BC95317F
BD0A09A1
BDEE1860
3C84BC0B
3C309FB8
3E1650A3
3D75217D
BD5950FB
BE056EED
3E24FD97
3E4565D8
3DEE000B
BC3F2F92
BE24210C
3E1B055F
3DDCCE79
3D85984D
3DBDE95E
BDC44D8F
BD4BC757
BD82D1D4
BE4B5F36
BE22A0DA
BC064704
BD904F06
BDF62A37
BDD04393
3CBF5CA0
3D640D33
BCD9F4C5
3E39A942
BDA9832D
3D691B0A
3E278CB7
BD6425A5
3DB8E031
3E0A28A5
BE6DDF17
3BEBE3FD
3D8FC3FB
3B9FEA5B
3E3350E5
3DB430B2
3DC0D2D8
BBEFC9CC
3D1933C9
3D835AFB
3DB7279F
3D7DD3FF
BD743467
BD276CD8
BE029E99
3DDE7478
3D1CC363
3D9AB8A8
BC9E964C
BB9F8540
3E4F5240
3E16AE34
3CB42E10
3DCB8C2D
BE20044D
3E58D8E7
BE42DC08
BE06C616
3E32A12E
3DC354F6
BD44892E
3D410E17
3CC30649
BD6D5F83
BC3FBCD9
BD804B61
3DE610C2
BE138CF4
3DBEC542
BDD66E75
3E007E6B
3DDE6156
3DA58A7C
BDBB35F5
BD29BD9B
BDFA36B8
BC56F563
BE388C99
3CB343B0
BDEB31AB
BD71F2E9
3C0F3433
3D013CC7
3DC1FCE9
3C95EE44
BDE55AA6
BD50C915
3DB367DA
3D2C1DE7
BD6D84BD
BE15FF35
BE32FEC7
BDA5EB10
3CFE67CA
3DEC1E5A
BC0EE424
BD434FB3
3E00CA80
3C516C42
BCA87987
BDD0BEB2
3E1E11A1
3CC1B776
BE2ADA52
3DDD3B31
3DC0EE00
3E6C6448
BE073FC3
3DAED3F5
BE46C82D
3D9A442D
BD83FE1B
3DFC1559
3DEE2815
3D7CB0D4
3E4F7DF6
3DA2E150
3D25690B
3D73CFA0
3E2040A3
3E455606
BD3B6C0F
3E5EEA77
3D4D9725
3E283456
BC6E3C0D
3E106DA4
BDD064AC
BE15A447
3CE20964
BD6B0149
BC1857DE
3D25BB15
3D751A96
BCB51D16
BC3AD2BE
3D4845BB
BDA069C6
BE301583
BDA9ED88
BD819900
BCE08229
3D852D9B
BDA6E7E6
BE1507D8
BD18E19A
BDAC8E6F
BCCEF840
3C90A674
3C42DF1C
3D086135
BE1E51B2
BCF0558D
3DA9E947
3D068EB7
BD91B6C9
3D6B5666
3E0BB4FA
3E44EF08
3E17E993
3D95B487
BD2234A0
3D93F6A6
BDE8112E
BB8B8395
3E2354B7
BDA88445
BE1BBA7E
BE750A37
BD6813C7
BE1B1550
BE05C5B3
3D54BBCA
BC9AA395
3E2C7C10
3E29EDDA
BDA6AAA1
3E5AFEC3
BD46D259
3E1F648A
3D317CE4
3D01ECB2
3D7715E5
BDA54AFE
3E51C13A
BD552FD5
3E035070
BD1CA515
3D36D638
3CE08690
BD874453
BE1073CE
BE0DB2FC
3E0A5074
BC4DA71A
3E2B6206
BB8631C7
BE0B8436
BDF7DFD7

