BDC15171
BC1953ED
BDCEB5BC
3D0DAE45
3D84E93D
BE0330D6
3DF4EB56
3E1618DE
3E2C4C4A
BE31F073
BE2A5067
3C07F765
3E2A5863
BDC04F33
3E2D2129
3DAA386C
BDE87582
BDC1A4FA
BDA94C1F
BE2E47EC
BE114682
BE1B5C94
BCD5F83D
3DC67E64
BDF5EA4E
3DA140FF
BDA17359
BD6027D0
3DCBCE81
3E1FD99D
BD9C512A
BE3005BF
BD4D5979
BB744A9D
3D78BB2C
BDCEE02F
3DCB0A70
BD9DC78C
3E1C9601
3E1DD3ED
BDB3A03D
3D314276
3DA922EC
3DEA34B7
BE18755C
BB270343
BD2CB7D2
3E34A2B2
3D44C4C5
BE123E55
BDC97C37
BD87AC88
BE0791FA
3DFB3EE2
3D72BF52
BD5952D5
3D14AB4D
BE4F9B19
3DC596A6
3D2E083C
3E210EA5
BDB3E86C
BC9AD55E
3E36ABD1
3E20A276
BC5CEE41
BE01E3F5
BCC4A1D4
BC9E8C57
3DC95F2C
3E2BE555
BE4DA2B9
BD9BB7C3
3DD3B5A5
3DFF9C84
3CCCCF83
BC92C34C
BC866A86
BDED652B
3D9F9EE2
BD575807
3AA7A53C
3C8A6362
3D0204B1
BDEA820B
BD62AD69
BE3A3734
BD26F1AD
3D84E7B6
BE0D86AE
BE0D5336
BDFD5470
BE28E9A7
3E0E1DB8
BD68E1B8
3DC9A3E6
3D805AF0
3E47BA62
3E2D5B7B
3E14BA66
BE0E2E80
BDD30CB6
3DFE079E
3DD2319C
3E1331AF
3D357B2F
3E23AE9B
BDCEDD19
BE1581E5
3D5AD6EF
BD8542B5
BB7AF846
3DA61C51
BD01DC24
3DAB0E79
BDEA16D1
BDC72648
BD133B8F
BDC02595
BD3567D9
BC85048E
3CB76CD2
3E2EFA24
3E00A60C
BE08712D
BDC8F4D9
BD2977C0
BD80C348
3E29C48A
BCC0B0EF
3D4A9BC5
3E3955CB
BE3F5B41
BDDD3880
BE39C744
3CDA1B6F
3CB3E43D
3AA48388
BDC87D51
3E038D83
3E38B70C
3D0A720E
BE444037
BCE45C90
BD150C0B
BDEAC214
BE3227D3
3DC21AFC
BD9D6B1C
3D0F68C3
3CABA3EA
BE433518
BD9D39CE
BCA472F8
BE2C0348
3D02CC83
BE114D40
BCDAADE3
BC3EFF6E
3E0353E3
BE3E5BE7
BDDA1FBE
BD367A1B
3D9B5664
BE24EC8C
3DDEC964
BDB16061
3E32247F
BDA183B3
3E1BF785
3E399DA0
3C860DA5
3E3C098F
BE10572B
3D5734E0
BCC77D3D
BE14FD39
3CA06CFB
3E149096
BD71410D
3E4EBF71
3A33B94F
3E05194D
BE05B8AE
3E2BC67A
BE0BCB50
3D9C832A
BDAD4028
3AD2089C
BE3C1CCC
BE0679A6
BE4C318A
BDD780D7
3DAC5A5D
BC6F4FB6
3D95ED68
BE2BDA24
3E532B90
3AE38A51
3E0C0DBA
3E5A22D1
3E0C000B
3CBFBAFC
3E060B00
BDCBAB5A
3E2748F8
BE40FD43
BD917CF8
BE057057
3E32BC12
BDFFD2AA
BC3C92E1
BCBC4E45
3E108468
3D81BC2B
3E1C18FF
BE1AC744
BBD16856
3DBF69C9
BDB7B525
BDAC2F24
3E286A8F
BD2720BB
3E051E33
BDC9E9D5
3D2FD037
3D981B74
3DB2FF8E
BE1C7450
3E34D9CC
BE0F3078
3DADD5E0
BE11FC3A
BD84864B
BE3D871E
BD8B6829
3CA2D145
3D485C78
3CAC583D
3CFD1C57
3C2C6EFC
BE44A59C
BD76EEE9
BD897D1C
3DA6323D
3D38EF23
3D76CFD5
BE3CB609
3DB57C0D
BDA1FDA6
3B57A228
BD5A1CC6
3E197DB6
3E55A901
3D92C60B
BDA66FA7
BC9C3BD3
3D983C0D
3D512358
3E3367D8
BD4B79D2
3E81FAFD
3E3F3609
BE44DE83
3CE5EC26
3CC1098B
BD703095
BDD19BA9
BE077954
3E1CAB6E
3D0B6547
BDEC0CA9
3D404BB9
3D04BBF3
3C9FED3B
3D81DA5A
3D911E7C
3E4149D2
3E24549A
3C6B029F
3DFEA55B
3D022A6A
3DFB46FA
3D62DCA2
3E491801
3DE765D8
3E215C4B
BC19D9D8
BDF401D6
3C9D0020
BC2A9E24
3C1EADD1
3CAD47B3
3E4CD113
BDB6F768
BDB0027F
BE4B4C79
3D8382B3
BE217BF1
3D374DD8
BDC78695
BDC0B060
BE218250
3E0CD92F
BDF36B56
BD4CFC9C
BDFB072A
BE375014
BD2A9752
3E25F364
BE15A936
BE0DCC56
BD5EC59B
3C307C50
3D225292
3C20359A
BE4B838B
BDF1E6EC
3E0FE639
B98DA6C4
BE1ACA37
BE053B9C
BDE9F38C
3E46A1F5
3D46543D
3E2503AD
3CA2497A
BE3F98F2
BD7306B5
3E34AD07
3E0A8965
BD3D99D8
3E238936
BDCD2EFA
3DA2AE54
3DEABAED
3E39B851
3D85DC4F
3A901157
3E1966AF
BD8A7841
BC2BA52F
3D9994FF
BE2EC94F
3D4936C2
3E40246C
BE22C2A1
3E00A79D
BDE07613
BC340944
3DB181A6
BD425148
BD29106F
3A2E7E84
BE089A5C
BC11F583
3DFE489E
3D8BBB6A
3DBA176B
3E33A05B
BDA486A3
3DA3A25B
3D78E14E
BCA61784
3E19CFB4
BD8FC6ED
3D52C51E
BE28AC56
3D821060
BE068520
BE25D341
BE4826CF
3DAA01A2
3CC6AE05
BCA79C34
BCEB759A
BD36E5DA
BC64CBC7
BE377231
3E0194D1
BDD9B25C
3C9C5D64
3E09E252
3DA00977
BDD28AE8
3D59E971
3DBE7DE1
BDFE12D7
BE322DD7
3E2A47C3
BDB75EBE
BE35F41C
BE2ABE3D
3971D9DE
BDA27D35
3D5269A0
3E5EEF1E
3DECCDFB
BC5DFCA8
3DD682B6
BE37FD05
3E078D47
3E0DBE42
BC9C7C26
3D33D6FD
BE278FF8
3D967422
BC74C6E5
3DC701AE
BDB3F21D
3E3C7DA2
BDE8642A
BE201854
BDB91E7F
3D6D0973
BE1D57B2
BE20C0DB
BDCA1F13
3DCFAD3D
3D852153
3CC09FB1
BDE1B95C
3E041A81
BDCBF212
BE120BE0
3E26BB93
3E34DE4A
3C0227F3
BE23AC93
BE379DC7
BD451E42
3D90A687
3E192494
BE15C6CE
BE4EFDA3
BE145894
3E0367A5
3E0FEDEB
BE54D49F
3AF01393
BE0BF244
3E5673D5
BD07584A
3DFE4F9A
BDE7A57D
3E1B93AB
3E16BAEC
BB787048
3E42F1FF
BD6A68EC
3E563487
BD3417AC
3D5D1AD3
BE19229D
BDCB867F
BCE35853
3DE458FD
3E555DC8
3E241832
3D63BA36
3E1172E1
3D68211A
3E201BC2
3D79767C
3D5838FE
3BD84BF8
BD988706
BD28D0F2
BD797A00
3DFD0838
3E087092
BD6DD1A1
3D5AE2A0
BE03789C
3E3F6715
3BB2FE16
BD9FFC26
BE4B561E
BDB7FF38
BE1377C7
3CC1C9ED
3D2DAA0D
3E16F619
BE34AEF3
BD7BD0C1
BDDAC95B
BD329610
3E21FB53
3C91863D
BE23B988
BE561A30
3DA67A47
BC6EEAD4
3D542F10
3D0B763D
BB34B565
3D3F7C6E
3DF0931D
BE5AA8B1
BDA36D94
BCB77960
3CBC973D
3E2890B7
3D02A3E0
BD819AAB
3BB8381F
3E0F1E73
3CEB63A6
3E092FCD
BDD4EA3F
BE062A9C
3DD87716

