BDAE2219
3E08AA20
3E254CA9
BDB73BF6
BE225D7C
BCA2B77B
3C4D434F
3D5FFAB9
3DD7AA02
BC896346
BD04189E
3E434C46
BDD4E63B
BE11811D
3D004B36
3D997DBC
3E11BCBC
3D72871E
BD344CF1
BDA576DD
BC484A6B
3DC42079
BE32EAB8
BD715180
3E0353A8
BBB8FFFB
BDF9D774
BAD6C0F0
3D06A332
3DC8DFFE
BE4D97C5
BE325F10
BD06B27C
3E2D78DD
3E3148B1
BBE6319E
BC4E11C6
3BC3CF7F
BE0BCB9D
3DCBCB49
3D8EC8A6
3E13C91D
3CA71853
3C4E38C8
BE4D8C45
BE27AF58
BDFC2A74
BDCBFC07
BE105ACE
BDC3E135
3DD06F6A
BE100809
3E5CE085
BDF314CD
3E235D01
3E11B2CA
3E2CFF1D
3DF1E701
BE0804EC
3E12C666
BB7973FF
3D01F264
3E1E3CE7
3DF9C830
3DF9DDF1
3DF1B52E
BE1584B8
3DD3D95F
BC628E6E
3D416631
BDA89E5A
3E1BDA66
BDC5D3D8
BDFBD62A
3E06F814
3C640692
3E2433A6
3D768534
BDDBA693
BDF6ABF0
BCAB5C1E
BDBA102B
3D37B803
3E243B1F
3E2F6DBF
3E099DB7
3DF2458F
BC239174
BE295501
BD857BED
3DF62234
3DB9F3A6
BD9CB148
3E6DDC7B
3E20409C
3E5968F4
3E33075A
3D6101D7
BE2F0690
3A6FF32C
3DD15418
BE087F25
BE24A353
BDE0C359
3D61764E
BE19A4FC
BD231D7B
3C4C9DFB
3DE3F237
BDC711BC
BD31110A
3E4D570C
BE3B04C1
BC1BA141
BD99D234
BD8847D0
3E3915A7
BCBFE665
BCF479B6
BDA89B22
3E40F222
3CCAE3D6
BDF3FDAF
3DBAB3D0
3DA683E5
BCFC92F8
3E514EBB
3E1DEAE0
3C7D8DF8
3D6FD0E4
BDB1AB3C
BD0B3595
3B9F6CDF
3E2035EA
3AA53D64
3D885496
3E1A0A48
BE1F2E08
BE2C16E0
BDCA4570
BE682F7F
BE02E0FA
BDC8E6FC
BE10F99B
3CFED2B5
3E2C9B52
3E6328AC
3D3D9741
BDE3C20D
3DED6852
BD938C92
3DBAA71C
3DC152E7
3E36A659
BDA0919C
BE20FD26
BE0E4EFA
3E390C18
3CB24DA3
BD1B9B44
BD8BD202
3D72C81D
3DD1F442
3D9EDB77
3E001EBA
3E5202FA
3D7F6536
3DE64A8B
BE2ACEE0
3E3B2CDA
3CAFBF9D
BE108D2D
3D4BA7F7
BCEF917E
BD04A2FD
3E562ED5
3C25A82B
BCAE6D4D
3D4342B1
3BC60F4C
3E1DB851
3D514643
BDB04BDF
3D33F52C
3D96CC05
3DD867A0
BC0BD7E5
3DE673CF
BE030828
BD27DFC7
3E44D5A2
3E394CC1
3BC70274
3D06B036
3D99A9D6
BD9E52CC
3E3DFDF4
BE07FD2A
3E4D36F5
3B635047
3E299C1A
BE14EC7A
3C53F3B5
BE2B751A
3D759946
BDF78844
BE199BE6
BC3FEDC0
BE2A528F
3D507046
3E2C1298
3D9F626E
3D82D6B8
BD196E6C
BE21C51B
3DD53ABD
3DBBCCAF
3D994140
BE499132
BE097628
3E04F1C3
BD897C49
3D43135C
3DC155B7
3DF59E6A
BD0B195B
3DC9CCA7
BE34B30C
BC982E15
3E4FCCAF
BCF3430A
3B80D44C
3C9B924F
3E1DFAA5
BDFD5F83
3E3B7293
3D00862C
3DFEF368
BC0435B6
BE24D15A
BE2C0AE6
3E279F1C
3DD91F49
3D30481A
3D686B3D
3DA39AAB
BD743B54
3D8F865E
3C96B5CF
3E2D58B7
BDB79299
BE588595
BDC9A982
BE3C3E65
BE0D0C14
BD800117
BD12DBF2
3DD244E2
BCAFB6E6
BE16405A
3C672694
BB474BB3
BD406DAC
3E2DAA28
3DF11AF4
3E1DCD19
BD411794
BC94B606
3D48F6A5
BDC9269C
BDCC84FD
3E3FD3DE
3C86FFFB
3E0C1246
3E318BD4
3E269ECE
BE7124E0
3E425483
BDDD2027
3C6F6B8D
3DBBE116
3E3DFC71
3DB85915
BA814AE8
BD02C360
3D3C97C3
3E4AD9D5
3C2914FE
3E36865C
3DE6FE7C
BE3015AF
BB97DC2A
BE14C632
3E14E160
3DBE9FFD
3E1DA891
BD18077A
BE18DF88
3E22D2E2
3E37B786
3DBA1428
BD9DEF3F
BDFFB89A
BDA2C141
3DFA3E13
3E32EB34
BDBB6F4A
BD56EE0C
3DA2ABDB
3E20A545
3CED0F66
BE2EB8B4
BDAD15EE
3D9545ED
BD3F96B1
BE31C6BC
BE783CFC
3DA77509
3E2C543A
3E379473

