3E0AEEA8
BBCD8C9B
3E27B058
BE03375F
BC360E6F
3D005BE2
3D2CAAB6
BE25CD36
BE45CD5C
3DCCCA56
3DBB2A8E
3E613035
BDA42D1D
3DA7EDF7
3E26FDAF
BDECC9DB
BE11D29F
BC652A1E
3E20095B
BDFD2FB2
BDEE3640
3E300C5B
BE4EA47C
3C8DC689
BDEB79A4
3DD03C4D
BE5B9ACE
3D52C240
3E1AA380
BDE7A8CB
BD2B47D6
3E643F6A
BE23B317
3D322F13
BE46B8EE
3DF6E62C
3DE665A6
3E14F25F
3C44B614
3CCDA356
BE11A199
BE1DD633
BD8F6C29
3E481D01
3E0EC958
3DF85B69
BE09F44F
3C7D8A44
3E4F111B
3E381558
BD0C55B1
BE2619D2
3D8E3614
BD51EE5A
BE0A379E
BCBD9881
3DB1CEB3
BD21E94A
3DAC300A
BA95D368
3D2FCB4C
BD0B8CDB
3E359968
3DB3CCEE
BD042C4D
3C310BFF
3C69DAEF
BE265FA2
BC9886F4
BD8D2F11
BD710422
3E32493A
3E46C321
3C853B22
3E0D3629
3E206D67
3D980A4C
BDD969F2
3DB37824
BD6685E7
BDC887C7
BE220F3F
3DA9E421
BDF3BE57
3E1A9481
3E445164
3D9B323B
3D9EC7BB
BD0DC533
BE27608A
BE1024FF
BDB5CF40
BDB32C5F
BE1FF6B1
BB4F04B2
3D92D2B0
3DEA9565
BDFD0E65
3E0342C1
3D477D29
BE41BA85
BDAC13E0
BD27B84C
3CCAECDD
BD67707F
BE360BB7
BD8EA6E0
3D817962
BD75EE28
3E2BDB7C
BDA44168
BCAC054C
3C71DA04
3D94CA77
BD7EA697
3E202188
BD05D243
BD3FBC59
3BA6994B
BE1F7FB8
3D97DDA2
BE3F4027
3E44CEF1
BB96C2DB
3DDABA42
3E339CC6
3D68B196
BDC91621
3DAB9FD8
BCBF6365
BDCB3054
3DAEA1AF
BDF827C7
BDADF655
BE12FCD1
BDC35DCE
BDAB6324
3D6DCEBB
3D861C52
BDECA096
BE31B7D6
3CC2FB47
3D8ABCBC
BC95959C
3DF94153
3E08A2E5
BCFB0F6D
BE3A1C21
BE317458
3DD9D3BC
3DCD448C
3D2EB21F
BE02F287
BD44B16E
3D4131B7
3DD6787C
BD007C0C
BE1F449A
BE1C36F0
BE371C67
3DF52FD1
3C25037C
3E1C1BB7
BE20CC50
3B90DFE2
BD607DDB
3DBD6E62
BE30182A
3D064F7E
3DB079D5
BE285B4E
BE2CC4AB
3E2FCD42
3D8897DD
BC8E8AC4
3E42701E
3D833923
3D9B95FC
3BB722F9
3DD463B1
BE012886
3D7EAD58
3E17F0E8
3E297F1C
3D0664B1
BE36634C
BD86F578
3DEB1F62
3CD43166
3DD0D1E7
BDB8E462
3E01DCF1
3E00DDCE
3D869B1F
BD850A1E
BCA86F25
BE1AF8F5
3D4DE5CA
BDBDBD7F
3A7B36FD
3E4D5CB9
BDC89541
3DAC4752
BD818787
3E0E5C44
BE157B30
3DCB2F2D
3E3FF393
BD973B4E
BC5A93A9
BD9E1F16
3D88316B
BDAFFAA5
3E19DE32
3DC3D4FE
BE1F56FC
BD438F4C
3DE30CF4
3D1884B8
BBF0FBDE
3DB6A57E
BD139D72
BDBEA1ED
BE1D4CF2
BDF6E3BC
BDD3AB19
3E2D661F
3D7BD862
3E0564A1
BE057AEF
BE2899FA
3D33B1BD
3D0DAD81
3D6E7B18
3A9C14B9
3CE563B8
3E352800
BE1B276B
3D11F46E
BD2C968E
3DA4024A
3DB70CEA
BE1CFF05
3E3DEC42
BC74A3B3
3DD4E9C5
3E01E450
3D3B30C6
3CC93335
3DE35774
3E76D232
BD2F3945
BE1004B3
BE0D24D5
BD9D6421
BDCCDCCB
BDDB33A4
BC5CAA1E
3DF0828B
3E2A379E
3D24715D
BE4BAA75
BD33B848
BD97639E
BD47F276
3D01C7D1
3E1395BF
3DB21058
3BC2EDAA
BE122FE0
BD931925
BE36788A
BC9917F5
BE16DFFA
3E5393CD
3E0ADC33
3DB3DDB8
BD17F562
BE20D62A
BD94105C
BDDDEF2B
3D0D063F
BD2DA6B1
BC4FEDB6
3D54FAE2
3D86F25D
BDDD28E3
BDABCF78
3DCF1467
BCDEC283
3D3A8B3F
3DA70C74
BD41C743
3E3EC7C5
3E047F9A
3D3C3DCC
3E28A558
3DF4185C
BD116A2D
3D74798E
BD8C7C3B
BD30CA65
BE181559
3E4755D7
3E484F18
3E300F23
BDC71818
3E24DF7E
BC895037
BDD500E1
BD0D7EBE
3E022BDE
BDC50852
3D4B1014
3DD7BEF2
3DD9F05E
BE08EE94
BDF778E2
3C52BE6A
3AFAEFD4
BD762392
BDC8D3EF
3C3D46AF
BDC9C9BC
3DF4B8F1
3D8BFA0A
3E036030
BC76DEBB
3E48D6EF
3C8BE298
BE0C785D
3E00A247
3D84221A
BD906089
3DECE8A7
BD0E6613
3E0330BB
BE0DB691
BBD865AC
BDBBA3D7
3E00AD0E
BE0F4E55
BE041B37
3D290C7A
BDAD7431
3CAFAEC1
BDB6BED0
BD0C0070
3DE6B0E2
BC843F9E
3E1F6718
3CFF321B
BD63127A
3E519078
3E22FCF7
BCBB8522
3D952045
BE246C31
3DD15920
3E457751
3E514C4F
BD9F2C40
3E329671
BE57DAFC
3D142286
BE20284D
3E4B4F31
3DD24717
3E3D072A
BE04696E
BDB4FE8C
3E4F6810
BDB4F4BF
BE439148
3DE5A2F3
3D8963E2
BDF79014
3DB6C6C8
3DFD93B2
3E5064BB
BE5392FB
3E1D28A2
3D61949F
3D6DC14F
BC202B38
3E1DC377
3D0B32C9
3B28AB09
BD6E9CBC
3D47A9CF
3D3A9A6F
3DFDD712
3C8810FE
BE085D15
3E34B4E6
BD535DCA
3DB23B12
BD8C03BB
3DC4D25F
3E2BD55E
BE5256C2
3DE7E6CC
BE3A5A98
BD8DBDDF
BCB74AC8
BCCA42DE
3DA1A158
3B860357
3E180F15
BDA5EAAC
3DC7F70D
3E2CFEA9
BE5AE845
BDC16DEE
BE4889AC
BCF84A75
BDE9E886
3E2DF106
3DCB7D22
3E1E3244
BC082C41
3DA84B60
BE1E9388
3E2BE4B4
3C0F2FB6
3E09A326
3E0ED893
BE0D8B2E
3D57A341
3DDD3C24
3CBEBEB6
3E13917C
B920C084
BE452CE0
3DCBD0B3
3DF90E01
3C601CB8
BADF1F48
BE0DB533
BCEF6341
BD0F9046
BDA45C51
3DF28CD9
BDF23C27
BD76D126
BD34E2FF
BD4FB447
3DCD38C5
3E67380F
3E0D54A9
3D666C04
BD7280EC
3E257C8E
BD51C9B5
3E473068
BC791D0D
BD931EE7
3C61A620
BDDDB43A
BD88C2A0
BDA2CD1F
BE214666
3D572A07
3DF1DC9E
3E515EFB
3D491172
BDBC1D1E
BB3A977B
BD6C2E5A
BE4667BE
3D4D9A1C
3E2DEB2C
3DD4B9B6
BD95A18A
BE0C3350
3D80C4A0
3E102357
3DC91767
3DA579B6
3D783174
3DB69E1D
BDE94038
BE39B968
3E43EFC5
BCCE9F62
BDEB5FCE
BBFA58D9
BC237A81
3DDBEBDD
3E09F1F4
BDD8F07E
BC8B0FAD
BD0E9B25
BD5FDC27
3E14E20C
BE0E4A63
3E0025AE
3D3390AB
BDFD3D38
BD9C58AA
BE1B3832
BE0CBB42
BE2C7393
3D5D0875
BDE194E4
3E26FAB6
3D8BA682
3D1B22B7
3B1A01E0
BD7ED6A8
BE3EA646
3D19D15F

