BD4CF10C
3DA09B78
3DAD8288
BDE64ED5
3DFB39A6
3CAB7AC3
BCD2BF05
3A21CA8C
3E2A5E2A
3D79D257
BD476171
BD659B67
BC1CCB4B
3CD3EDE3
3E358857
3E70BE92
3CDAC65E
3D9374C4
3E22431E
BE63D9F6
3CD70292
BD7E2FF4
3BA0020F
BC976329
3E0DF0B8
3DDA88FB
3E527059
3BDEBDA4
BD805D6B
BE755F58
BC749992
BE0D0FA8
BC4F854D
BD626634
3D9DC4C8
3E04297A
BE1D8995
BD0AEC73
BE2BB06E
3DB678F7
BD591E26
BC3BAAD7
3E003799
3DE7E2E7
3DE0D012
BC34C95B
BBDF056D
BDD0FE65
BE0E61F9
BE225370
BE368941
3E04E2A2
BE481D75
3E53F194
BE093A40
BCC8643A
3E35385C
3C2E9A25
BC900286
3E1250FC
3B364727
3E4176B3
3E1D3752
BD54BE1B
3D0EB1C7
3D9A3BFF
3DFECEE7
BE20BB81
BD5A8843
BCFE9514
BD862665
BCEB17B4
3D2E43AE
BAF10F62
3C2E41B5
3E14D3C9
3E15353D
BCC0D962
3E2A66AA
BCD62024
3E53F96B
3E7C87AA
BCAB7E6D
3D7A1C47
BDA6B2F7
BE82AEBF
3E0580B2
BCBB694C
BE007A88
3E240770
BE252A3B
BD9DC0C3
BE39DBAD
3E5B96B2
3DC320FD
BDA7C081
3D83F021
BD1D7C53
BE0CDF34
3D87377A
BCF99A6B
3CC652BC
BE1549B4
BE046B0E
BC9D89E4
3D68AC03
3E03B194
3E6E3483
BD121E94
3E1E46A6
3AD94249
BD87D7B3
BE09B390
3DEA64EE
3D536F51
3E3F53E7
BE4B5DF2
3E5C3556
BE02FD2C
3DE71CAF
BD24D101
BDD36EBB
3D10ABEE
3B9E2290
BE26C4FE
BE326638
BE65ACB6
BDE91C2B
3DA1CD3E
BE1F5C89
BCA15C3A
3D01A1F8
3CB11E92
BE2AB00B
BD7255E8
BDE3EF5C
3DE5AF6B
3D76BBA8
3DAA6197
3D63E220
BD4123BD
3E3A7005
3E379D21
BC827DBF
BDDF1F3B
3C1A47F2
3E6091C3
BC8DAD5C
3E46DDD3
3D9C7517
BDA12444
BDE299EC
BE041A2D
BC8B55E2
BE345F1D
BD31E29F
3E2B190B
3C881E66
3E21788E
BE0F4FDC
3DE7BA74
BE49E6C0
3D48FB9C
3D0647F2
3E44B0D0
3D36FC4C
3DCA1E4D
BDC6B3A4
BDA3DEE4
BDE8F3D7
BD4C64AB
3E32AC6A
3DA75817
BE139F51
3DCB90D9
3E196492
3E61D8B9
3D659A8E
3C8769B1
3E4DAA3B
BE0753E8
BE0407DC
3E4CB575
BC368AEB
BDE563CF
3CD4D780
BDE26604
3D976F7A
BD3E59F4
3D0F488B
3E5F0130
3E4DC65E
BDE669DA
BDFEB4B8
BD8C446F
BD3F596F
BE446853
3D530E88
BD410833
3DB9A2D5
BD948318
BD0FD56D
BE32E148
BD1BC758
BBB39B55
BDD83139
BE3F48E7
BDBD9AAA
BDD4DF8C
BD11884E
BE27C9E1
BE023099
3E2AC768
BC8F4C23
BCB18C06
BE21B05D
3E30B080
3D374E1F
BE03BD3D
BD85340B
BE1D9B97
BCBDB9C1
3C46513F
BDC71987
BB9FA005
3CCE9030
BDE6BA2C
BE496E27
BE313C21
3E5D564A
BE4DE4D5
3DB32CC1
3E5BE922
3E331673
BC1606A6
3D22D7A0
BDED0A6A
3E413704
3E450836
BDD421FB
BE4FA829
3E003B28
BE0AE2A6
BE12C5BD
3CE5BFDE
3D18D1D8
BE212555
BDF2A5A0
BC96F1E1
BE0D9AE2
BE0B9200
3D258955
BD29792A
3C3429F5
3D7CC7F2
3E0322C1
BBCF1337
BE379474
3D180CA6
3E3C81DB
3D8D01F2
3D9B0846
BD8A38F9
BE0C3C38
BC68073B
BE48D71F
3DEA967C
BD96639A
3D5C6B80
BC58C2A9
3E39D00F
BCCB9C51
3C2A7646
BE05C854
3D8B45C5
BE04CB2B
3D3105D1
3DF499AA
3D2AC3F0
3C9FC50E
BE2970B2
3D954C48
BDE34582
BD90D326
3D4ACB6B
BD459F87
BE2568D8
3C53CD19
BE4A7D10
BE424ED1
BDBF623D
BCBAC934
3E3564A1
3E250C03
3DDF9DCF
BC17B7C9
3D76400B
BE0741AD
3D54D8CA
BD91D9EB
BD7F82A3
BE05AF77
BE019137
3DF74B80
3D4D27CE
BD72ED95
BE65E8A4
3D350067
BDB435E4
3D73B458
3E0A9634
BC78122A
BD7A86B4
BE302359
BE4D707E
3E25C274
3B943C02
BDB93FB6
3E11CFEF
BE0FE4A8

