3C8040F5
3E34D68F
BEBB3AC7
BE9DC5EF
3EAAA115
BE3A57AB
BE5818D1
BE91289B
3E9DC90B
3D311585
BCAD5462
BE9FA97C
3E351739
BE98587A
3E553A9A
3E88F0A6
3EC5A235
BE84AFE5
3E204256
3E358412
BE13B66A
BEA7BA92
3E6A7E58
BE5F6857
BE860573
BE31713B
3E009728
3E72EFA5
3D1D4A9D
BCAACD8A
3B88C933
3E5FDA0B
BE0F1FD3
BDDD92BF
3D77FFC9
3DAAB03B
3DDFDE30
BD3C167E
3D311E68
3E637D6E
3E8A72E4
3E4A7ABE
3EA56F8D
BE8EFE11
BEB1ECE4
BE9B68AD
3E81E8AA
BDEBD6D3
BCB49708
BE4BEF65
BE008898
BE2C4790
BE60C1E1
BC811FE7
BE7BA277
BE15FD0D
3EA93942
BDA79C3B
BD1209C7
3DF3E2E7
BE95D6DD
BEA316E5
BE0B0DF8
3EAF2391

