3E37AC19
3C8BCC34
3DFB1C5A
BE4B48BD
BE29BA06
3E0B248D
3D324E17
3E2C4399
3E085E42
BDA38E3B
3E1FC86C
BE1935B7
BD305A7F
BDED624F
BDA82B06
3E34D4FE
3DD242EC
3DBB229D
3E167A56
3E0C5765
3C19327D
BE3C8F4E
3E657756
3DC9D1FD
BDF293F6
BD291146
3DDC07B3
BE3EC100
3E2A2977
BE294019
BE121DA9
BCBF0E43
BDF2211F
BAE22D03
BDB314F5
39C87647
3BC0E02C
BE2E00A0
3E589835
3DA711CF
BC33D6B6
BD4457DD
3C60704D
BD2E273F
BE20D416
3E0A44B8
BBA4187D
3C832A60
3E278C55
BD7D5DF1
3E1D0C07
BBAAD3EC
3E115F98
BE152625
3E0A739F
BA19C7EC
3E44AB5E
BCB1EC47
BE010184
BDA25951
3E0315C5
3D3AD938
3E3944CD
BE176635
BE1092A7
3E309B77
3DFB1306
3E5B9F4E
3CA65DED
3D89A389
3D8AD55D
BD0C165C
BDDBFE82
BDF34486
3DE84021
3E3C8AA3
3E1186D1
3DE1B853
3D214E34
BE390292
BDD2BEBE
3D1F441C
3E0F21AF
3E235AD2
3DE8E505
3D9B52EA
3E37D92C
3D3DAE0F
BCCD6EC1
3E168F71
BE115A63
3DFFC40B
3D879C0F
3DC72330
3E14AA7A
3D1A6F64
BDB835CD
3D71C7F6
3E2E04DF
BDD7BA3D
3C639BC2
3E442754
3E2E302A
3D56D609
BD83D535
3D0883D4
BC8BFBB7
3C0D62CB
BD3BB583
BCFF30AB
BAC86344
3DFAEAF0
BD95418F
3E3A9B56
3E5448F8
3DEA7290
BE036959
3E258110
3E121439
BDCFABF1
3DFFC83D
BDBA8C70
BD593829
3E331DC5
BE316C3D
BD54C369
BC30F537
3D32ED2F
BD75189F
3E364E23
BD0F973B
3DE90599
3DDCD3EC
BDC0046F
3E4527AE
3CF9FCB6
3E2A1DA1
BDD35EA0
3C57CAE2
3C1397F6
BDF91891
BE151EF8
3D35679F
BB3DDF23
3DFCC13F
3E0CEFC6
BCFA6F23
3D0F73D0
3D85D434
3C9ECA67
BC0D4DE2
BCF6D6DA
BC054637
3DD1A35F
BDF19DD0
BE1B9190
BDBD118B
BDB0FDFA
3E3CD676
3E097E6E
3E3582A9
3D8FD53B
3E31BE3D
3DE350D6
BD098FB2
BDD0D20A
3D0021AC
3E60AFE0
3B0A086E
3D9A8C0B
3BE725C4
3D96B624
BE03B736
BDCD819C
BD0B3C6A
3D90CAE3
BD343F45
3DE4C8E0
BD48DAEE
3E055458
3D5E7639
3D4508E1
3E58724B
3D95603D
BE150532
3E26506D
3E4ACD4F
3D3FDB04
3D797B2D
BDD0452C
3BD8ECB0
3E1CCCCE
BD88FEA2
3E2D90E6
3C8E4A2F
BDEA4449
3DBDC5D9
3D5DF474
3DA958E1
3E2CA565
BD281C37
BD06554E
BE14AE4C
3E1BA46B
3D91131A
3DF184D2
BD97A252
BC88CE7A
BE0FA549
3DBE8185
BE24FF0E
3DBB3234
3E18C443
3DD39B92
BDB7D953
BDF5494D
3CE34023
BE22063A
BC25D6CA
BC165C17
BD8E0856
BE1EEF01
3D68AF54
BDA49FAF
BD82A221
BD9AA182
3E132719
3E0E052D
BB7C0492
BE34A7D4
3D8D3F61
BD8892E0
BE01B047
BE0C9ECC
3E0C0064
BD2106E2
BE13DA72
BE2EEE02
3D9241E4
3D66FC5B
3DDC84D8
3D33E38D
3C02D7AD
3D68B8F9
3E302119
3DE77C5E
3C6D4B3D
BD6615D4
BE0C4866
BE0E9397
3D8D4590
BB91B8CE
3E4668D9
3D2C53DE
BBC707C0
BDD647B6
3E3BA6B5
3E3FC87B
3E4ACDCA
BDDE8DA7
3C6B899D
3E79F61E
BD89A775
3DC2295A
3D926EE5
3DCC08FC
3D150B44
3E6D97D8
3DBDD721
3DA0B78E
BCD50CCC
BE07F36F
BDD823B7
3D3E4229
BE16E59C
3E0E2785
3E2AADFF
BD837A11
BCCE3910
BD26F587
3D8E0ED1
BD036176
BD2E2932
3DCC70C2
3E09BF85
3E19B5A3
3D97F751
BDDC9CA1
BD7F0633
3E38CC1A
BD896878
BDBA35D5
BBB790BB
3D19DFBB
BAEC6944
BB82B278
3E026977
3DD0257E
3E67A578
BE45C732
BD785DFC
3E2979EF
BD65BEC5
BA1A5E94
BDB45173
3E13927B
BD16A1AC
3DE06705
3E5FD10C
3E5BFF3D
3E46F525
BCF729CD
3E16D56E
3CFB6614
3C8CF12A
3D61FE09
BCB2CAF3
BBA72E58
3E13D19F
BD5FD375
BDAAAA83
BD719DE7
3C83BC29
BDA72E73
3D972849
BDE185BC
BCE3C876
3D9CB3CD
3DCEB0C9
BD779E8B
BD4D1690
BC6D0387
3E065DFE
3E21AAAB
BDE526DD
BE0DBF89
BE03C7E2
BD8D371F
3D7200E8
3DC0A12A
BDEBCA2C
3E2B4B05
3E6D107E
BBB218D6
BC2D41A2
3D9568EC
3DA1356A
BD4F3DEE
3D9C494E
BE04A197
BE195561
3D872A33
3DE9E416
BD94CF6B
3DA9C634
BD8A7E2D
BE163B48
3C6C6DD7
3D961081
3DB64C7A
BE00257B
3E2DD95B
3E186CFC
3DB2340B
BD2F5F6E
BD5449BF
3E58AC5C
3D08F4FF
3D46E573
3D5FBC67
BDB06468
BD403320
3E27A4B8
39046540
3DB571B4
3DF0B330
3E52B686
3D8E5288
3CB26D6A
BE0999C6
3E266F1E
BD56B35D
3E0227E6
BDFCD002
3E18ED6F
BDE8FDA7
3DE56515
3E4269B7
3E2B189F
3E3CB06E
3CCA22DF
BD0E68E0
BE0FAF11
3DA4D2DA
3E544F4B
BE01F866
BDCD3FA0
3E46CF94
3E57FEF4
3E613AB0
3DEF6A4B
BE2D9E98
BDE3BCCC
3DB3C4C1
BB31220D
BC078EEF
BE16240A
3D849B61
BC070F71
3D0B269A
3D4E227F
3E000AA5
BDF52B15
BE297527
3E541CC9
BCBDA360
3D27476A
BDF17D5C
BD6912CB
BE233BDA
BCAD3943
BDF0CD48
3D289E01
3D5BCCAE
BD00014B
3E0C31CD
3E1A9B74
3E18F09A
3DD4099F
3DD2644C
BD30E78E
BE3A78C7
3A4CE2ED
BC6BC114
3E3D0C30
BCC5120A
3E593B28
BD6C232A
3E776337
BE0568F7
BDE65D7C
BDC3B044
3D132EEF
3E44A819
BD3E73FA
3DF68B79
BE2A3CF7
BDD3EAD1
3D963A42
BD2510B8
3E3DEBB5
BD81C5DD
BC01B389
3DC9C553
3DBFCE3B
BD3726CB
3C390566
3E28479D
3E3CE46D
3DFC12F8
3DD4DB9A
BD75A5FA
3E22E5B0
3E18958D
3C1055F7
3E60EB6B
3E493F81
BD9BA13C
3B9C4A68
3E0707AA
3D019338
3DD88C73
BE20DE10
3D3FE220
BDDB0620
3E40049A
3B9611A2
3E42A951
3D10FB2D
BCAAC703
3DF1C0A7
3E51C7B4
3DF6ECC5
BE1FD1CF
BCD3DFE8
BC946A4A
3C6002E1
BBCF842D
3E2F14E8
3DE0A923
3E6406C5
3DBACEDF
BCB7EDA6
3B2118AD
3E69BBD5
BDD0E533
3CE0FEB3
BD424A7B
BDFF3292
3DC8F9F1
BD8E5E42
3E28DBB6
3BB42F6C
BD6CFEC5
BD124198
3DC57966
BDB70F90
3D02A2EF
BD5543E8
3D87321B
3DF1212C
3DFC01AD

