3BA1E4CC
3D2E5035
BB38D712
BC2ADBFA
3CB0B528
3D6FBA50
3CE7EBAC
3C9D7E5D
BCB4821E
3C7F6A49
BBA87D04
3BF82B3A
3CA50556
3CDF7F52
3D12C571
BA1A6B7A
3CF09BBA
BBF4E254
3D5BF8A6
BC9B396B
3C9840E9
3D594CAD
BD4A6E8A
3C1DDA37
3C73B24D
BB190D89
BC8BB332
BCA65DD4
3D8248E2
3CE84458
3ADD5351
3C8E955E
3D0B6523
3D18282A
3BD5AB70
3D8E9F7B
BC1DCF81
3D01BBD4
BC799E2B
3B94A0C9
BC6FFC9A
3CE9C21F
3C7BE1C2
3B008EF7
3C38EA07
3D20A407
3D27932A
3CF5331A
3C1B170A
3D8186D0
BD0D8379
3CD6EAED
BC770344
BC2A1AA5
BCD8DE7E
BD4C6712
3D3579B7
3CF1C201
3CC7A1CF
BCE10170
3CB342F4
3BBA3C1A
3D22CEC5
BC1EDA61
3D16796D
3CA3F5D6
3C75BDBC
BC8C94CA
3CC6316D
3D058B0C
BD0175DD
3D7BB882
3C94BDB1
3C17713D
3D36C4AD
BCF9C139
3CD1E2C6
3CEE31BF
BCA83021
3D14EFB9
3C5CE253
3CBB7E9F
3CA8C9F2
BA966851
BC4838B4
3D27DFDD
BD8C86F8
BCBF9530
3D27505B
3A88CEDA
3D3244F8
3D38A5E7
BC46F02A
3CE7A9A2
3D137604
3CEB26C5
3C25629B
3CE5A003
3D04C338
3D6B2272
BC907087
BBADED09
BA21ADCA
3D878066
3C1A7C63
3D19E294
3A3D60A8
3C5B82F3
3D6B4103
3D401151
3D0F5A7A
BCE887BF
3D066D62
3D031E3B
3C99A295
3CD36E7A
3CB7F8B3
3C82AA40
3C6CD38A
BB777DDB
3CE70265
3D1BA3D5
3D39CC73
3D6227B6
BC24F66B
3CB30935
BAE052C4
3D4677E9

