3E48F9D9
3E8281F1
BDC8AC37
3E4AA73C
BE390E65
BE1DDA02
3DAF3D93
BE07BD14
BDDB5FDE
3E61EEEE
3EC1D975
BD8134B9
3D5F9865
3D5F81F3
3E5B6798
BE0135B2
3E025EFC
BCC2B444
BDA113A4
BE7963F1
BE6902F3
3E7C1F93
BDCC5519
3E9BCF8F
BE0D04EF
BE2F4F7D
3D6133C0
3D2FD2C2
3E04C1F0
BE9251E7
3D5EAFC9
3D8D1709
BDA57508
BE478735
BE97CD1E
BE42B024
BE9488E3
BBE8E195
BEBF8C1C
BDD96C56
BE3EC00F
3E4A30A2
3E58C82E
BE87240F
3D07FAA6
BEAB2D4B
3E255CBA
3E5E8743
3EB1D377
BC48CFAC
BDE64611
BE86B7FB
3E8AF2E8
BE94B1DC
BDC9765E
BE369B78
BD6E54CF
BD73C96F
BE518742
3DB3388C
BE983C0F
3C6079A7
3E0983DF
BE9413B0

