3E253D06
BE0DAD28
BD1099F8
BDC15171
3E0AEEA8
3E37AC19
3D25F7ED
BDD4FA59
3D156936
BE4DA7FB
3E39F40E
BC1953ED
BBCD8C9B
3C8BCC34
BDF86F2B
BE2AAECE
BD805AC2
3C322210
BDE0E2C9
BDCEB5BC
3E27B058
3DFB1C5A
3E26E729
BD4F42FA
3DD35C19
3D095BB5
BCC15078
3D0DAE45
BE03375F
BE4B48BD
BE144C0E
BC1E716D
3E0F9894
BE1D335C
3DD1A0C3
3D84E93D
BC360E6F
BE29BA06
3DC905F4
BC37D1BF
3E1756D3
3CABF93B
BD8F8969
BE0330D6
3D005BE2
3E0B248D
3D56A433
3E3B7EDC
BDA94DE6
BCB62CE8
BDC3634C
3DF4EB56
3D2CAAB6
3D324E17
3C5FCFB1
3E263432
3E2B0AF8
BDAF8251
BD36A2EE
3E1618DE
BE25CD36
3E2C4399
BD192741
BD0FB324
BE317D67
BD8B820C
3D91A3D0
3E2C4C4A
BE45CD5C
3E085E42
3E025175
3E2FE223
BDA1AE19
3DB504D0
3DD12992
BE31F073
3DCCCA56
BDA38E3B
BE229426
3D942D05
3E11BC54
BCCB73D7
BE3B3495
BE2A5067
3DBB2A8E
3E1FC86C
BD39E0A1
BE0AD12E
BE140E7C
3D219C5F
BC60F60E
3C07F765
3E613035
BE1935B7
3E4DA33A
3DD98B14
BDAD3B4F
3E1808EA
3D28756C
3E2A5863
BDA42D1D
BD305A7F
3E2086B6
BE25F178
BDC9AE4B
BE3ED33D
3CEA79FB
BDC04F33
3DA7EDF7
BDED624F
3E2CC192
BDB0286B
3E013F02
BD7A3347
3E602D8C
3E2D2129
3E26FDAF
BDA82B06
3E187629
3E1BCCDE
BDFC438B
BBA66C11
3D1F1BC1
3DAA386C
BDECC9DB
3E34D4FE
3DFFB802
BE18FF65
BE46A309
3D013736
3DA30B93
BDE87582
BE11D29F
3DD242EC
3CB4148F
3DA340A3
3CDF0EC5
BD1003D9
BD2433EB
BDC1A4FA
BC652A1E
3DBB229D
BDBA3EB3
3D8399E2
3DED3C9D
3D3F5838
BD5571DC
BDA94C1F
3E20095B
3E167A56
3C60A537
BD906544
3DC5A3E4
3E03D24B
3D670470
BE2E47EC
BDFD2FB2
3E0C5765
3D8D181A
3DBB4C1F
3D3E40A6
3E13169E
3D8DD2AF
BE114682
BDEE3640
3C19327D
BD4E4ACE
BD80F433
3CF60798
BE222DFB
BDEA69A3
BE1B5C94
3E300C5B
BE3C8F4E
BE07384B
BE65BC10
3DF8B216
3DAD0D23
BD912235
BCD5F83D
BE4EA47C
3E657756
3DCE3DB3
3DEAF563
BDCEB937
BDBA7920
3E10E6DF
3DC67E64
3C8DC689
3DC9D1FD
3E6F01B9
3E566D4A
BDCF0BDF
3E011605
BE02CA4E
BDF5EA4E
BDEB79A4
BDF293F6
3DA7B807
3E2E8524
BCFCAE47
BD85B30B
3E7211AF
3DA140FF
3DD03C4D
BD291146
3D55CC7E
3B03D6CE
BCA01F86
3E21D091
BC7CBEC5
BDA17359
BE5B9ACE
3DDC07B3
3D603BA1
3A2B91C7
BE0EF8E5
3E06C7DD
3BC01492
BD6027D0
3D52C240
BE3EC100
BE07C918
3E78702F
3D2CC5BB
3DFD403A
3E11B2F2
3DCBCE81
3E1AA380
3E2A2977
3D8AC231
3D06801A
3CA6B952
BD986832
3E3200F4
3E1FD99D
BDE7A8CB
BE294019
3D1C9A9D
BD85F15B
BD96B7F1
BDEE3BDA
BE32483C
BD9C512A
BD2B47D6
BE121DA9
3D308DDB
3DB87082
3E3AE2F1
3DFE35AC
3E613378
BE3005BF
3E643F6A
BCBF0E43
3DB478E1
BD931B9A
BC545165
BC2E6584
3E359AA2
BD4D5979
BE23B317
BDF2211F
3E2D571F
BE26A3D6
3D45C63D
BDEE6312
3E607B27
BB744A9D
3D322F13
BAE22D03
3D33567A
BE36D489
3DB24834
3DE12515
BD085F25
3D78BB2C
BE46B8EE
BDB314F5
BD41A3E1
BBD63543
3E1A821D
BE08CB90
BDE46BBC
BDCEE02F
3DF6E62C
39C87647
3E37C41A
3D4CF7AF
3D3D4404
BD5DA4E8
BE011CD8
3DCB0A70
3DE665A6
3BC0E02C
3DCECB7F
3C22BA81
BE1BF9AB
3E18E201
BD083E5B
BD9DC78C
3E14F25F
BE2E00A0
BE18E5CF
BCAB8689
BE19B8B4
BE1067D0
3DF25C06
3E1C9601
3C44B614
3E589835
3E25EB65
BCB507D1
3CBDB2F3
3DEE5E96
3D1EE54B
3E1DD3ED
3CCDA356
3DA711CF
3E2F7EF8
BD266AFC
3D9BE7BA
3DC9FEE7
BE4B3C9A
BDB3A03D
BE11A199
BC33D6B6
3E116C45
BD8BB01B
3BD95044
3D7BBC11
3DD7103A
3D314276
BE1DD633
BD4457DD
BDD9822C
BE601626
3DFAFBBB
BD771399
BE22B851
3DA922EC
BD8F6C29
3C60704D
BD9194CB
3D5B3394
3DFA0F02
3DD4A79D
3DDEF505
3DEA34B7
3E481D01
BD2E273F
BE21F74B
BE0DD828
3D575647
BA18C3B8
BDFA6E2D
BE18755C
3E0EC958
BE20D416
3E2E2B1B
BDBDA6A1
BE16B7B5
BDCDAE96
3E1CE232
BB270343
3DF85B69
3E0A44B8
3E0F713C
3E54EF9D
BD24D409
3E5B1FDF
3E506F6A
BD2CB7D2
BE09F44F
BBA4187D
BE3EC71B
BDAD954C
BE10E0F9
3E3E8A05
BD85D2E1
3E34A2B2
3C7D8A44
3C832A60
3CD89D0E
BE1C3103
BD53C016
BDCF3A9F
3DDE3751
3D44C4C5
3E4F111B
3E278C55
3E3FD39A
BDCB892E
3D1A4EC6
BE3EDD86
3DD2D7B8
BE123E55
3E381558
BD7D5DF1
BE08C9C0
3DE98F9A
BC15A672
3DA5E738
3C0AA272
BDC97C37
BD0C55B1
3E1D0C07
BE135725
3D86BEAB
BCF5134F
BE121CA8
BE025173
BD87AC88
BE2619D2
BBAAD3EC
BD2A82C1
3D6EDD4F
3DEA6561
3E2C2D60
3CB7585F
BE0791FA
3D8E3614
3E115F98
BE1D589D
BE33EF9C
3DC4B39B
BDB2FF54
3E672D04
3DFB3EE2
BD51EE5A
BE152625
3D6E8C62
BE1EEFE6
3E4A006A
3D3CEF0F
3D61C6AE
3D72BF52
BE0A379E
3E0A739F
BE18C35F
BDE4BADF
3CD99D12
3DD60A01
3E4FA4CA
BD5952D5
BCBD9881
BA19C7EC
3D0197FB
BCFD855E
BE272DDE
BD7AA44B
3CF12181
3D14AB4D
3DB1CEB3
3E44AB5E
BDDDF041
BE4BF13D
3D9533E9
BE24E97B
BD9599E9
BE4F9B19
BD21E94A
BCB1EC47
3E3F438C
BE3FC289
B9313710
3D5902A8
BE0C8908
3DC596A6
3DAC300A
BE010184
BE075A26
3D5B00C9
3E13C63D
3CFA4DCB
3E5DE1CD
3D2E083C
BA95D368
BDA25951
BD3916CB
3D1E3756
BC7D7604
BE207CD2
BCB91FFA
3E210EA5
3D2FCB4C
3E0315C5
BC8E5314
3E438435
3DCEB8D8
3E2BD0A0
BD20F5AF
BDB3E86C
BD0B8CDB
3D3AD938
3E1A8E52
BDA2208A
3E1935B1
3E62A1D4
3B1F734A
BC9AD55E
3E359968
3E3944CD
3D7F5849
BD6B84C7
3E43D33E
3E16D39E
BE29C8BC
3E36ABD1
3DB3CCEE
BE176635
BE52C7F1
BD533F99
BDEDF46D
BDBFB853
3E048149
3E20A276
BD042C4D
BE1092A7
3E493A08
BE229AE1
3DA7B926
BE127D42
BDA8FCC3
BC5CEE41
3C310BFF
3E309B77
BD73C74C
3E65AB18
BDB40733
3DB6E387
BDE918C2
BE01E3F5
3C69DAEF
3DFB1306
3E2655D8
BD5088AC
BBF6DBC9
3E1AF09A
BD426FD2
BCC4A1D4
BE265FA2
3E5B9F4E
3D81B8B4
3C5FAFD5
3CF53717
3DCBA369
BE0476C4
BC9E8C57
BC9886F4
3CA65DED
3E35D233
3E13CEA3
BDDEEAD8
3DF4DB5D
BDB16B60
3DC95F2C
BD8D2F11
3D89A389
BE461040
3E46D6D4
3E16FA13
3D34DF8E
3E6DA164
3E2BE555
BD710422
3D8AD55D
3DEED24F
3DF0107C
BDC7A448
3E2DB83C
BE2E7647
BE4DA2B9
3E32493A
BD0C165C
3D981C5B
BD937D26
BDE14291
3D77664A
3E3BE687
BD9BB7C3
3E46C321
BDDBFE82
BD271FB1
3DE80061
3D7263AD
3D938C56
BD87D467
3DD3B5A5
3C853B22
BDF34486
3D15EA79
3E2FF0FF
3CDD6194
3E067793
BD1EDEB6
3DFF9C84
3E0D3629
3DE84021
BD07CEC4
3A7A69E3
3AECB018
BD64FFBF
3D81344F
3CCCCF83
3E206D67
3E3C8AA3
BE32CAB2
BB5D081A
3E188D96
BD9E1CE5
3E1137FD
BC92C34C
3D980A4C
3E1186D1
BD49C53E
BE3D6B84
BC4E52B3
BD7E7B52
BCEAF52F
BC866A86
BDD969F2
3DE1B853
3E46E3DA
B957D312
BDBEFAA5
BCD4D317
3D242EC0
BDED652B
3DB37824
3D214E34
3D8FE531
BE2475D5
3E135615
3E3CCCC5
3B68C862
3D9F9EE2
BD6685E7
BE390292
BD70C8F1
BDECAC4D
BE231FA0
BE386486
BE2EDEEB
BD575807
BDC887C7
BDD2BEBE
3E5D3DC8
BD6888AB
BDEAAD15
BCAB1437
BDE692EE
3AA7A53C
BE220F3F
3D1F441C
3D2B3669
BDE46717
BE039300
B9762C9A
3E4671CB
3C8A6362
3DA9E421
3E0F21AF
3B61D74A
3E3AE284
3DADDCC2
BE06CCCA
BE0B4273
3D0204B1
BDF3BE57
3E235AD2
BC6C1209
BE0A46FE
3D66D220
3D21E301
3E0A3966
BDEA820B
3E1A9481
3DE8E505
3C56BA56
3D50EE12
3D444F9B
BE0A2016
BC2804EA
BD62AD69
3E445164
3D9B52EA
BE097456
BC2A1D1B
BD8E4C38
3E371EF5
3D53B334
BE3A3734
3D9B323B
3E37D92C
3D9D4278
3E36DCF6
3D7FCBE6
BDF8150B
3CA9FA7B
BD26F1AD
3D9EC7BB
3D3DAE0F
BCE73D52
3E4256B3
3E1CAFDF
3DDC202D
BDF30E9F
3D84E7B6
BD0DC533
BCCD6EC1
BDEA19F4
3E244629
3DADD3EB
BE431B72
3E2D45AE
BE0D86AE
BE27608A
3E168F71
BC506650
3DAA5681
3D112325
3DE637BA
BD820259
BE0D5336
BE1024FF
BE115A63
BDB81F31
BD55C4FA
BE0D2752
3C853B6C
BE08F22E
BDFD5470
BDB5CF40
3DFFC40B
3E1A795A
3C9010A3
BE206149
3D9B0E3F
3DE4175C
BE28E9A7
BDB32C5F
3D879C0F
3E0A12F5
BD42A935
BDDF5D88
3E318986
BD4A1E28
3E0E1DB8
BE1FF6B1
3DC72330
BDB94EE5
BDBD3ACE
3DA5BE4E
3E55D6C8
BE249D1D
BD68E1B8
BB4F04B2
3E14AA7A
3E0E9837
BD848558
BD73F3E6
3E099032
3E0D01AA
3DC9A3E6
3D92D2B0
3D1A6F64
BAAF4CC3
3E2E8B49
BE21F5C8
BDF9236E
3D12351D
3D805AF0
3DEA9565
BDB835CD
BC6C6AB2
BE19C200
3E1E0FED
3DFE99E4
BDD14935
3E47BA62
BDFD0E65
3D71C7F6
BBEE38AD
3E106E1F
BC91A1EB
BDEA6855
3E07F926
3E2D5B7B
3E0342C1
3E2E04DF
3D6346FB
3DD2591E
3E0D879A
BE05F19D
BDCE6B74
3E14BA66
3D477D29
BDD7BA3D
BB5447CE
3C626205
BE1227C9
3E50B0AA
3DA60AB9
BE0E2E80
BE41BA85
3C639BC2
BCB887FA
BDBE03EA
BD96803C
3D608B76
BE1A87B8
BDD30CB6
BDAC13E0
3E442754
BE2C59E2
3DE6FE08
3E25B42F
BD042245
BD2F2A9F
3DFE079E
BD27B84C
3E2E302A
BE42BE07
3C4523C4
3E4BD734
BDCF1271
3D9F93E1
3DD2319C
3CCAECDD
3D56D609
3D001233
3C81DC60
3C6D7B64
BCD67B98
BDAD5FBC
3E1331AF
BD67707F
BD83D535
BC825A9A
BDA08C77
3DFDF108
3D8A3A66
3DAA4D1A
3D357B2F
BE360BB7
3D0883D4
3E357E88
BD056404
BE36B75C
3DB2764A
3E0B0685
3E23AE9B
BD8EA6E0
BC8BFBB7
BDDA67C5
BA24FB05
3DFA0A54
3E14A446
BD8F82FF
BDCEDD19
3D817962
3C0D62CB
3E1BA12D
BE07BAE7
3CBC2788
3D353A99
3C65BA43
BE1581E5
BD75EE28
BD3BB583
BD2089E7
BDEF89D4
3C5F902D
BDE63133
3E2459C5
3D5AD6EF
3E2BDB7C
BCFF30AB
3B97E7DD
BB9DAA01
3D6114DA
BD34592E
BBF75060
BD8542B5
BDA44168
BAC86344
3DFE0713
BE4D55D4
BDFBA30B
BC78EB07
3E0125A9
BB7AF846
BCAC054C
3DFAEAF0
BD13FC86
BDE59B81
BC700D18
3E49048C
3E666E66
3DA61C51
3C71DA04
BD95418F
3E36A325
3E4312E1
3D9D4FC1
3D192DE4
BC923ACD
BD01DC24
3D94CA77
3E3A9B56
3D82C314
BDDD32DD
3E058045
3DE40BA1
3DB249F9
3DAB0E79
BD7EA697
3E5448F8
BE60F3EE
BC31E379
BE284911
3E48B9C4
3DB5F1E8
BDEA16D1
3E202188
3DEA7290
BD058381
3DD6F8EF
BD805FC6
3E31DA1E
BDB11B55
BDC72648
BD05D243
BE036959
BE204267
BD486284
BE57ACBD
3DE139B7
BE346EEB
BD133B8F
BD3FBC59
3E258110
BD43A979
BD8EBC96
BB9F9D5B
3E231EA7
BD98EB7A
BDC02595
3BA6994B
3E121439
BD00CD2B
BCEF9F3A
BDDE248E
3E5F6406
3E58CB58
BD3567D9
BE1F7FB8
BDCFABF1
3E3A6B39
3DAB13F9
3D9DBD95
3D625314
BE0544B7
BC85048E
3D97DDA2
3DFFC83D
3E44347C
3BD61419
BBE0A20F
BDAAB061
BCB42525
3CB76CD2
BE3F4027
BDBA8C70
BD9FCA8B
3DBE79BB
BD14D363
3BD7DF7B
3E35F61E
3E2EFA24
3E44CEF1
BD593829
3D130DC7
3E1755CE
3E5D863B
BD0143D8
BC97CB9D
3E00A60C
BB96C2DB
3E331DC5
3E1809E7
3DFCC5B6
3DA4491A
3E3B0B1B
3E62562B
BE08712D
3DDABA42
BE316C3D
3CB73463
BE44AED1
3DD86C37
BE035E81
BE2BD340
BDC8F4D9
3E339CC6
BD54C369
BCC32836
BCC76B93
BDEB9C53
BD42EF82
BDD1FC76
BD2977C0
3D68B196
BC30F537
3E284CC1
3CA14D5B
3DDD90C8
BCD6A601
3D3D888A
BD80C348
BDC91621
3D32ED2F
BCA247BD
3D1BB9C0
3AB7D903
3E3AC38A
BE17AE3E
3E29C48A
3DAB9FD8
BD75189F
BC7335D9
3CF53B69
3E00EA14
BDFA4EB6
3E355194
BCC0B0EF
BCBF6365
3E364E23
3D0C1762
BE35282D
3D8DF6AD
3E2AD7FB
3E465100
3D4A9BC5
BDCB3054
BD0F973B
BD109F9B
3E0DE630
BDBC4F33
BE19A740
3D55489E
3E3955CB
3DAEA1AF
3DE90599
3C0FF4B6
3DEC58B9
BE5855D3
3DF4FA5D
3E3048EC
BE3F5B41
BDF827C7
3DDCD3EC
BDB997EA
BE4DF9A3
BDB6E3BC
3DE56162
3E30A4E5
BDDD3880
BDADF655
BDC0046F
BDECDF25
3E13A2B2
3C121E6B
3E744F5C
BE121102
BE39C744
BE12FCD1
3E4527AE
3E2ADC92
3DB0E605
3E6929F0
3E44A6E9
3D71B86F
3CDA1B6F
BDC35DCE
3CF9FCB6
BDF8B111
3DB2F034
3E2A9AA3
BDA777A0
3E470947
3CB3E43D
BDAB6324
3E2A1DA1
3E2154B7
BDEABE61
3D35F248
3CCC6734
3DBCF611
3AA48388
3D6DCEBB
BDD35EA0
BE201074
3E3CF054
BDD4D808
3D6A049B
BDBB1515
BDC87D51
3D861C52
3C57CAE2
BDDCC79F
3E115A13
BD8CD719
3E010A91
3C828FB4
3E038D83
BDECA096
3C1397F6
BD4BE37E
BDA4B21E
3CE75848
3D91F323
BDA9F030
3E38B70C
BE31B7D6
BDF91891
BE2BE90F
BE2B5E0A
3CAD5994
3D843B31
BCFF704C
3D0A720E
3CC2FB47
BE151EF8
3DABB06B
3DE00A7C
3E5E439F
3E24A6F5
BC0C6372
BE444037
3D8ABCBC
3D35679F
3E4CFE04
BD13B512
BD0A082D
BDFD105D
3E684877
BCE45C90
BC95959C
BB3DDF23
BDB3A6E6
3E6BE5DB
BD3FE59B
3E279052
BD953929
BD150C0B
3DF94153
3DFCC13F
3E296D33
3E312B8D
BA8D2243
3D4ECE1C
3E00A755
BDEAC214
3E08A2E5
3E0CEFC6
3D899DF7
BD1075C9
3E28DC81
BCEC7C22
BE230208
BE3227D3
BCFB0F6D
BCFA6F23
3E15E27B
BD4FC9A6
3E13F8F8
BDDF0D5A
3CC6FA46
3DC21AFC
BE3A1C21
3D0F73D0
3DC946C6
BC8A9C0E
3DDE4365
BE1635C3
BD148EDA
BD9D6B1C
BE317458
3D85D434
3E67ED0C
BE266497
3CE6A1DF
3D2F9F07
BD3285A4
3D0F68C3
3DD9D3BC
3C9ECA67
BD389B01
BD4BE32E
BDB7896F
3DEED8DE
3E2F40AE
3CABA3EA
3DCD448C
BC0D4DE2
3DD84C0E
3DFD4F02
BD615B22
3DA6CC99
3CC14E38
BE433518
3D2EB21F
BCF6D6DA
3D733242
3E2CFD4A
BDBDFAD9
3E51D4C9
3DD5F31E
BD9D39CE
BE02F287
BC054637
3DE33939
3E1780C9
3DA0F4AB
3E17EA24
BDE68C9C
BCA472F8
BD44B16E
3DD1A35F
BD20F222
3E0F7859
BE251BF2
3E2D4903
3E08F87D
BE2C0348
3D4131B7
BDF19DD0
BDCBE9A2
BE107B30
3DCBD509
BD288E75
BBA46CAC
3D02CC83
3DD6787C
BE1B9190
BD42954A
BDA7F383
3D3D238C
3E2FD043
BDFDAEB7
BE114D40
BD007C0C
BDBD118B
BDA6CE7B
BE37900E
BCFDBA27
3B6621F8
3D27C279
BCDAADE3
BE1F449A
BDB0FDFA
3DF84E62
3E0674B1
BE1E6C50
3D9A12D0
BCF64C83
BC3EFF6E
BE1C36F0
3E3CD676
3DB64095
3DEFB54E
3D64395B
3DDA43C0
3C69F302
3E0353E3
BE371C67
3E097E6E
3DE95FD5
BDAA8E27
3DA92E3C
3C85EDFE
BD944E4B
BE3E5BE7
3DF52FD1
3E3582A9
3E1F8CC9
3D904C4C
3D2346CD
BC500BBF
BCE6FFFE
BDDA1FBE
3C25037C
3D8FD53B
3E120A62
BCB85152
3CCC4134
BE105B54
3D1857C9
BD367A1B
3E1C1BB7
3E31BE3D
BD9E7E9E
BE36CF4E
3CD21062
3C385D87
BD95F270
3D9B5664
BE20CC50
3DE350D6
BD2CD719
3E0E09D0
BE0D7C83
BDA1E1EC
3E5446AD
BE24EC8C
3B90DFE2
BD098FB2
3E1F5C38
BE319DF4
BE3169B7
3DCEC07E
3E0BD13C
3DDEC964
BD607DDB
BDD0D20A
3DD78322
BDF5BC72
BE0349D6
BDCF8B83
3E6677DF
BDB16061
3DBD6E62
3D0021AC
BE2B4D6D
BD989287
3E4426B7
3D17CFA3
BD68FCC7
3E32247F
BE30182A
3E60AFE0
BE042D72
3E0D3FFE
3E4AD3A2
BE23AE79
3E0F5779
BDA183B3
3D064F7E
3B0A086E
BC90011F
BD904EC5
3E001A7B
BE26770C
3D8B4DB9
3E1BF785
3DB079D5
3D9A8C0B
3DC0AEF9
3E60632C
3D7D0982
BE015FB2
BD07456C
3E399DA0
BE285B4E
3BE725C4
BC1A5643
3E623125
3CFE5D1A
BE30471D
3D7DC036
3C860DA5
BE2CC4AB
3D96B624
3E259AEC
3E303B96
BCA28864
3E4B3921
3D9500D0
3E3C098F
3E2FCD42
BE03B736
3DA8EADE
BD89265F
3DFD89CF
BD808651
3E4DAAC2
BE10572B
3D8897DD
BDCD819C
BE009C1F
3BBA3E98
3DDDBE07
BD896CA1
3D17B39E
3D5734E0
BC8E8AC4
BD0B3C6A
BDD678BF
BB5DDDA0
BDAB4E30
BCC8BB35
3DC79B31
BCC77D3D
3E42701E
3D90CAE3
3DC42168
BC4D7D96
BE41E196
BD1A76C3
3E414382
BE14FD39
3D833923
BD343F45
3DE30FA3
BC9A21F6
3E492895
BE5386B7
3D3E30F6
3CA06CFB
3D9B95FC
3DE4C8E0
3DE93F77
BD852512
3E06D848
BD993CDB
BD86E09D
3E149096
3BB722F9
BD48DAEE
3CC06E07
3E0FEAC8
BC35F3AE
BD74B001
3E067385
BD71410D
3DD463B1
3E055458
3E217072
3D5713E6
3E22556D
BE10A3B7
3E656BDF
3E4EBF71
BE012886
3D5E7639
BC8D5FF7
3E0274EF
BD89BEA7
3DB60BEC
BE337362
3A33B94F
3D7EAD58
3D4508E1
3DB33002
BE010340
BE5BC08D
BBEE2395
3BE09CCB
3E05194D
3E17F0E8
3E58724B
3E111FE7
BB7E9EFC
BCCAFBEB
3DCC11D1
3D95E19F
BE05B8AE
3E297F1C
3D95603D
BDC4E0B8
BE27F504
3DE54ED5
3E0EE6AD
3E0605F8
3E2BC67A
3D0664B1
BE150532
BDA17BB0
BD7E1934
3D75B588
BE51F804
BD3987C5
BE0BCB50
BE36634C
3E26506D
3E03E382
BD67280A
3DEA463A
BDEF2EB1
3E1CE3B9
3D9C832A
BD86F578
3E4ACD4F
3C7A1A7A
3C390960
BD892ABE
BE07BFFB
BD30D3F2
BDAD4028
3DEB1F62
3D3FDB04
BDDC7E06
BD791EFF
3E01C63E
BE3147A7
BDD8EC83
3AD2089C
3CD43166
3D797B2D
3E0FBD0C
3D22621D
3E0E008D
3DD71DE3
BDC024B5
BE3C1CCC
3DD0D1E7
BDD0452C
3D060C20
BCB9CF0C
3DD06144
BD6C888D
3D588185
BE0679A6
BDB8E462
3BD8ECB0
BA14F5C2
3DD527CF
3BBF2A5A
3DBBED01
BC34DA34
BE4C318A
3E01DCF1
3E1CCCCE
BD293FDB
3E0D4AF1
3CA70DCD
BD645775
BE32FC99
BDD780D7
3E00DDCE
BD88FEA2
BDC681C1
3DD834DE
BD11C68D
3E0110C7
BBA214CA
3DAC5A5D
3D869B1F
3E2D90E6
3DBC8E3B
3D369A7B
BCFECB0B
3E678F0F
3DB8ED37
BC6F4FB6
BD850A1E
3C8E4A2F
BE146BC4
BD80DA99
BDA0A7C4
BE2B0848
3E16445D
3D95ED68
BCA86F25
BDEA4449
3DFE4B38
3D9ABAAB
3E285D5C
3D9EE3EB
BDD9ADFD
BE2BDA24
BE1AF8F5
3DBDC5D9
3E43D7D4
BD8D6AA9
3E54F749
3D63E647
BE3654F2
3E532B90
3D4DE5CA
3D5DF474
BE071FAE
3E05F412
BE383ECA
3E26A40A
3E0D8B55
3AE38A51
BDBDBD7F
3DA958E1
3E0F7B48
3E381BBC
3D9BCBE2
BC9493CA
3C46AFF6
3E0C0DBA
3A7B36FD
3E2CA565
3AC2A353
BE10AD1E
3DADE87A
3C7C09F3
3E1C8BD0
3E5A22D1
3E4D5CB9
BD281C37
BD9778BF
BBFA4789
BCC5C66C
3E20FA0C
BD93FB06
3E0C000B
BDC89541
BD06554E
BDA655A4
3E2E7926
3C15006C
3DF36224
BD225DC2
3CBFBAFC
3DAC4752
BE14AE4C
BE2BE568
3C82AB77
3DAD1948
3E1E3A78
BE0E836B
3E060B00
BD818787
3E1BA46B
3D525174
3E1A6B56
BE2FD039
3DC366AA
BDA3FC28
BDCBAB5A
3E0E5C44
3D91131A
BDEE9547
3DD81C97
3E411B5C
3D845D51
BCB4520A
3E2748F8
BE157B30
3DF184D2
3E28C143
3DF50E8B
BD6DEE9C
BE1569C3
3D802B65
BE40FD43
3DCB2F2D
BD97A252
BD106938
3D4D47FB
3DED479C
3DE20F82
3E202D91
BD917CF8
3E3FF393
BC88CE7A
3D51F68B
BCF3E827
3E04AD11
3E2FE7A4
BBB6B1D4
BE057057
BD973B4E
BE0FA549
3CDB6C31
3E1DD444
BD5F75B7
3D903A25
BC678291
3E32BC12
BC5A93A9
3DBE8185
3E0ED82E
3D8A7DFE
BE21811B
3DEB5364
3E50B608
BDFFD2AA
BD9E1F16
BE24FF0E
BB43D863
3DA1C662
BE3019AA
3DED86DB
BD7A3365
BC3C92E1
3D88316B
3DBB3234
3DAD2BAB
BCD17E75
3E1354C5
BE1C0A15
BE317D67
BCBC4E45
BDAFFAA5
3E18C443
BE322E6E
3E238311
BDB24EDE
BDF5A9AB
3DE61EE2
3E108468
3E19DE32
3DD39B92
BD397F07
BDF83DBA
BC430E3D
BC0B7650
3DA7280F
3D81BC2B
3DC3D4FE
BDB7D953
BCC1D456
3C5DB899
BBC23E2E
BE276D63
3DF016FD
3E1C18FF
BE1F56FC
BDF5494D
3D13F4D7
BDB07895
BE0B88AF
BD02BE23
BE2A7B10
BE1AC744
BD438F4C
3CE34023
BCC3ED90
BE271255
3DDB472E
3DE2FE91
3DC78004
BBD16856
3DE30CF4
BE22063A
BDA2BCF4
3D728F85
3E2145B0
BE0B8C64
BE37CA3E
3DBF69C9
3D1884B8
BC25D6CA
BE05098E
3E4368BC
3E2A1B3E
3E0BE466
3E299D03
BDB7B525
BBF0FBDE
BC165C17
3DDDE65A
BE13BCDD
3BDBE193
3CD782E6
3E3FB05A
BDAC2F24
3DB6A57E
BD8E0856
BDCBAB08
3E12E68B
BDCD4090
BE16C80E
BE10A30D
3E286A8F
BD139D72
BE1EEF01
3E2D3DD3
BCA12B1C
3E23BB20
BDA9D971
BE222A85
BD2720BB
BDBEA1ED
3D68AF54
BDCF50B6
BD867F3F
BDE44FAA
BE0CC4FF
BD3428F1
3E051E33
BE1D4CF2
BDA49FAF
BDC99EA5
3D8EEFC0
BDE419EF
BD14A0A1
3CD19B64
BDC9E9D5
BDF6E3BC
BD82A221
3D9E26AB
3E138A1D
3C290806
BD267811
BD5F1CAA
3D2FD037
BDD3AB19
BD9AA182
3E0C9F7B
BDEC1F76
BDF0A7EA
BD075188
3C431E2C
3D981B74
3E2D661F
3E132719
3DBAA444
3E5CCB78
3DD4DF5F
3DCCAF90
3D1D85FF
3DB2FF8E
3D7BD862
3E0E052D
BBE21D82
3DC5133D
BD667C3B
3DE3407F
3DEA6B7A
BE1C7450
3E0564A1
BB7C0492
3E0E36CA
3DE4304D
BE3D1082
BE49AC50
BD35715D
3E34D9CC
BE057AEF
BE34A7D4
3C5EF7FB
BC6ED86C
BDEA85C8
3E494951
BDF62438
BE0F3078
BE2899FA
3D8D3F61
BDB3C787
3E2FC735
3D1E8A30
3DB6ED2E
3D974456
3DADD5E0
3D33B1BD
BD8892E0
BE18E564
BDBE61BA
BE4D5508
3E3E3C88
3DFAD364
BE11FC3A
3D0DAD81
BE01B047
BB396F8D
3E247EC0
BDB60CB1
BD968971
BD56A9AE
BD84864B
3D6E7B18
BE0C9ECC
3E59A6AD
3D950D32
BE1334E0
3D16F5F9
3CDE2517
BE3D871E
3A9C14B9
3E0C0064
3E2DAF6E
3D185A9E
3E1FDCDC
3C97AEF5
3DB5E712
BD8B6829
3CE563B8
BD2106E2
B8C0E14A
BDE22DC4
BE45B6FD
BE28DF8A
BD89D3B8
3CA2D145
3E352800
BE13DA72
BBC7660F
3E293DE6
BDEA937C
3CF26D77
3C4F6418
3D485C78
BE1B276B
BE2EEE02
BDCEBCA3
3DF5970D
BE0815CA
BD68B0DC
BDC4B6DA
3CAC583D
3D11F46E
3D9241E4
BD0D9E59
BD95E8F2
3DDF205C
BCFF57D8
BE0332B4
3CFD1C57
BD2C968E
3D66FC5B
BDC183C4
3D3BD393
3DE49812
3C4EBF98
BCEDAAED
3C2C6EFC
3DA4024A
3DDC84D8
3D5DAD81
BBA41E13
BE536757
3DD67D46
3E1B84B2
BE44A59C
3DB70CEA
3D33E38D
3E45B826
BCB631D7
3DAC6438
3DE39E21
BE5F5EE0
BD76EEE9
BE1CFF05
3C02D7AD
BD9EEB8C
BE32F2BB
3C3C7022
3DE06D5B
3DC3FF99
BD897D1C
3E3DEC42
3D68B8F9
3C9B8D92
BDE6FC67
3CAB6906
BDA662E1
3C6A4F94
3DA6323D
BC74A3B3
3E302119
3E54D883
3CA61C68
3DEC5172
3E1FF76E
BD81B7DD
3D38EF23
3DD4E9C5
3DE77C5E
BE17C4B7
BC761437
3DE9F233
BD9F5C9B
BD5D3AE1
3D76CFD5
3E01E450
3C6D4B3D
BE2A93C7
3C5B8EFB
3D9C7412
3BAD2CA6
3E2BB6FB
BE3CB609
3D3B30C6
BD6615D4
3CF0688A
BBDC9330
3D1E2307
BDE03F40
BDF55995
3DB57C0D
3CC93335
BE0C4866
3DAF5848
B9FD25F6
3D9C865D
3E184F0D
BE5182C1
BDA1FDA6
3DE35774
BE0E9397
BDF11DEE
3DEFE454
3D94757A
3E1E8F67
3E3AC36E
3B57A228
3E76D232
3D8D4590
BE448C93
3E0C02F6
3DED222C
BE063586
BD605A07
BD5A1CC6
BD2F3945
BB91B8CE
BC1D0C2E
3DAB0877
BE0215E0
3C6DA3BF
BE19DE2E
3E197DB6
BE1004B3
3E4668D9
3DB27DE3
BDCC13F4
BDB46D52
3DF1F0BC
BCBDEEC4
3E55A901
BE0D24D5
3D2C53DE
BCB79929
3E3468B0
B9F4F0EF
3E06D5DD
3D83EB40
3D92C60B
BD9D6421
BBC707C0
BD9B80E8
3DE49CF4
BDE6703D
3C042CDA
BD705ED2
BDA66FA7
BDCCDCCB
BDD647B6
BC033FE6
BC69AB11
BE439381
3D532F30
BDEDACCC
BC9C3BD3
BDDB33A4
3E3BA6B5
3D2C94A4
3C870B4F
3DB75AA7
3D05F709
BDF41A4F
3D983C0D
BC5CAA1E
3E3FC87B
3D704E57
BE1D4B10
BDAA9A68
3E11E929
3C27D264
3D512358
3DF0828B
3E4ACDCA
BDE09235
BD83BA96
3DC9BA3F
3D014991
3D067A44
3E3367D8
3E2A379E
BDDE8DA7
3DA4AFBE
3D50241A
BE2B8BCD
BDCC2C65
3E654B5A
BD4B79D2
3D24715D
3C6B899D
BD77D494
3E0ACA12
3E607AB3
BD92007D
BDBB7E4E
3E81FAFD
BE4BAA75
3E79F61E
3D849D54
3E81B685
BDC2B3ED
3E7F2236
BD73414F
3E3F3609
BD33B848
BD89A775
BE588073
3E5C611A
3D1AF1E2
BD810D0D
BE1A32FF
BE44DE83
BD97639E
3DC2295A
3CA2774A
BE0A397F
3D3EADB9
BC85EE1F
3E29BD6F
3CE5EC26
BD47F276
3D926EE5
3D7F9D95
BE1BE86D
3E353A62
BE26A63C
3D0EB976
3CC1098B
3D01C7D1
3DCC08FC
BCDE50DF
BDE701D4
3DB60DE4
BDB1C99F
3D0F53C4
BD703095
3E1395BF
3D150B44
BD1B02B8
3C20CEAF
BD2E4416
3D9EEA7A
3D0C969E
BDD19BA9
3DB21058
3E6D97D8
BC97C598
3DB91C84
3DFEE83A
BE1498EC
3E561B38
BE077954
3BC2EDAA
3DBDD721
BE1817AB
BE1EA1CF
BDC28B16
BDF065CF
BE4261C3
3E1CAB6E
BE122FE0
3DA0B78E
3DAE10D7
BDFFC036
3E248435
3E57B6A8
BDCF6BEA
3D0B6547
BD931925
BCD50CCC
3D015DB4
3E58BC7B
BB805073
3D01E56A
3DA9BEF3
BDEC0CA9
BE36788A
BE07F36F
3E1F1D89
BD9285C8
3E25E802
3E47FF4E
3E379127
3D404BB9
BC9917F5
BDD823B7
BD5DE883
BE4FB6F5
3DE49418
3DD5FB4F
3E10A042
3D04BBF3
BE16DFFA
3D3E4229
3D6450FA
3E51FABB
BE339349
3E373C50
BC17075A
3C9FED3B
3E5393CD
BE16E59C
3E0AB03E
BD9FA971
3E3C2764
BDBC244A
3C84B493
3D81DA5A
3E0ADC33
3E0E2785
3C1EF759
BBA46685
3D9C2D4C
3E16D9E7
3D90FB40
3D911E7C
3DB3DDB8
3E2AADFF
3E7668A0
BD22AE88
3E3BEB53
BE13386D
3D43A451
3E4149D2
BD17F562
BD837A11
3DA2BBE2
3E21B57D
3D624658
BE106596
BD0B9E41
3E24549A
BE20D62A
BCCE3910
3E1F9361
3E60B396
3E3978D6
3DD3BC70
BE0D00D7
3C6B029F
BD94105C
BD26F587
BE58E203
BD6B362D
BE02418B
BD775D50
BDEEE969
3DFEA55B
BDDDEF2B
3D8E0ED1
3DC45CAC
3E3936F0
3DB1722A
3D113919
BD25234F
3D022A6A
3D0D063F
BD036176
3E23228D
3BBA55AA
BE230B7C
3DD05D71
3E358FEE
3DFB46FA
BD2DA6B1
BD2E2932
3E1A1970
BDCF21F8
3D995751
BBB62DDF
BE33D6CA
3D62DCA2
BC4FEDB6
3DCC70C2
3D6AACCA
BDA7FAA1
3DED8B27
3DBBE783
3E4D562F
3E491801
3D54FAE2
3E09BF85
3E7588AF
3D3F6914
3E204C67
3E092F6E
3D098CAD
3DE765D8
3D86F25D
3E19B5A3
3D803573
BDDDF088
3CBB8B29
3E589271
BC4D8D19
3E215C4B
BDDD28E3
3D97F751
3CEA7B86
3E629F52
3E4F3E72
3DCC6E84
3E21C915
BC19D9D8
BDABCF78
BDDC9CA1
BE5B00DD
3CCCC775
BE2916A8
3E145D0C
3E267D52
BDF401D6
3DCF1467
BD7F0633
BDF2B370
3D9F80BC
3DCFD3B7
BC106480
BE1187F4
3C9D0020
BCDEC283
3E38CC1A
3E2CBD16
3DE940AD
3E440A7E
3DD5192D
3E431351
BC2A9E24
3D3A8B3F
BD896878
3E16BC1B
3DAB89DD
3E44F619
BE098BE7
3CC0E04A
3C1EADD1
3DA70C74
BDBA35D5
3B8D0C14
BD0BA07D
3E55E590
BCD38AA3
3E567C05
3CAD47B3
BD41C743
BBB790BB
BDBE5DD4
3D3742C2
3E1BE42D
BD924354
3E068BA5
3E4CD113
3E3EC7C5
3D19DFBB
BD0FFC3A
3E234D5E
3E2B1C47
3DEBACBA
BD08F138
BDB6F768
3E047F9A
BAEC6944
BDF0BA23
3E0F044E
3E103EE0
BD4E629A
BE032614
BDB0027F
3D3C3DCC
BB82B278
3E1DC81B
BE298B28
3B9547A9
BDEFB231
BCBFC88F
BE4B4C79
3E28A558
3E026977
3E320ECF
BD64E312
BE5EAC6C
BDF90851
3DF60F5D
3D8382B3
3DF4185C
3DD0257E
3E214B86
BCDB1072
3E645324
BE2B4D4E
3E20FCE8
BE217BF1
BD116A2D
3E67A578
BE385E98
BE448D36
3E094F02
3DFB16E4
BD08C0D0
3D374DD8
3D74798E
BE45C732
3E3253A1
BD97C6C6
BBF983B2
3E3172B9
BDF8B1FC
BDC78695
BD8C7C3B
BD785DFC
BDA5ADED
BDBAC290
3CC87D9B
3C530C45
3D754F25
BDC0B060
BD30CA65
3E2979EF
3DD395F2
BE057CAF
BDAD77E8
BDF23E28
BDE9B2C7
BE218250
BE181559
BD65BEC5
BE2890DC
3D811904
BD925BEE
3E1AFF37
3BD3506F
3E0CD92F
3E4755D7
BA1A5E94
3CF6D340
BE2AF2C9
3E157607
BE18A285
BD3BEDCC
BDF36B56
3E484F18
BDB45173
3E6929D3
3E4EB5DC
3DD07D77
3D3FAF20
BD904E32
BD4CFC9C
3E300F23
3E13927B
3DBEB164
3DCD5BB2
BC40EE04
3D5F55AB
BD2A10C3
BDFB072A
BDC71818
BD16A1AC
BDABDBA8
BDD5673C
BDC84974
3D409C2D
BE537233
BE375014
3E24DF7E
3DE06705
BD4650F5
BE0B66F7
BD9C9D4F
BD58E7AC
BE14A925
BD2A9752
BC895037
3E5FD10C
BDB8E1BB
3E3040E9
3D9AA11B
3DC7ABA8
3E6B7F0E
3E25F364
BDD500E1
3E5BFF3D
BC8B4500
3CB6045B
BE0BD5D7
3BC38B1B
3D5FE412
BE15A936
BD0D7EBE
3E46F525
3E510C82
3D8A6FBE
3E1CB488
BCED78B3
BE069A74
BE0DCC56
3E022BDE
BCF729CD
3C9E37D0
BDA6DA19
BCBEB3A6
3E54B977
BE3079D7
BD5EC59B
BDC50852
3E16D56E
BDE4E565
BE04913E
3DFD980F
3CB6F556
3E17B1A3
3C307C50
3D4B1014
3CFB6614
BE19D3AB
BAF27BA1
BE448AF8
3E6B571F
BDA95B7B
3D225292
3DD7BEF2
3C8CF12A
3E0F1E8A
BDF232CB
BDDBB2C8
3E29363B
3D211C3E
3C20359A
3DD9F05E
3D61FE09
3D512954
BD7478EA
3E063BE7
3CA74F6C
BCA21C10
BE4B838B
BE08EE94
BCB2CAF3
3D9537FE
BD1CD61F
BDD57221
3DC4770A
3C0285EE
BDF1E6EC
BDF778E2
BBA72E58
3DF16C9B
3D33856C
BDC688BE
3D84C6F7
3DF72BA0
3E0FE639
3C52BE6A
3E13D19F
BE5A616B
3DCEABEE
BE28EE15
BC51545A
3E329679
B98DA6C4
3AFAEFD4
BD5FD375
3BBB3CB3
BE0FF217
3D1B09CD
BDAFA3DD
3B9C6170
BE1ACA37
BD762392
BDAAAA83
3DFBFEE0
BDD4638F
BD23F2E7
BD342206
BCECA2FB
BE053B9C
BDC8D3EF
BD719DE7
BD4BA537
3E041662
3DF50792
3E5BF59D
3D6E17FE
BDE9F38C
3C3D46AF
3C83BC29
3DED033A
BCD299D8
3E571B87
3C28C910
3DE56408
3E46A1F5
BDC9C9BC
BDA72E73
3E08F8DB
BC0C1B1C
3D8C8E23
3D60A3C7
3E6FEEDC
3D46543D
3DF4B8F1
3D972849
3C598177
3D9B69A9
3D139126
BD45FD6F
BDE7E898
3E2503AD
3D8BFA0A
BDE185BC
BE0CFD67
BE086CBC
3D5A70A4
BDF1B44E
BD298376
3CA2497A
3E036030
BCE3C876
BE18B47D
3D2EFFDB
BC930E9F
3D81A722
3DE26536
BE3F98F2
BC76DEBB
3D9CB3CD
BD890D30
3E1CB6D1
3D8CEB37
3C4BE13B
3CF24742
BD7306B5
3E48D6EF
3DCEB0C9
3E23CDD7
3DD860CE
3D59F158
3E1EAC5C
BD9949C9
3E34AD07
3C8BE298
BD779E8B
BDAB3B3A
BDFD0FBF
BE3DC51F
3E064BFD
3E3FC903
3E0A8965
BE0C785D
BD4D1690
BD660F67
3E4D49DE
3D5E3F07
BD8AB6C1
3DA5D98B
BD3D99D8
3E00A247
BC6D0387
3E093E98
BE108FD2
BE1F2E07
BCB7A1CF
3DBA2B60
3E238936
3D84221A
3E065DFE
3D870AE4
BE4DB0C5
3D525CC9
BE0BA51E
3E21D2C3
BDCD2EFA
BD906089
3E21AAAB
3CDA2014
BE33C7CE
3DAF79FF
3E3C499B
BD0AC8F6
3DA2AE54
3DECE8A7
BDE526DD
3D8EFF1C
3E1C4247
3E2E0ED8
3DBDC34E
3B98046D
3DEABAED
BD0E6613
BE0DBF89
3E5816FE
3E1C06E0
3E5EF1A5
BD8558FF
3D398E3E
3E39B851
3E0330BB
BE03C7E2
BAC3A01E
3D0433B0
BDDF7D5D
3E1FD913
3D8A3719
3D85DC4F
BE0DB691
BD8D371F
BDC4C4DA
BDC0E69A
3DC0E5AE
BD92C7AF
3E27FEE8
3A901157
BBD865AC
3D7200E8
BDD16179
3D9E72CD
3D8ED2C6
3D626705
BDE04C9B
3E1966AF
BDBBA3D7
3DC0A12A
3CC9370B
3DC352EA
BDB5A5D9
3DFCF85B
3E259B42
BD8A7841
3E00AD0E
BDEBCA2C
3E383CD2
BDDFA420
3D892F13
3DDEF015
BE64456A
BC2BA52F
BE0F4E55
3E2B4B05
BDE62076
3C72AEB3
3DFE0B9F
BDCA1EA9
3C962E3A
3D9994FF
BE041B37
3E6D107E
3E173F72
3D3121F0
BC9A400A
3E0549B3
3D7A6AE8
BE2EC94F
3D290C7A
BBB218D6
BE2AEF5A
BD9D889A
3E0A6ED8
3DD56B46
3E13212C
3D4936C2
BDAD7431
BC2D41A2
BE221496
BE0DAF11
3DD494BC
BE2564B7
BDE486B1
3E40246C
3CAFAEC1
3D9568EC
BDCC3E36
BD60C398
3D1A8B0E
3DC8A702
3CF4B75E
BE22C2A1
BDB6BED0
3DA1356A
3E371D3D
BCB6A1B0
BDC3F546
BD67CE26
BE09F927
3E00A79D
BD0C0070
BD4F3DEE
BB00C3E9
BDD86130
BE359A5C
3D5BFE27
BE15C88E
BDE07613
3DE6B0E2
3D9C494E
3D64F557
3E24BF74
BE1A11E5
3E0306E1
BE0F8DA7
BC340944
BC843F9E
BE04A197
3E22D172
3D2127C9
3E376787
BDD175B1
BDADEEAF
3DB181A6
3E1F6718
BE195561
BD8D535B
3C4F199A
BDFCE7F3
BDAA7ACE
3E4EB8C8
BD425148
3CFF321B
3D872A33
BDAD943E
BD147E74
3DD156D3
BD7F0CDA
BA90A296
BD29106F
BD63127A
3DE9E416
3E7CCADC
3DD70CBD
3DD40FD8
BC37E31B
BB37AA9D
3A2E7E84
3E519078
BD94CF6B
BDE52BFD
3C8D7598
BE4BC12C
3E2AC522
3E035735
BE089A5C
3E22FCF7
3DA9C634
BCF18BA9
3DFE42A3
BE09E19C
BE52F4E8
BD7AC5B9
BC11F583
BCBB8522
BD8A7E2D
BD9687DD
BE21F764
3D6506C9
BE0B464D
BD619D0D
3DFE489E
3D952045
BE163B48
3E430705
3DD92EBE
BDC2B730
BDAA9EC1
BD9F9975
3D8BBB6A
BE246C31
3C6C6DD7
BE070960
BDFAD814
3DF85663
3E46178F
3D9768D3
3DBA176B
3DD15920
3D961081
3E05A203
BC8964DD
BD2C0779
BE2E4290
3C51ADA6
3E33A05B
3E457751
3DB64C7A
3BB284EE
BDA72713
BD78B9C5
3DC2A586
3E004F07
BDA486A3
3E514C4F
BE00257B
BD82A522
BE118C10
3DA322D8
3C877ED0
BDFF242C
3DA3A25B
BD9F2C40
3E2DD95B
3DAA620B
3D7AA75F
3E08E42F
BE0F306B
BD3B6807
3D78E14E
3E329671
3E186CFC
3DACCFAA
3E2F6BDD
BE09C3FC
BD51757A
BDA5EB54
BCA61784
BE57DAFC
3DB2340B
BE0E0961
BE37C74C
3BC81651
BD10A8A2
3E176031
3E19CFB4
3D142286
BD2F5F6E
3DCE18A3
BE205AD2
BDBF1B71
BD5086E7
BBA1D39D
BD8FC6ED
BE20284D
BD5449BF
BD2DF5EF
BE06A6BA
3E237C6C
3CDDDBC2
BD7FA488
3D52C51E
3E4B4F31
3E58AC5C
3E4B03AE
BE134ACB
3E358AE6
BD1CC27E
3E14AF6E
BE28AC56
3DD24717
3D08F4FF
BDAE4426
3CC24BAB
BE15FD77
3C2BCC55
3CB81FE2
3D821060
3E3D072A
3D46E573
3C638806
BE1F2465
3E079926
3E00D14A
3D4BBD27
BE068520
BE04696E
3D5FBC67
BB7BC5E6
3BCD8D81
BD4ACC2B
3D45189C
BE4864CB
BE25D341
BDB4FE8C
BDB06468
BE5B9202
BDC0F160
3E390B63
3DE66C5B
BE14DC83
BE4826CF
3E4F6810
BD403320
BDDE8AA6
3DDF9AF8
BDB185B3
BE12CE04
BD55DB59
3DAA01A2
BDB4F4BF
3E27A4B8
3DF98173
3D27B0DB
3E31C278
BD03AF2C
3CA8DC17
3CC6AE05
BE439148
39046540
BD4CCA85
BD45AE45
BE374E22
BDA009FC
BC84C28E
BCA79C34
3DE5A2F3
3DB571B4
BE16E6C3
3E3DD518
3DC3368A
3C8A3D5D
3E4862BF
BCEB759A
3D8963E2
3DF0B330
3E3CFBC6
3D986FFE
3D41C2CC
3D2A8607
BE1E9289
BD36E5DA
BDF79014
3E52B686
3E023373
BD0D4864
3D2F4CB0
BE45CE48
BDAA7F4B
BC64CBC7
3DB6C6C8
3D8E5288
3D4F69E2
BCE1BB96
3E6315E3
BD20C88C
BE1C79E0
BE377231
3DFD93B2
3CB26D6A
BDEFBD9C
BE026966
BDE89FD9
BC6E2C60
3E679B0E
3E0194D1
3E5064BB
BE0999C6
3E1DAA00
BDB6BB4C
BBE70D98
BC4655B7
3D1BAD37
BDD9B25C
BE5392FB
3E266F1E
BE3D1E7F
3E0375F6
BD6606A9
3DA9600E
BCD44623
3C9C5D64
3E1D28A2
BD56B35D
3D81C490
3DCF6CBA
BCD62890
3DDC7577
3D181652
3E09E252
3D61949F
3E0227E6
3E3EF224
BDFFD13F
3C9B7CFB
3CB369FF
3E5AF416
3DA00977
3D6DC14F
BDFCD002
3CA46B5C
3E1F212A
3D04BE3C
3DA07B8E
3CA8A3B0
BDD28AE8
BC202B38
3E18ED6F
BE1B7984
BE01B637
3CAECE01
BE1BB69F
3D87AEEE
3D59E971
3E1DC377
BDE8FDA7
3C2A3C96
BDE8EF38
3E06C229
3DBC59FA
3E1AE416
3DBE7DE1
3D0B32C9
3DE56515
BD87113D
BD69A79E
BD7B188E
BD1BC262
3E2CC4DB
BDFE12D7
3B28AB09
3E4269B7
3DB6EA8B
3D32A732
3BFEEDB6
3D67CE6A
3E156236
BE322DD7
BD6E9CBC
3E2B189F
BE1333FB
BDCE1D00
BD9D5E76
3C984106
3C1ECBA5
3E2A47C3
3D47A9CF
3E3CB06E
BDE08241
3E0F88AC
3C9D0F69
3E3A0D50
BE01E5ED
BDB75EBE
3D3A9A6F
3CCA22DF
BE0F5FF9
BE1EBB8B
3DCBA2BD
3D0A4421
3E6C1D89
BE35F41C
3DFDD712
BD0E68E0
BDA99B82
BE1B64BA
BC7EA1B3
BD9BF776
BDF6F715
BE2ABE3D
3C8810FE
BE0FAF11
BD9D6AFB
3E37A577
3DBB8AC4
BE4918ED
BDC3C8F2
3971D9DE
BE085D15
3DA4D2DA
3E371B87
BD9E0108
3DA0D1E5
3E3B6160
BE1E1773
BDA27D35
3E34B4E6
3E544F4B
BD1782B5
3DAD1938
BD5EB854
BE16857D
3E2A6E43
3D5269A0
BD535DCA
BE01F866
BD82EE61
3E150ED5
BDB8852F
BDC50DE1
BCF2FD86
3E5EEF1E
3DB23B12
BDCD3FA0
3E1BA52C
BCCB8D6C
BDCD1737
3D10E200
BBA540D7
3DECCDFB
BD8C03BB
3E46CF94
BDE87B0E
3E4B6613
BDBA2038
3D078048
BD8A0E8E
BC5DFCA8
3DC4D25F
3E57FEF4
BC4DDC59
3D96398B
3DB3F563
BDC66553
3D706854
3DD682B6
3E2BD55E
3E613AB0
BCA5344A
BE0039E1
3DBCA455
3D619449
BE5180D0
BE37FD05
BE5256C2
3DEF6A4B
BE428DC1
BD281D56
BE337DE3
3E330515
BE00C859
3E078D47
3DE7E6CC
BE2D9E98
3D16CCDC
BDFB568A
3BCF68D0
3E44BDB7
BD6C4F51
3E0DBE42
BE3A5A98
BDE3BCCC
3E0E966D
3CF86E82
BDB3A585
BDCA5DD2
BDFEA03D
BC9C7C26
BD8DBDDF
3DB3C4C1
3E551E92
BB954709
3E28493C
BD17E6A6
3DF07A77
3D33D6FD
BCB74AC8
BB31220D
3DF6D875
3D0131A2
3D81A6DF
3DD6C07B
3C3E456A
BE278FF8
BCCA42DE
BC078EEF
BDED51A6
3E33D270
3E265773
BE1993AB
3C9FAF0F
3D967422
3DA1A158
BE16240A
3CD8169E
3E658CA4
3CC5EFE2
3CBBDEDE
BD4D7BA9
BC74C6E5
3B860357
3D849B61
BA545776
BDCE3F96
BD11402B
3E1E20A3
3E0CECA3
3DC701AE
3E180F15
BC070F71
3E39B9DC
BD429093
BD480B5D
3E1E368F
3DC4625C
BDB3F21D
BDA5EAAC
3D0B269A
3DEF8186
BDB17CE8
BC2F0330
BD9D6C28
BDFA6002
3E3C7DA2
3DC7F70D
3D4E227F
BE13DC12
3CCE62CD
3E4488E3
3CB34C93
BDF01DF0
BDE8642A
3E2CFEA9
3E000AA5
3DB62896
3A9D32E2
BE3D726A
BC830664
BDAFC840
BE201854
BE5AE845
BDF52B15
3DC5D33D
3C0E88F1
BE167EEB
3BABC273
BD4D04DC
BDB91E7F
BDC16DEE
BE297527
3E06E27C
BD685379
3CB11497
BDB717AA
BE573D86
3D6D0973
BE4889AC
3E541CC9
BDE8E273
BE657547
3E4283A4
3DB881DB
3D7E0E7E
BE1D57B2
BCF84A75
BCBDA360
3E136C01
3E747C42
3D282A26
3E599316
BE28A20C
BE20C0DB
BDE9E886
3D27476A
3D0A85F5
BE121A73
3DCB066C
3CE92CFF
3E0C92DC
BDCA1F13
3E2DF106
BDF17D5C
3D097BF6
3E261E62
BC0B2C54
3E1A2E33
3E0309C8
3DCFAD3D
3DCB7D22
BD6912CB
BBA34D7F
BD905601
BD9AC7C0
BE1E7548
3E0B1C8D
3D852153
3E1E3244
BE233BDA
3D2104B3
3E24E801
BE43C9A6
BDCCA308
3D16F8DF
3CC09FB1
BC082C41
BCAD3943
BE27F6AC
BDCEFAD5
BCAD1DA9
BE5BA07E
BDDAC007
BDE1B95C
3DA84B60
BDF0CD48
3E2F7C89
BD8BDA80
3D250AAE
3DF7F515
BE3A1DB1
3E041A81
BE1E9388
3D289E01
3E05A711
3BEDE462
3E6B276D
3D5C7120
3D8465A1
BDCBF212
3E2BE4B4
3D5BCCAE
3D7E4B40
3DE8194C
3B23EA53
3CCE0101
BD48B75C
BE120BE0
3C0F2FB6
BD00014B
BDEEE8C8
BE0DBF04
3D88A5F1
3AFF8F6C
3DF77C00
3E26BB93
3E09A326
3E0C31CD
BE07CF8A
BDCBD56A
3E19FF26
BCF5149D
3DB912F7
3E34DE4A
3E0ED893
3E1A9B74
3E2A5E39
3E13EA0B
3E38131D
BDAA7223
3DEA0B84
3C0227F3
BE0D8B2E
3E18F09A
3DECDBEA
BCE5ED75
BDA27606
BD479593
BDA818A4
BE23AC93
3D57A341
3DD4099F
BC79644E
BE008221
BD19B1BE
3DAC2FDF
BE251FFE
BE379DC7
3DDD3C24
3DD2644C
BD53FD6A
BE3BAF79
BE01DE4E
BE06CF33
BCA6AA7C
BD451E42
3CBEBEB6
BD30E78E
3D8F86EA
BDCDFFD1
3E336BBC
3E0FCD0E
3E1FA784
3D90A687
3E13917C
BE3A78C7
3E0F3768
3E0169B7
BD7A7809
BDAEAC30
BE050A78
3E192494
B920C084
3A4CE2ED
BD924CBD
BDDB1600
3DEB19F9
3CB16B3E
BCF7A697
BE15C6CE
BE452CE0
BC6BC114
3D822DBD
3D71F5D6
3CE434DA
3DAEB865
3E0B178D
BE4EFDA3
3DCBD0B3
3E3D0C30
3D6C8189
3E14F153
3E65D084
3CEC6AC7
3E7065C7
BE145894
3DF90E01
BCC5120A
BCB9D29C
3E724602
3E0550B7
BDC2D5D9
BDAE09B9
3E0367A5
3C601CB8
3E593B28
BE3A842B
BD9CD460
BD32CC5B
BDFF5FAF
3C770639
3E0FEDEB
BADF1F48
BD6C232A
3E3BF659
3DB32257
3DDAAE63
BE1132B0
3E22AB1E
BE54D49F
BE0DB533
3E776337
3B0BD7B6
3E141F87
3E729FAB
BE15DFCC
3E108089
3AF01393
BCEF6341
BE0568F7
3E73B6CE
BDF84306
3CCF3C81
3DC98551
3E533A33
BE0BF244
BD0F9046
BDE65D7C
3D8D3AF2
BDF50669
3DEAA6E7
BE0C709B
BE3BABE3
3E5673D5
BDA45C51
BDC3B044
3E383D3C
3CC02866
BE56A49A
BE063222
BE1863F8
BD07584A
3DF28CD9
3D132EEF
3D59F55F
3DEBEB64
BD066A71
3DCB3A7A
3D2F4C38
3DFE4F9A
BDF23C27
3E44A819
3CF2B9C0
BCF48F1D
BDBB10FC
BDC18A59
BD23C80A
BDE7A57D
BD76D126
BD3E73FA
BE2C15A4
3D38EAFC
3DDFE389
3E0DC75F
BDD6135D
3E1B93AB
BD34E2FF
3DF68B79
3D9D87A1
BBBE4EC2
3D8FEF95
3DA89ED4
3DB6FCF4
3E16BAEC
BD4FB447
BE2A3CF7
3CC8323B
3E330E51
BDF67EA4
BDE0B444
3D02A843
BB787048
3DCD38C5
BDD3EAD1
3DABB6F9
BDF786C6
3E0CFAAE
BE40E89E
3E205A6D
3E42F1FF
3E67380F
3D963A42
3DF45725
3E13482C
3E7F25DF
3E2CF667
BE572460
BD6A68EC
3E0D54A9
BD2510B8
3DD9FE16
BB9DB281
BD9F4049
392E9242
3D4B09C1
3E563487
3D666C04
3E3DEBB5
BD88292A
3D9CDD2E
BC9E77D2
3E299281
BE1B6F93
BD3417AC
BD7280EC
BD81C5DD
3D600B3F
3DC086E1
3D59DCC6
3E339FE9
BE081B43
3D5D1AD3
3E257C8E
BC01B389
3E74D665
BE2D7F77
3DBF3F6A
3C427911
BD8B12A5
BE19229D
BD51C9B5
3DC9C553
3DD4F480
3D86D43B
3DDE4DE2
BCB4A674
3E121089
BDCB867F
3E473068
3DBFCE3B
BE01E31F
3E6A017B
BE1642F2
3DBE2BEB
BE39D9B6
BCE35853
BC791D0D
BD3726CB
BE043516
BCE37AF6
BD523DC6
BC8A79DB
BE1B5D70
3DE458FD
BD931EE7
3C390566
3D8EEA00
3E3AE2D5
3E687DD2
3DFA4C54
3DBBACFB
3E555DC8
3C61A620
3E28479D
3E042F10
BD637F2D
3E3D9674
3DB78DCA
BCD2D524
3E241832
BDDDB43A
3E3CE46D
3E3A28A8
BCAB63FB
3D12CDEA
3DF6B934
BE1C99F6
3D63BA36
BD88C2A0
3DFC12F8
BE22CF35
BC9934DC
3D92E4C6
3D374C8F
BCB9013B
3E1172E1
BDA2CD1F
3DD4DB9A
BE41301B
3E2347D3
BDA63B49
BDAE3426
3CA56E59
3D68211A
BE214666
BD75A5FA
BE0288FF
BE33A2E1
3E48FF45
3DEFEFFA
BE37EB4A
3E201BC2
3D572A07
3E22E5B0
BD74E715
3E228D2B
3D4C0717
3E17DB7F
BB5E40FB
3D79767C
3DF1DC9E
3E18958D
3DA54250
3DA78966
3D4D5E97
BE1C3ED6
3DE9C3E1
3D5838FE
3E515EFB
3C1055F7
BB44617D
BB4492F8
BE1BB932
BE1A34BD
BD22A08C
3BD84BF8
3D491172
3E60EB6B
BD241AF8
BDA68766
BE4F225E
3E61DD2F
BDBE598E
BD988706
BDBC1D1E
3E493F81
3C54462D
BBB6873A
BD2EB0EF
BDFC1A3A
BD80D8FD
BD28D0F2
BB3A977B
BD9BA13C
BD25EEBD
3D909A14
BD0F48AD
3DA58D39
BD651DC9
BD797A00
BD6C2E5A
3B9C4A68
BE3C180C
BC9E7912
BDEBBEF8
3E07F5A5
B9830225
3DFD0838
BE4667BE
3E0707AA
3E19254F
3CC559A2
BD80F9DF
3E0FBAB3
BDA6E169
3E087092
3D4D9A1C
3D019338
BD260736
3D90E410
BDF570D7
3E60DD95
3E093275
BD6DD1A1
3E2DEB2C
3DD88C73
3E187915
3D687EE9
3E23BCFA
3D8E0504
BE047FC6
3D5AE2A0
3DD4B9B6
BE20DE10
BD830DFE
BE33B7EC
BCD14BD3
BB3B5D1E
BCC1E88E
BE03789C
BD95A18A
3D3FE220
3CD76604
3DC41C9D
3E0B0938
3C522C47
3DA9426C
3E3F6715
BE0C3350
BDDB0620
BE27F02A
3D2C2FAC
BE261D18
3E2197AF
BDEBFD38
3BB2FE16
3D80C4A0
3E40049A
BDF6D38A
BDC85FEE
BDB9CF16
3D1CFBB4
3DB6A4A0
BD9FFC26
3E102357
3B9611A2
3D87968F
3D7A4C00
BBFA8159
3DED5816
BD7B9D92
BE4B561E
3DC91767
3E42A951
3D3A8EED
BE10E679
BDBF7CFB
3E53EDFF
3E3E74D6
BDB7FF38
3DA579B6
3D10FB2D
3D46EF91
3D7E7F7B
BDE774ED
3E31C06A
3D70E1C9
BE1377C7
3D783174
BCAAC703
BDED75E0
3D11BDC2
3D79FE90
3E44A657
3DDB2DE0
3CC1C9ED
3DB69E1D
3DF1C0A7
BDE3D273
3D85705E
BE0D7DED
3E2A2E44
3C10EA8B
3D2DAA0D
BDE94038
3E51C7B4
3E45BE6F
3BE93C30
3D1675C9
3DA33380
BDD56A6B
3E16F619
BE39B968
3DF6ECC5
BE24C379
3E431BC5
BD8DBE13
BD83725E
3E158158
BE34AEF3
3E43EFC5
BE1FD1CF
BD8DF58F
3E07BC7F
BE149B54
BE10467A
BD8638EF
BD7BD0C1
BCCE9F62
BCD3DFE8
3E32F2AA
BE44EBB3
3E20F415
BE3234A6
3E244F9E
BDDAC95B
BDEB5FCE
BC946A4A
3E133DE7
BCFBA261
BCA20309
3E097155
3E58F8DE
BD329610
BBFA58D9
3C6002E1
BE1C95B0
BD575A77
3E245505
BDC69CC3
BE3E0B6B
3E21FB53
BC237A81
BBCF842D
BE592703
3D6AB9E0
3DDFBCC8
BDD10F29
BD54BF6A
3C91863D
3DDBEBDD
3E2F14E8
BE070B7B
3D5C1AA2
BE2BC461
BE296518
3D95647B
BE23B988
3E09F1F4
3DE0A923
3AE20B27
3D5AA0A1
BE139A9A
3DE9F49C
3E1696F6
BE561A30
BDD8F07E
3E6406C5
BC987DDB
3E132987
3D1B5D2F
BDB110D4
3C9F4F36
3DA67A47
BC8B0FAD
3DBACEDF
3DC9D408
3E3B7D31
BE2E91C0
3E1827F6
BDE0BAA7
BC6EEAD4
BD0E9B25
BCB7EDA6
BE08B886
BD886359
3DD5D38A
3D396A90
BE18823A
3D542F10
BD5FDC27
3B2118AD
3D9FD0D6
BD1E296C
BDD1E60B
3E2EFA7A
BD8E7F0F
3D0B763D
3E14E20C
3E69BBD5
BB3FC5CE
BE1F359A
3E4A8798
3E2A882E
BC8AA77B
BB34B565
BE0E4A63
BDD0E533
3E5AF596
3E34F73F
3DA97C36
BD95B7FD
3D10BC87
3D3F7C6E
3E0025AE
3CE0FEB3
3D9850AC
3E0AD6F5
3D068086
3C26BBB2
3E404316
3DF0931D
3D3390AB
BD424A7B
BC052AEE
BCEF1501
3D5A983F
3DA5CECA
BC80DC7D
BE5AA8B1
BDFD3D38
BDFF3292
BDC9CD24
BE070494
3E2B3C5D
3DB59D6A
BA298828
BDA36D94
BD9C58AA
3DC8F9F1
3D03FD54
3E19DA5F
3D058540
BE2571CC
3DB60BAD
BCB77960
BE1B3832
BD8E5E42
3DEA38B7
BE3D81D4
BDA32804
3DFDEEAF
BE0261B6
3CBC973D
BE0CBB42
3E28DBB6
3E30AD25
BCCAE25A
BE49000D
3E2872E9
3E27B7A4
3E2890B7
BE2C7393
3BB42F6C
3CF60372
3D91C6FE
BD98F501
BE126CA8
3E5E80AD
3D02A3E0
3D5D0875
BD6CFEC5
3E405133
BCA70AD2
3E0A8F94
3C39EAFA
3E02475E
BD819AAB
BDE194E4
BD124198
BC8C9CB2
BDD9B0A8
3E3F7BF6
3DDEA578
3E0A46EE
3BB8381F
3E26FAB6
3DC57966
3D1A6489
3D82A20A
3E24FCAB
3E724ECE
3E5CA7FB
3E0F1E73
3D8BA682
BDB70F90
BE2EF67D
BE13ACE6
BC81ADC4
BE064DFD
3E1108CB
3CEB63A6
3D1B22B7
3D02A2EF
3DC2F35C
3E0CBA29
3D645D6B
3DC6326E
BDF54A53
3E092FCD
3B1A01E0
BD5543E8
3E13A893
BE16C6D4
BE081558
BE32C304
3D8E03A9
BDD4EA3F
BD7ED6A8
3D87321B
BD2E69C7
BB5F08AE
3E500F99
3D9998D2
3E376AC1
BE062A9C
BE3EA646
3DF1212C
BD6F28A1
BBC39EF9
3E43BABB
BC81B9C1
3DC9EC5F
3DD87716
3D19D15F
3DFC01AD
3E1221AD
3E31BA48

