BE18A2E9
3D2FCEAC
BDCF34B2
BD81274B
3C3E99CE
3E252B6F
3C67D97B
BE231E1A
BD8C4FC9
3CF08969
3CB3908A
3E1F4F14
3D0F55E5
3BD0E83C
3E31550B
BE34B59E
3D4A0303
3DC664D9
3DC6AA11
BDF0B488
BE2CD6C3
3E68B992
3B3FF6BB
BE117276
3E3F4989
3D864D65
3C4D4D9F
BD16B557
BE2E8E0A
BE0CF131
BD884A14
3E58E8C8
BDF635CD
3E46B566
3E0EAD69
BCC9C102
BD986AFD
BE0F2188
3DE3B7D4
3BB82482
3E06CCB9
BE296082
BBF15F9C
3CCD53BB
BDF2E5F4
BE06411A
BD82D7CF
BC786558
3DFC47AA
BDE124BA
3E1C03E0
3D169BD9
BDE239C5
3D2BFE80
BD40D074
3E162E3C
BD62E1E9
3B5B57D3
3E39C749
3E2E9059
3DAF4D7A
BDC5192F
3D218ADA
3D09BC76
3C7F3D74
3E30258B
BDD042A6
BDF033D9
BD1795B0
BE1C9654
3E325734
3D8E692C
3D56099C
3D853175
3DCC638A
3DF9FB4C
3E20099B
BE02E88B
3DA14BDB
BE168469
BE589721
3E625FBA
BE5049E6
BD537952
3C3C2FA4
BD355F7A
BE8A1C98
BE53FCB2
BE0997A7
BDCD5BDE
BE146BEB
BD040C99
3D658471
3E5216AE
BE83ADFF
BE497B61
3D0DD3A4
BDBD470F
BDBB397D
BD2DDCFB
BBC6BBDF
3E2BC65E
BDCCDCD8
3CD0563C
3E38F11D
BD13B658
3E1AF5DA
BE173654
BE06E348
BD1EE647
BDC4DA5F
BD2B993F
3DF69AED
BE39DA40
BE5B2D56
BD35D43E
BE245A6D
3E1E7E1E
3D231013
BE329B37
3E1A8168
BDD81D90
BDD327D2
3C083598
BDB6E1B4
3E5F6FC8
BDCF711F
3D9F04AA
BE001656
BCC85CE4
BD91B73F
BE1312CA
BD0CECBA
BCD59AE9
3E2C9F00
BDC5327C
BC7E196D
3C6A5410
3A3A5F57
3CE83A95
3CE0C3A7
3E0CEDCD
3E329F36
3DCAB355
3D6F5E97
3E2934A7
3D9F5F79
3E40D2FC
3D8DDA8E
3DCDB8FF
BDD19FEF
BD4D0B12
3E5D5175
BE05CF87
BE3DF63E
BDCCE95D
BD8C8C6D
3DA8677D
3D61EA5C
3CD981A1
3CAC3A8D
3E69444C
3E448DB1
3DB663E3
BE005C27
3D4236AE
BD1D991D
BD07C0D3
BD875B05
BDB8BD5B
3C832B80
BE08880A
BE373EF2
3D983874
BE3B2C5B
BE0F8B34
3D1628D9
3DAECBF4
BE3B5603
3E47BA18
3E6E8A40
BDBE87D4
BE2466E3
BE4B15AC
BC5F5B44
3E14693A
3D2AF020
BE503071
3C5F93A5
3DF9E098
3E2A95EC
3D3409BC
BDD13F77
3E120C38
BD956674
BAF4B7AC
BE33D692
BE4C3481
3D65732B
3E52E9BA
BDD2C9FC
3D21730A
BE0191FF
BDD2E538
3E1BF228
3D2A4DE0
3DC6135E
3DF7991D
BE3E0E19
BE262744
3DB0AE4D
BD40E1CA
BE0E9583
BE540FE5
BD81F0C3
BCF87CC2
3C3F1531
BDFE26C5
3DF4F1A2
3CEC4875
BB06BE63
BD55D964
3CCCFBDE
BE593F2D
BD798AB6
BE47900A
3DF31C3E
BE11E2D0
BDE24B97
BD83D3E2
3E50D55D
BDE6454F
3E32E26A
3E44C1A5
3E23C774
3E1DBC9B
3C3CABF7
3CB624B9
3DB2D28C
BD75AE4B
3E3C9459
BD7D0C08
3E1D6C59
BD01A695
3E520941
3E20202F
3D91F098
3BDC25E2
BD2AC6EB
BE0CD0D0
BE052036
3DDD5B10
3E1DBEAC
B91B2FD1
3D1C86AB
BE439827
BE0FA972
3D1E7407
BDB6CD6C
BE55E8CD
BD848BB9
BD7F0501
BCCFCEC6
3D5CC6AA
3DFA6BC1
3C18BC0D
BD69AA7C
3C73992F
BE1F7D9A
BDF96622
BD8297AA
BBC461F7
3E12A7E8
3DD0B6E2
3E17A907
3D904301
3D6A0A16
BE0D3436
3E580508
BDE6B03A
BE02FCC2
BD5E40E5
BDCEBAF5
3E260BB6
3E484D36
3BBECCC5
BDFBDC52
3E225023
3D744D07
B980A752
BE0AC5C6
3E2E4AD6
3D8BADAB
3D605A66
3D481BDA
BE121615
3D8EA3D5
3E37A92F
3E500FDD
BE0033B1
BE0F82D8
BE6B95B4
BA8EB682
BCD01177
3E02AC70
BE3174F7
BDDABA88
BDA34ECD
BE069CC3
3C41D45F
3D8EEB46
3E283908
BE4FD709
BE1902C2
BE167CCD
BDDFC761
3E4E8F4E
BDCEDF1F
3CF5F4B4
BDD82D49

