BE45B7D6
BC43E8A5
3DC73B55
BE3892D7
3C947082
BEA97C5F
3E27E4F9
BE058428
BE88AD34
BE8E2CE2
3E1ECAB0
3E5354E2
3CA2A689
BBB08279
BE6ABB47
BE876D2C
BE98AD3E
BE18C862
3D9CD21B
BD8D1160
BE9A9848
3E8E408D
BDAEC513
3B84D2A8
BDF6523E
3D4F2B50
3DCFCE68
3E943001
3E8E7478
3EB60D22
BE5D0D3C
3C97026C
3E1703B3
BE6EA694
BDDF317E
3E5E9E15
BE22ECC5
BE8B8FF6
3E2E7382
BE9C4020
3EA7BC4A
BD1CC4BF
BEB1FF9C
3E951509
BEB12EAE
3EA8BA7A
BD9D9E5C
3E20CBDD
3D0A4CC5
BE3996D2
BD73175F
BC491E0C
3E4EAC08
3E90440D
BDCE4187
BE921A4E
BDACC3B6
3EA407AC
BE5E1F52
BEAC56DE
BEA19251
3DD66CD5
BEAFA1C2
3D98D8EA

