3E253D06
3D156936
BD805AC2
3DD35C19
3E0F9894
3E1756D3
BDA94DE6
3E2B0AF8
BE317D67
BDA1AE19
3E11BC54
BE140E7C
BDAD3B4F
BDC9AE4B
3E013F02
BDFC438B
BE46A309
3CDF0EC5
3DED3C9D
3DC5A3E4
3D3E40A6
3CF60798
3DF8B216
BDCEB937
BDCF0BDF
BCFCAE47
BCA01F86
BE0EF8E5
3D2CC5BB
3CA6B952
BD96B7F1
3E3AE2F1
BC545165
3D45C63D
3DB24834
3E1A821D
3D3D4404
BE1BF9AB
BE19B8B4
3CBDB2F3
3D9BE7BA
3BD95044
3DFAFBBB
3DFA0F02
3D575647
BE16B7B5
BD24D409
BE10E0F9
BD53C016
3D1A4EC6
BC15A672
BCF5134F
3DEA6561
3DC4B39B
3E4A006A
3CD99D12
BE272DDE
3D9533E9
B9313710
3E13C63D
BC7D7604
3DCEB8D8
3E1935B1
3E43D33E
BDEDF46D
3DA7B926
BDB40733
BBF6DBC9
3CF53717
BDDEEAD8
3E16FA13
BDC7A448
BDE14291
3D7263AD
3CDD6194
3AECB018
3E188D96
BC4E52B3
BDBEFAA5
3E135615
BE231FA0
BDEAAD15
BE039300
3DADDCC2
3D66D220
3D444F9B
BD8E4C38
3D7FCBE6
3E1CAFDF
3DADD3EB
3D112325
BE0D2752
BE206149
BDDF5D88
3DA5BE4E
BD73F3E6
BE21F5C8
3E1E0FED
BC91A1EB
3E0D879A
BE1227C9
BD96803C
3E25B42F
3E4BD734
3C6D7B64
3DFDF108
BE36B75C
3DFA0A54
3CBC2788
3C5F902D
3D6114DA
BDFBA30B
BC700D18
3D9D4FC1
3E058045
BE284911
BD805FC6
BE57ACBD
BB9F9D5B
BDDE248E
3D9DBD95
BBE0A20F
BD14D363
3E5D863B
3DA4491A
3DD86C37
BDEB9C53
3DDD90C8
3AB7D903
3E00EA14
3D8DF6AD
BDBC4F33
BE5855D3
BDB6E3BC
3C121E6B
3E6929F0
3E2A9AA3
3D35F248
BDD4D808
BD8CD719
3CE75848
3CAD5994
3E5E439F
BD0A082D
BD3FE59B
BA8D2243
3E28DC81
3E13F8F8
3DDE4365
3CE6A1DF
BDB7896F
BD615B22
BDBDFAD9
3DA0F4AB
BE251BF2
3DCBD509
3D3D238C
BCFDBA27
BE1E6C50
3D64395B
3DA92E3C
3D2346CD
3CCC4134
3CD21062
BE0D7C83
BE3169B7
BE0349D6
3E4426B7
3E4AD3A2
3E001A7B
3D7D0982
3CFE5D1A
BCA28864
3DFD89CF
3DDDBE07
BDAB4E30
BE41E196
3E492895
3E06D848
BC35F3AE
3E22556D
BD89BEA7
BE5BC08D
BCCAFBEB
3DE54ED5
3D75B588
3DEA463A
BD892ABE
3E01C63E
3E0E008D
3DD06144
3BBF2A5A
3CA70DCD
BD11C68D
BCFECB0B
BDA0A7C4
3E285D5C
3E54F749
BE383ECA
3D9BCBE2
3DADE87A
BCC5C66C
3C15006C
3DAD1948
BE2FD039
3E411B5C
BD6DEE9C
3DED479C
3E04AD11
BD5F75B7
BE21811B
BE3019AA
3E1354C5
BDB24EDE
BC430E3D
BBC23E2E
BE0B88AF
3DDB472E
3E2145B0
3E2A1B3E
3BDBE193
BDCD4090
3E23BB20
BDE44FAA
BDE419EF
3C290806
BDF0A7EA
3DD4DF5F
BD667C3B
BE3D1082
BDEA85C8
3D1E8A30
BE4D5508
BDB60CB1
BE1334E0
3E1FDCDC
BE45B6FD
BDEA937C
BE0815CA
3DDF205C
3DE49812
BE536757
3DAC6438
3C3C7022
3CAB6906
3DEC5172
3DE9F233
3D9C7412
3D1E2307
3D9C865D
3D94757A
3DED222C
BE0215E0
BDB46D52
B9F4F0EF
BDE6703D
BE439381
3DB75AA7
BDAA9A68
3DC9BA3F
BE2B8BCD
3E607AB3
BDC2B3ED
3D1AF1E2
3D3EADB9
3E353A62
3DB60DE4
BD2E4416
3DFEE83A
BDC28B16
3E248435
BB805073
3E25E802
3DE49418
BE339349
3E3C2764
3D9C2D4C
3E3BEB53
3D624658
3E3978D6
BE02418B
3DB1722A
BE230B7C
3D995751
3DED8B27
3E204C67
3CBB8B29
3E4F3E72
BE2916A8
3DCFD3B7
3E440A7E
3E44F619
3E55E590
3E1BE42D
3E2B1C47
3E103EE0
3B9547A9
BE5EAC6C
3E645324
3E094F02
BBF983B2
3CC87D9B
BDAD77E8
BD925BEE
3E157607
3DD07D77
BC40EE04
BDC84974
BD9C9D4F
3D9AA11B
BE0BD5D7
3E1CB488
BCBEB3A6
3DFD980F
BE448AF8
BDDBB2C8
3E063BE7
BDD57221
BDC688BE
BE28EE15
3D1B09CD
BD23F2E7
3DF50792
3E571B87
3D8C8E23
3D139126
3D5A70A4
BC930E9F
3D8CEB37
3D59F158
BE3DC51F
3D5E3F07
BE1F2E07
3D525CC9
3DAF79FF
3E2E0ED8
3E5EF1A5
BDDF7D5D
3DC0E5AE
3D8ED2C6
BDB5A5D9
3D892F13
3DFE0B9F
BC9A400A
3E0A6ED8
3DD494BC
3D1A8B0E
BDC3F546
BE359A5C
BE1A11E5
3E376787
BDFCE7F3
3DD156D3
3DD40FD8
BE4BC12C
BE09E19C
3D6506C9
BDC2B730
3DF85663
BD2C0779
BD78B9C5
3DA322D8
3E08E42F
BE09C3FC
3BC81651
BDBF1B71
3E237C6C
3E358AE6
BE15FD77
3E079926
BD4ACC2B
3E390B63
BDB185B3
3E31C278
BE374E22
3DC3368A
3D41C2CC
3D2F4CB0
3E6315E3
BDE89FD9
BBE70D98
BD6606A9
BCD62890
3C9B7CFB
3D04BE3C
3CAECE01
3E06C229
BD7B188E
3BFEEDB6
BD9D5E76
3C9D0F69
3DCBA2BD
BC7EA1B3
3DBB8AC4
3DA0D1E5
BD5EB854
BDB8852F
BDCD1737
BDBA2038
3DB3F563
3DBCA455
BE337DE3
3BCF68D0
BDB3A585
3E28493C
3D81A6DF
3E265773
3CC5EFE2
BD11402B
BD480B5D
BC2F0330
3E4488E3
BE3D726A
BE167EEB
3CB11497
3E4283A4
3D282A26
3DCB066C
BC0B2C54
BD9AC7C0
BE43C9A6
BCAD1DA9
3D250AAE
3E6B276D
3B23EA53
3D88A5F1
3E19FF26
3E38131D
BDA27606
BD19B1BE
BE01DE4E
3E336BBC
BD7A7809
3DEB19F9
3CE434DA
3E65D084
3E0550B7
BD32CC5B
3DDAAE63
3E729FAB
3CCF3C81
3DEAA6E7
BE56A49A
BD066A71
BDBB10FC
3DDFE389
3D8FEF95
BDF67EA4
3E0CFAAE
3E7F25DF
BD9F4049
BC9E77D2
3D59DCC6
3DBF3F6A
3DDE4DE2
BE1642F2
BD523DC6
3E687DD2
3E3D9674
3D12CDEA
3D92E4C6
BDA63B49
3E48FF45
3D4C0717
3D4D5E97
BE1BB932
BE4F225E
BD2EB0EF
BD0F48AD
BDEBBEF8
BD80F9DF
BDF570D7
3E23BCFA
BCD14BD3
3E0B0938
BE261D18
BDB9CF16
BBFA8159
BDBF7CFB
BDE774ED
3D79FE90
BE0D7DED
3D1675C9
BD8DBE13
BE149B54
3E20F415
BCA20309
3E245505
3DDFBCC8
BE2BC461
BE139A9A
3D1B5D2F
BE2E91C0
3DD5D38A
BDD1E60B
3E4A8798
3DA97C36
3D068086
3D5A983F
3E2B3C5D
3D058540
BDA32804
BE49000D
BD98F501
3E0A8F94
3E3F7BF6
3E24FCAB
BC81ADC4
3D645D6B
BE081558
3E500F99
3E43BABB

