BE8831C0
BE99FFAC
3E9ACF18
BDDF6130
BDB2CEC8
BE4299AC
3E36D3CD
3E8ADB52
BEAE1092
BC097A76
BDFE1BC9
BE045E3E
BD544958
BD3F1A15
BE351265
BDCB359E
BDE14057
BE964B3A
BE867ACF
BD166148
3E95CFCF
BE9D6EC6
3E406082
3E1DD299
3D910C18
BE902EE2
BE821369
3E4D683A
BE04D972
BDF8684F
BE9A1264
3DCBA1A9
3E491FEF
3E91524E
3E4CA391
3E57333B
BD4DB4EF
BDCC9BFB
BEABBC24
3E327940
BDC24266
3D4BCBDB
3EB734FC
BE300F47
BE89689F
3EB1B86E
BE1DEC13
BD8E9EE4
3EC8F116
BE36A019
3EA621D2
BE1D1A5F
3E704E1D
3EA3DC39
3EAC3AC1
3E4FA07A
3EBC98DC
3DB9B820
BEAC8902
3E9CDB81
3E57B002
BEAECEE7
BDACDC21
BCDC0F9A

