BE3914BE
3C1F0E10
BDAE5D1C
BD736AC1
BE1E7186
3D9C7B23
3D266DB6
3E3D171D
BDEAFBE2
BDFC6F5D
BE1E3CA1
BDEC7D98
BDFC5CF2
BE0C34FB
BC45AE59
BE1403CE
BDBE3BEE
BD83DBEA
BC862911
BE1D4213
BDC0E57E
BD41E1BF
BC75D358
BCFE96C9
3E31F492
BE58C3C8
3D02FB49
BDA5B0FF
3D9404EB
3D771D3F
3CBB7715
BE2D4115
BD458C24
3E558F9C
3DB54150
3DC68F8A
3DFBD14C
3D95B2EB
BC8C339D
3D1F6687
BDD09580
BE0DB288
BDD23E0C
BE29E9F7
3D6C1880
BBF335AF
3CA2B061
3E294AB0
3E442A3F
3D5A0F83
BE209B79
BDF99B1F
3C2A6871
B85CA3C8
3C691C49
BD952F2C
3DE1B359
3D2DEE5D
BDE432C1
3B557728
BD86A920
BE204070
3D2D4FB5
3CD1BA38
3E6DC231
BE4E561E
3D1B1477
BD56F3E0
BDB8D106
BCBB5185
BE0FBC1C
3CD79A98
BD3E9199
BE12DE09
BE46C5BB
3E2A5436
3D17E38E
BD082642
3DCD1762
3CA37C92
3E3C8763
3DC76D01
BE4F8018
BDC23893
BE47FF38
BDF0DF2C
BE3992C8
3DCE7829
BE0717A0
3E4EE44B
BDE91930
BE8445A5
3DF0DB26
BDDE12DF
3C90D2D1
3D584BB0
BCAA3535
3C6583ED
BE0283B7
3DECE31A
3DB25730
BDBDB491
BD8E4DE3
3C45D304
3E1EF804
3DDA5DE3
BE481FDA
3E0D5CA3
3C3223A8
BD40990B
BD973D95
3E084D7C
BDAA0A20
BDE04D85
BDB7E30E
BDC88B51
3DBC24C1
BE120F58
BE443366
3D9870C0
3E1E9760
BCD5E293
3E01DAE0
BBAEEC6F
BD326872
BBDB1C79
BE0384DF
BC6A5034
BE3E27CC
3DB207C8
3E056760
3D50B783
3D9F3A85
BD5D91DE
BE0E8A02
BCC2BD3A
BDE154DC
3DF3FD74
3E24A256
BE46930F
BD7FDDD5
BD307E73
BCB6DC66
3D4E6E7A
BE3F9B42
BDD9480C
3D97B13D
BE37BCF4
BD822FCC
BE334ABC
BDDC9A84
3DCE4090
3E372DF4
BC4B66FF
BD3F7A3C
3E18DF3D
BE236E00
BE403192
3E369A25
BC0B0636
BD85D01F
BE394C69
3DE4EAFE
BD30D5E1
BD4B5757
BC06C869
BD96B4C5
3E0123DD
3E115DDA
3DD5ADC4
BE0906B4
3E2C7310
3E1235CB
3E0D985B
3E445979
3D9CF1FA
BD184A27
BC34D3F5
BE542892
BE26F597
3C9A941F
3DB8B4C2
3D325293
3E60347C
BDC1F904
BE2CD80D
BE37E688
3E00656D
3E033793
3D729FE3
BE26F69D
3D9F481A
BDAD6681
3E1945AA
3E24E2C1
3E0D6302
BE0BC816
3DEBB526
3BDF6614
3D758F2B
BDC495FA
BD99BA47
3CDFCE10
BD905CE5
3DEE4BEB
BD4EB254
3E391F38
3D32B733
BC713280
3D9F0FD4
3E4AAB42
BE0B5333
BD1523D8
BE12A854
BD4322B8
3E1B1AAF
3CB47D00
BE04CED4
BE11CC14
BE339878
BE03ACAA
3E553376
3E1E1467
BCEEFECF
BE2B7482
3DCA0DA3
3DF90625
BD4E1D34
3B701C74
3DCB1420
3E575768
3D284981
3DFA7710
3DACEF0C
3E4AD2FA
3BCA4914
3D8E9A5D
3DEBAD7D
3E128D6C
BE36D0F1
BDADF997
BD85C5EA
BE2632E9
3E1B0895
BDE25BAA
3DA15076
BE2A50B9
3D66AB8B
BCFCF320
3DE1F45D
3E2E65A2
3DD105FF
3DB93E0A
BD1B98F2
3E427DAD
3C1D0EB8
BE4B6BF8
3E265295
3CA8C5C2
BE4CA77C
BE18CCCF
3E545B73
3D211929
BE1BC1E5
3E019EAA
BDDF3DB8
BCE995CF
3D003B45
BD35B1E2
3D8812B5
BE3E71AD
3DFD7B72
3E020A7C
3E188CF6
3DF8820C
3E2BCF3B
3D70B603
3E5077BC
3CE5B51E
3DF41266
3DD92202
BA2FE5E8
BDE9F7B4
3D75DBC7
BE41ACA1
BD5E0149
BD524D87
3DCCDEFE
BD628869
3DEAA14F
3E0742D7
3E107179
BDC24D25
3E456D55
3D2A55D6
3C57DFB4
3DD1710D
BD0473BF
3DF11B97
3E187F5C
BE065E31
3C5D660E
3E109A9B
BE31E7E8
3D736617
3DAFF1F7
BC2388C2
3C8E3FD4
3D70DFF3
BC232D35
3E37D8FB
3D18E10B
BE3AF216
BD84A419
3D999DE3
3DB9E60E
BDCED40F
BD1BC535
BE392BB9
3E591E20

