BD00160B
BE9E14D2
3E2D09B1
BE0DC91F
BE8F9973
BE9B0805
BEBAA04B
3E29011A
3C89D756
BE95C145
BDF9FB7D
3C88C468
BE3D51E8
BC738FCC
3E00C882
BD7923B8
BE6CCD37
BC29EE05
BE25CC7E
BEBAA3F1
3E381A9B
BE7A2496
BDB1CD84
BDA444F7
BE89A507
BE324617
3E38C96D
3DA8C1CC
3E810E12
BDC0D638
BD3D3D48
BEB5F80D
3E80F8B6
3D68FBA5
3DC02959
BD9C76C2
3C7B251F
3E677334
BE76D825
3DDACB35
3D27DEFD
BDD0A6BE
3EADC6BF
BE9E1B83
BE2B8D4E
BCBAAD7E
BB27968C
BE0A8216
3E556DE5
BE486271
3D333BD2
3E7E4F5A
3DF846EF
BEA3F10C
BE31B8B7
3E0D765D
BDBB9BE7
3DC40272
3C16B246
3DD4E56E
3D090645
3D22708B
3E926009
3E81E511

