BD1099F8
3E39F40E
BDE0E2C9
BCC15078
3DD1A0C3
BD8F8969
BDC3634C
BD36A2EE
3D91A3D0
3DD12992
BE3B3495
BC60F60E
3D28756C
3CEA79FB
3E602D8C
3D1F1BC1
3DA30B93
BD2433EB
BD5571DC
3D670470
3D8DD2AF
BDEA69A3
BD912235
3E10E6DF
BE02CA4E
3E7211AF
BC7CBEC5
3BC01492
3E11B2F2
3E3200F4
BE32483C
3E613378
3E359AA2
3E607B27
BD085F25
BDE46BBC
BE011CD8
BD083E5B
3DF25C06
3D1EE54B
BE4B3C9A
3DD7103A
BE22B851
3DDEF505
BDFA6E2D
3E1CE232
3E506F6A
BD85D2E1
3DDE3751
3DD2D7B8
3C0AA272
BE025173
3CB7585F
3E672D04
3D61C6AE
3E4FA4CA
3CF12181
BD9599E9
BE0C8908
3E5DE1CD
BCB91FFA
BD20F5AF
3B1F734A
BE29C8BC
3E048149
BDA8FCC3
BDE918C2
BD426FD2
BE0476C4
BDB16B60
3E6DA164
BE2E7647
3E3BE687
BD87D467
BD1EDEB6
3D81344F
3E1137FD
BCEAF52F
3D242EC0
3B68C862
BE2EDEEB
BDE692EE
3E4671CB
BE0B4273
3E0A3966
BC2804EA
3D53B334
3CA9FA7B
BDF30E9F
3E2D45AE
BD820259
BE08F22E
3DE4175C
BD4A1E28
BE249D1D
3E0D01AA
3D12351D
BDD14935
3E07F926
BDCE6B74
3DA60AB9
BE1A87B8
BD2F2A9F
3D9F93E1
BDAD5FBC
3DAA4D1A
3E0B0685
BD8F82FF
3C65BA43
3E2459C5
BBF75060
3E0125A9
3E666E66
BC923ACD
3DB249F9
3DB5F1E8
BDB11B55
BE346EEB
BD98EB7A
3E58CB58
BE0544B7
BCB42525
3E35F61E
BC97CB9D
3E62562B
BE2BD340
BDD1FC76
3D3D888A
BE17AE3E
3E355194
3E465100
3D55489E
3E3048EC
3E30A4E5
BE121102
3D71B86F
3E470947
3DBCF611
BDBB1515
3C828FB4
BDA9F030
BCFF704C
BC0C6372
3E684877
BD953929
3E00A755
BE230208
3CC6FA46
BD148EDA
BD3285A4
3E2F40AE
3CC14E38
3DD5F31E
BDE68C9C
3E08F87D
BBA46CAC
BDFDAEB7
3D27C279
BCF64C83
3C69F302
BD944E4B
BCE6FFFE
3D1857C9
BD95F270
3E5446AD
3E0BD13C
3E6677DF
BD68FCC7
3E0F5779
3D8B4DB9
BD07456C
3D7DC036
3D9500D0
3E4DAAC2
3D17B39E
3DC79B31
3E414382
3D3E30F6
BD86E09D
3E067385
3E656BDF
BE337362
3BE09CCB
3D95E19F
3E0605F8
BD3987C5
3E1CE3B9
BD30D3F2
BDD8EC83
BDC024B5
3D588185
BC34DA34
BE32FC99
BBA214CA
3DB8ED37
3E16445D
BDD9ADFD
BE3654F2
3E0D8B55
3C46AFF6
3E1C8BD0
BD93FB06
BD225DC2
BE0E836B
BDA3FC28
BCB4520A
3D802B65
3E202D91
BBB6B1D4
BC678291
3E50B608
BD7A3365
BE317D67
3DE61EE2
3DA7280F
3DF016FD
BE2A7B10
3DC78004
BE37CA3E
3E299D03
3E3FB05A
BE10A30D
BE222A85
BD3428F1
3CD19B64
BD5F1CAA
3C431E2C
3D1D85FF
3DEA6B7A
BD35715D
BDF62438
3D974456
3DFAD364
BD56A9AE
3CDE2517
3DB5E712
BD89D3B8
3C4F6418
BDC4B6DA
BE0332B4
BCEDAAED
3E1B84B2
BE5F5EE0
3DC3FF99
3C6A4F94
BD81B7DD
BD5D3AE1
3E2BB6FB
BDF55995
BE5182C1
3E3AC36E
BD605A07
BE19DE2E
BCBDEEC4
3D83EB40
BD705ED2
BDEDACCC
BDF41A4F
3C27D264
3D067A44
3E654B5A
BDBB7E4E
BD73414F
BE1A32FF
3E29BD6F
3D0EB976
3D0F53C4
3D0C969E
3E561B38
BE4261C3
BDCF6BEA
3DA9BEF3
3E379127
3E10A042
BC17075A
3C84B493
3D90FB40
3D43A451
BD0B9E41
BE0D00D7
BDEEE969
BD25234F
3E358FEE
BE33D6CA
3E4D562F
3D098CAD
BC4D8D19
3E21C915
3E267D52
BE1187F4
3E431351
3CC0E04A
3E567C05
3E068BA5
BD08F138
BE032614
BCBFC88F
3DF60F5D
3E20FCE8
BD08C0D0
BDF8B1FC
3D754F25
BDE9B2C7
3BD3506F
BD3BEDCC
BD904E32
BD2A10C3
BE537233
BE14A925
3E6B7F0E
3D5FE412
BE069A74
BE3079D7
3E17B1A3
BDA95B7B
3D211C3E
BCA21C10
3C0285EE
3DF72BA0
3E329679
3B9C6170
BCECA2FB
3D6E17FE
3DE56408
3E6FEEDC
BDE7E898
BD298376
3DE26536
3CF24742
BD9949C9
3E3FC903
3DA5D98B
3DBA2B60
3E21D2C3
BD0AC8F6
3B98046D
3D398E3E
3D8A3719
3E27FEE8
BDE04C9B
3E259B42
BE64456A
3C962E3A
3D7A6AE8
3E13212C
BDE486B1
3CF4B75E
BE09F927
BE15C88E
BE0F8DA7
BDADEEAF
3E4EB8C8
BA90A296
BB37AA9D
3E035735
BD7AC5B9
BD619D0D
BD9F9975
3D9768D3
3C51ADA6
3E004F07
BDFF242C
BD3B6807
BDA5EB54
3E176031
BBA1D39D
BD7FA488
3E14AF6E
3CB81FE2
3D4BBD27
BE4864CB
BE14DC83
BD55DB59
3CA8DC17
BC84C28E
3E4862BF
BE1E9289
BDAA7F4B
BE1C79E0
3E679B0E
3D1BAD37
BCD44623
3D181652
3E5AF416
3CA8A3B0
3D87AEEE
3E1AE416
3E2CC4DB
3E156236
3C1ECBA5
BE01E5ED
3E6C1D89
BDF6F715
BDC3C8F2
BE1E1773
3E2A6E43
BCF2FD86
BBA540D7
BD8A0E8E
3D706854
BE5180D0
BE00C859
BD6C4F51
BDFEA03D
3DF07A77
3C3E456A
3C9FAF0F
BD4D7BA9
3E0CECA3
3DC4625C
BDFA6002
BDF01DF0
BDAFC840
BD4D04DC
BE573D86
3D7E0E7E
BE28A20C
3E0C92DC
3E0309C8
3E0B1C8D
3D16F8DF
BDDAC007
BE3A1DB1
3D8465A1
BD48B75C
3DF77C00
3DB912F7
3DEA0B84
BDA818A4
BE251FFE
BCA6AA7C
3E1FA784
BE050A78
BCF7A697
3E0B178D
3E7065C7
BDAE09B9
3C770639
3E22AB1E
3E108089
3E533A33
BE3BABE3
BE1863F8
3D2F4C38
BD23C80A
BDD6135D
3DB6FCF4
3D02A843
3E205A6D
BE572460
3D4B09C1
BE1B6F93
BE081B43
BD8B12A5
3E121089
BE39D9B6
BE1B5D70
3DBBACFB
BCD2D524
BE1C99F6
BCB9013B
3CA56E59
BE37EB4A
BB5E40FB
3DE9C3E1
BD22A08C
BDBE598E
BD80D8FD
BD651DC9
B9830225
BDA6E169
3E093275
BE047FC6
BCC1E88E
3DA9426C
BDEBFD38
3DB6A4A0
BD7B9D92
3E3E74D6
3D70E1C9
3DDB2DE0
3C10EA8B
BDD56A6B
3E158158
BD8638EF
3E244F9E
3E58F8DE
BE3E0B6B
BD54BF6A
3D95647B
3E1696F6
3C9F4F36
BDE0BAA7
BE18823A
BD8E7F0F
BC8AA77B
3D10BC87
3E404316
BC80DC7D
BA298828
3DB60BAD
BE0261B6
3E27B7A4
3E5E80AD
3E02475E
3E0A46EE
3E5CA7FB
3E1108CB
BDF54A53
3D8E03A9
3E376AC1
3DC9EC5F

