3B911E83
3CF327ED
3B7211B2
3C79E163
3ABEE990
3C750884
3D2CA632
BC3E65B7
3BDF97DC
BC912300
3C128EA5
3CC96DDF
BB411D18
3CC1EA5B
3D0839F2
3D02C61E
BB4A413F
3D3B2E45
3D2389DC
BC77477A
3AC77CB4
3D40247D
BC63CBE8
3D2E81F2
3D265379
3C9F9B91
3D298C56
BC12A4EE
3D047CAC
3C6AB53D
BC6025D2
3D21D1A8

