BE76A39F
BE122632
3E747448
BC230BA7
3ECDAF68
3E629F51
3EB5D1C1
BE87CE6D
3E972CDA
3E8FC7C4
BE864BD5
3E97EE55
3EACFB14
3DBCA157
BE8A2F75
BD997044
3EC20984
3D9BAD18
3E5AA624
3E5CF7B0
BD844F23
BE3BABF0
BDB739B1
BD3FB62F
BEA9263A
3D7EECAD
3E691DD9
BDA6A360
3EB910FC
BE1B6E6E
BE2610E3
BEA79992
3DCE7D23
3EB0E547
3E9E08BA
3D9F192F
BD002191
BB7007C4
BDD150A4
BCE522F0
BE3E194A
3E91A41E
BDE40376
BE8883F7
BE9AAAF8
3E2704FC
3E9719F7
BE8101F3
BCF82C19
3CFBCC01
3D307086
BE915A36
3E41BA16
BD6CFBC2
BE689739
BE2A47B5
3E4B9941
3E99D551
3D24228A
3DC80215
BE9ADECC
3EA78EDF
3E36B80C
3E18A2EB

