3BFA42BE
3E2F92E3
BE3632C8
3E558EA5
BE66A734
3E5CF429
BD48A1EE
BC22BEC2
3E329EA5
3EB265B9
BE8DAB7C
3E8ACA0D
BC6025B6
3E42D939
BE8C0F87
BE78FD66
BE4BA9B8
3E92EAE0
3E90AC84
BE372EFE
3DFF08C3
3D7F11EC
BD47DA99
BD1695C3
BDB1F6DE
3E71ED89
BEA4CD40
BE8316BC
3E1AE336
3DB4A9AA
3E387DB6
BD32D88B
BE899293
3CA92AFC
BEAB6283
BD704191
BE8ADD52
BE71DD33
3E94D795
BE8BE782
3D2FE7BE
BE82EFC0
3BBEF991
BE0FB1E1
BD9D8775
3DDCA731
BE85771D
BE5B40B5
3E4E95B8
3E7A6BF7
BE9E5F27
BD63F8F9
3E25B073
3E73004F
3EA7A941
BE8F5AF7
BE560CC9
BE211EC1
BE9169E7
BE2CE5D1
3DE4A310
BE9469F8
3EB11047
3A8BFCC6

