BE56D429
3D5E4C0C
BD361BD1
BD37CF94
BBFBFAD7
BE48729E
BE142FB5
BD453C70
BDE8C6F4
3BE1ED06
3DE96BD3
BDBBA1D3
3E240283
BD9F07B9
BDBAEE8D
3E5A7807
BE3F848A
3E406C8F
3AAB6344
3E3A96EF
3DEA4204
BD8F45BB
3E26F4DC
3D42A9EE
3DA94924
3E06F9AC
3DF71BE7
3D9D1AFC
3DA914AF
BDE79903
BDBCC0E0
3CA99837
3E36FBA4
3D9AABB0
3B1850A4
BDC3F172
3D81A400
3E0AC016
BE10C3D0
BE27F409
3D5C4AB0
3DCE63DE
3D5101A8
BE49C9CD
BDE66FEE
BE183258
3DA1A781
3E0BC8A8
BD707556
BE1CC787
3E335FA3
BDCA71FF
BE2C4278
BD554201
BD2E0BB5
BE2D56BB
BE577C22
3D1E95C8
BE2F74EE
BE327C77
BD09D89C
BD405111
3DF53CC6
3E1C1B81
BE1E0422
3CA06192
BCAFE871
BC180EB6
3E42B7C9
3DCAAF00
3DE6CDD5
BE427700
3D86E0E2
3E0CA231
3CF6128A
3DCAD6E5
3E0E71C5
3E584338
BE189C17
BDD26640
3D529078
3D333D67
BDEE3710
BE5F070C
BE3DB3F8
3E061FE9
3E6DC58B
3DA3E875
3E3E2E65
3E011B52
3DE29029
BE08A86A
3CC7DFF0
BD4ADB44
BE8B043A
3DD4A130
BC84A20F
3E1C0299
BE1A6383
BD2EF92E
BE078B54
BC883A8A
3E46DB7F
3DBA8965
3CB824CF
3DF0E0E2
BE22DD3D
BE3907D0
3DC6D223
3E17AF5D
BE0580DC
3E156D15
BDB759FF
3D259D3F
3E336ECD
3D974659
BDEC1ED4
3D732263
3E133F01
3AE19AA8
3D8579AF
3DE06ABA
BE0CCE67
3DDEE463
3DF593F6
3BF549B5
3CF0700E
3E4A9FB4
BE2AC87A
BE2D26C5
BE246007
BD749F33
3E3B1334
BE1A2468
3E1A89A7
BE12EE8F
BE553848
BE23783D
3DD2AAE8
BCC0CB7D
BD835304
3E13F399
BD56C128
BE20AB3C
3E585068
BC82FB6C
3DB7247D
BD879E74
BE4AB4D5
BDA6953C
BD7E3C76
3E107213
BDA55700
3D053710
3E2C4BE8
BD843AF8
3E0B0175
BE0DE6AE
BDC88400
BE032E03
3C1DDEA5
3DE686FA
BBE37925
BE14395B
BDF86F3A
BE2F35C0
BE519420
BAE0CBE4
3D4C8EBA
BD9D5AE9
3C50BBE6
BE1C17FD
3DA80BB0
BDA17B17
BD9AF5D0
BD839AD3
3D7D6F91
3DFCB238
BDB30087
3E30DC25
3DC1F797
3E321DB3
BC35B91F
3BF4871C
3BD5606C
BDA5C41D
BE04F8C4
BE3289A4
3E2AFF18
BD3A6021
3DCC56C3
BE15CAAF
BE138FF0
3E0D153F
3DC2BD0D
3E2A98B1
3DD572F6
BDCF5E03
3DC48D76
3DB24A77
BE1806EE
3CC475B1
BCDC8814
BE28BF52
BE2FB30C
BD9C879E
BDB9D333
BD6DE70C
BE1B1247
3DDD6205
3E1A44E3
BDE2DABD
BE016C87
BD930AA6
3E0EAB78
BE3D6623
BD31DA99
BE128186
3E3EA471
BD217A60
3E2D4880
3DA381E6
3CAF726A
3D07439F
BE10F203
BD6CECAD
3DE3DBA9
BDD3D09F
BDE3BE99
BD9F7DB4
BE589E06
BD350AC4
BD31EDD8
3E52B007
BD8066E5
3E065777
BB14F822
BE1958E8
3E57E31C
BCF501A0
3E2A8822
BD129AB5
3D5522CF
BE537744
BCCAFC7F
BD7043FB
3DB1CB0A
BD2CCE7F
3E1B752C
3DF59CE9
3E1FF557
3E0C63FB
BC826FB2
3D84E27C
BE4E5543
3E3AC92B
3D5A380F
BDD335A7
3D6E0AD6
BE313582
BDA2CD0C
3E4532F0
3D93E6E4
BDD0DB04
3DF92ACD
BE3EFBE0
3E02F238
BD7BFFE8
3DD5739F
BE129ED4
BB10618B
BDA4AB92
BD0C92B8
BD660CCA
BDF8A66D
BE3396D4
3E29E8F1
3E1CF732
3E1CE1ED
BC271091
BDB21952
3E0C885F
3DAAB1B6
BE076D09
3E3A2DE5
BE14CEFC
BCDF8C00
BD72ABC4
BE07C848
BDCB8A11
3D3EF40E
3D014432
BDEF4BBC
3D5B8E1D
3B2910A3
3E2AB41F
3CB43F12
3E396264
BE09D6FD
3DC6714E
BE0D662E
BD81670E
3E821F04
BE2B57B1
3CC11D42
3DD22BF1
BE52B5C1
3C9DAEE6
BD5BCF1B
3D5E3438
3DB71863
3E2BC60E
BDDC5AEF
BE12FA6A
BE3916A3
BE48B868
BE067C2A
3E165945
3E238484
3A5A7EE3

