/* Provide Declarations */
#include <stdarg.h>
#include <setjmp.h>
#include <limits.h>
#ifdef NEED_CBEAPINT
#include <autopilot_cbe.h>
#else
#define aesl_fopen fopen
#define aesl_freopen freopen
#define aesl_tmpfile tmpfile
#endif
#include <stdio.h>
#include <string.h>
#include <stdlib.h>
#include <math.h>
#ifdef __STRICT_ANSI__
#define inline __inline__
#define typeof __typeof__ 
#endif
#define __isoc99_fscanf fscanf
#define __isoc99_sscanf sscanf
#undef ferror
#undef feof
/* get a declaration for alloca */
#if defined(__CYGWIN__) || defined(__MINGW32__)
#define  alloca(x) __builtin_alloca((x))
#define _alloca(x) __builtin_alloca((x))
#elif defined(__APPLE__)
extern void *__builtin_alloca(unsigned long);
#define alloca(x) __builtin_alloca(x)
#define longjmp _longjmp
#define setjmp _setjmp
#elif defined(__sun__)
#if defined(__sparcv9)
extern void *__builtin_alloca(unsigned long);
#else
extern void *__builtin_alloca(unsigned int);
#endif
#define alloca(x) __builtin_alloca(x)
#elif defined(__FreeBSD__) || defined(__NetBSD__) || defined(__OpenBSD__) || defined(__DragonFly__) || defined(__arm__)
#define alloca(x) __builtin_alloca(x)
#elif defined(_MSC_VER)
#define inline _inline
#define alloca(x) _alloca(x)
#else
#include <alloca.h>
#endif

#ifndef __GNUC__  /* Can only support "linkonce" vars with GCC */
#define __attribute__(X)
#endif

#if defined(__GNUC__) && defined(__APPLE_CC__)
#define __EXTERNAL_WEAK__ __attribute__((weak_import))
#elif defined(__GNUC__)
#define __EXTERNAL_WEAK__ __attribute__((weak))
#else
#define __EXTERNAL_WEAK__
#endif

#if defined(__GNUC__) && (defined(__APPLE_CC__) || defined(__CYGWIN__) || defined(__MINGW32__))
#define __ATTRIBUTE_WEAK__
#elif defined(__GNUC__)
#define __ATTRIBUTE_WEAK__ __attribute__((weak))
#else
#define __ATTRIBUTE_WEAK__
#endif

#if defined(__GNUC__)
#define __HIDDEN__ __attribute__((visibility("hidden")))
#endif

#ifdef __GNUC__
#define LLVM_NAN(NanStr)   __builtin_nan(NanStr)   /* Double */
#define LLVM_NANF(NanStr)  __builtin_nanf(NanStr)  /* Float */
#define LLVM_NANS(NanStr)  __builtin_nans(NanStr)  /* Double */
#define LLVM_NANSF(NanStr) __builtin_nansf(NanStr) /* Float */
#define LLVM_INF           __builtin_inf()         /* Double */
#define LLVM_INFF          __builtin_inff()        /* Float */
#define LLVM_PREFETCH(addr,rw,locality) __builtin_prefetch(addr,rw,locality)
#define __ATTRIBUTE_CTOR__ __attribute__((constructor))
#define __ATTRIBUTE_DTOR__ __attribute__((destructor))
#define LLVM_ASM           __asm__
#else
#define LLVM_NAN(NanStr)   ((double)0.0)           /* Double */
#define LLVM_NANF(NanStr)  0.0F                    /* Float */
#define LLVM_NANS(NanStr)  ((double)0.0)           /* Double */
#define LLVM_NANSF(NanStr) 0.0F                    /* Float */
#define LLVM_INF           ((double)0.0)           /* Double */
#define LLVM_INFF          0.0F                    /* Float */
#define LLVM_PREFETCH(addr,rw,locality)            /* PREFETCH */
#define __ATTRIBUTE_CTOR__
#define __ATTRIBUTE_DTOR__
#define LLVM_ASM(X)
#endif

#if __GNUC__ < 4 /* Old GCC's, or compilers not GCC */ 
#define __builtin_stack_save() 0   /* not implemented */
#define __builtin_stack_restore(X) /* noop */
#endif

#if __GNUC__ && __LP64__ /* 128-bit integer types */
typedef int __attribute__((mode(TI))) llvmInt128;
typedef unsigned __attribute__((mode(TI))) llvmUInt128;
#endif

#define CODE_FOR_MAIN() /* Any target-specific code for main()*/

#ifndef __cplusplus
typedef unsigned char bool;
#endif


/* Support for floating point constants */
typedef unsigned long long ConstantDoubleTy;
typedef unsigned int        ConstantFloatTy;
typedef struct { unsigned long long f1; unsigned short f2; unsigned short pad[3]; } ConstantFP80Ty;
typedef struct { unsigned long long f1; unsigned long long f2; } ConstantFP128Ty;


/* Global Declarations */
/* Helper union for bitcasts */
typedef union {
  unsigned int Int32;
  unsigned long long Int64;
  float Float;
  double Double;
} llvmBitCastUnion;
/* Structure forward decls */
typedef struct l_struct_OC_k2c_tensor l_struct_OC_k2c_tensor;
typedef struct l_struct_OC__iobuf l_struct_OC__iobuf;

/* Structure contents */
struct l_struct_OC_k2c_tensor {
  float field0[10000];
  unsigned long long field1;
  unsigned long long field2;
  signed long long field3[5];
};

struct l_struct_OC__iobuf {
   char *field0;
  unsigned int field1;
   char *field2;
  unsigned int field3;
  unsigned int field4;
  unsigned int field5;
  unsigned int field6;
   char *field7;
};


/* External Global Variable Declarations */
extern void  (*k2c_linear) (float *, unsigned long long );
extern void  (*k2c_exponential) (float *, unsigned long long );
extern void  (*k2c_hard_sigmoid) (float *, unsigned long long );
extern void  (*k2c_tanh) (float *, unsigned long long );
extern void  (*k2c_softmax) (float *, unsigned long long );
extern void  (*k2c_softplus) (float *, unsigned long long );
extern void  (*k2c_softsign) (float *, unsigned long long );
extern unsigned long long i;
extern l_struct_OC_k2c_tensor dense_13_output;
extern l_struct_OC_k2c_tensor dense_13_kernel;
extern l_struct_OC_k2c_tensor dense_13_bias;
extern l_struct_OC_k2c_tensor dense_14_output;
extern l_struct_OC_k2c_tensor dense_14_kernel;
extern l_struct_OC_k2c_tensor dense_14_bias;
extern l_struct_OC_k2c_tensor dense_15_output;
extern l_struct_OC_k2c_tensor dense_15_kernel;
extern l_struct_OC_k2c_tensor dense_15_bias;
extern l_struct_OC_k2c_tensor dense_16_kernel;
extern l_struct_OC_k2c_tensor dense_16_bias;

/* Function Declarations */
double fmod(double, double);
float fmodf(float, float);
long double fmodl(long double, long double);
void k2c_dense(l_struct_OC_k2c_tensor *llvm_cbe_output, l_struct_OC_k2c_tensor *llvm_cbe_input, l_struct_OC_k2c_tensor *llvm_cbe_kernel, l_struct_OC_k2c_tensor *llvm_cbe_bias, signed int llvm_cbe_flag, float *llvm_cbe_fwork);
void k2c_affine_matmul(float *llvm_cbe_C, float *llvm_cbe_A, float *llvm_cbe_B, float *llvm_cbe_d, signed long long llvm_cbe_outrows, signed long long llvm_cbe_outcols, signed long long llvm_cbe_innerdim);
void k2c_dot(l_struct_OC_k2c_tensor *llvm_cbe_C, l_struct_OC_k2c_tensor *llvm_cbe_A, l_struct_OC_k2c_tensor *llvm_cbe_B, signed long long *llvm_cbe_axesA, signed long long *llvm_cbe_axesB, signed long long llvm_cbe_naxes, signed int llvm_cbe_normalize, float *llvm_cbe_fwork);
void k2c_bias_add(l_struct_OC_k2c_tensor *llvm_cbe_A, l_struct_OC_k2c_tensor *llvm_cbe_b);
void k2c_flatten(l_struct_OC_k2c_tensor *llvm_cbe_output, l_struct_OC_k2c_tensor *llvm_cbe_input);
void k2c_reshape(l_struct_OC_k2c_tensor *llvm_cbe_output, l_struct_OC_k2c_tensor *llvm_cbe_input, signed long long *llvm_cbe_newshp, signed long long llvm_cbe_newndim);
void k2c_permute_dims(l_struct_OC_k2c_tensor *llvm_cbe_output, l_struct_OC_k2c_tensor *llvm_cbe_input, signed long long *llvm_cbe_permute);
void k2c_idx2sub(signed long long llvm_cbe_idx, signed long long *llvm_cbe_sub, signed long long *llvm_cbe_shape, signed long long llvm_cbe_ndim);
signed long long k2c_sub2idx(signed long long *llvm_cbe_sub, signed long long *llvm_cbe_shape, signed long long llvm_cbe_ndim);
void k2c_repeat_vector(l_struct_OC_k2c_tensor *llvm_cbe_output, l_struct_OC_k2c_tensor *llvm_cbe_input, signed long long llvm_cbe_n);
void k2c_lstmcell(float *llvm_cbe_state, float *llvm_cbe_input, l_struct_OC_k2c_tensor *llvm_cbe_kernel, l_struct_OC_k2c_tensor *llvm_cbe_recurrent_kernel, l_struct_OC_k2c_tensor *llvm_cbe_bias, float *llvm_cbe_fwork, void  (*llvm_cbe_recurrent_activation) (float *, unsigned long long ), void  (*llvm_cbe_output_activation) (float *, unsigned long long ));
void k2c_lstm(l_struct_OC_k2c_tensor *llvm_cbe_output, l_struct_OC_k2c_tensor *llvm_cbe_input, float *llvm_cbe_state, l_struct_OC_k2c_tensor *llvm_cbe_kernel, l_struct_OC_k2c_tensor *llvm_cbe_recurrent_kernel, l_struct_OC_k2c_tensor *llvm_cbe_bias, float *llvm_cbe_fwork, signed int llvm_cbe_go_backwards, signed int llvm_cbe_return_sequences, void  (*llvm_cbe_recurrent_activation) (float *, unsigned long long ), void  (*llvm_cbe_output_activation) (float *, unsigned long long ));
void k2c_simpleRNNcell(float *llvm_cbe_state, float *llvm_cbe_input, l_struct_OC_k2c_tensor *llvm_cbe_kernel, l_struct_OC_k2c_tensor *llvm_cbe_recurrent_kernel, l_struct_OC_k2c_tensor *llvm_cbe_bias, float *llvm_cbe_fwork, void  (*llvm_cbe_output_activation) (float *, unsigned long long ));
void k2c_simpleRNN(l_struct_OC_k2c_tensor *llvm_cbe_output, l_struct_OC_k2c_tensor *llvm_cbe_input, float *llvm_cbe_state, l_struct_OC_k2c_tensor *llvm_cbe_kernel, l_struct_OC_k2c_tensor *llvm_cbe_recurrent_kernel, l_struct_OC_k2c_tensor *llvm_cbe_bias, float *llvm_cbe_fwork, signed int llvm_cbe_go_backwards, signed int llvm_cbe_return_sequences, void  (*llvm_cbe_output_activation) (float *, unsigned long long ));
void k2c_grucell(float *llvm_cbe_state, float *llvm_cbe_input, l_struct_OC_k2c_tensor *llvm_cbe_kernel, l_struct_OC_k2c_tensor *llvm_cbe_recurrent_kernel, l_struct_OC_k2c_tensor *llvm_cbe_bias, float *llvm_cbe_fwork, signed int llvm_cbe_reset_after, void  (*llvm_cbe_recurrent_activation) (float *, unsigned long long ), void  (*llvm_cbe_output_activation) (float *, unsigned long long ));
void k2c_matmul(float *llvm_cbe_C, float *llvm_cbe_A, float *llvm_cbe_B, signed long long llvm_cbe_outrows, signed long long llvm_cbe_outcols, signed long long llvm_cbe_innerdim);
void k2c_gru(l_struct_OC_k2c_tensor *llvm_cbe_output, l_struct_OC_k2c_tensor *llvm_cbe_input, float *llvm_cbe_state, l_struct_OC_k2c_tensor *llvm_cbe_kernel, l_struct_OC_k2c_tensor *llvm_cbe_recurrent_kernel, l_struct_OC_k2c_tensor *llvm_cbe_bias, float *llvm_cbe_fwork, signed int llvm_cbe_reset_after, signed int llvm_cbe_go_backwards, signed int llvm_cbe_return_sequences, void  (*llvm_cbe_recurrent_activation) (float *, unsigned long long ), void  (*llvm_cbe_output_activation) (float *, unsigned long long ));
void k2c_flip(l_struct_OC_k2c_tensor *llvm_cbe_A, signed long long llvm_cbe_axis);
float *k2c_read_array( char *llvm_cbe_filename, signed long long llvm_cbe_array_size);
void k2c_pad1d(l_struct_OC_k2c_tensor *llvm_cbe_output, l_struct_OC_k2c_tensor *llvm_cbe_input, float llvm_cbe_fill, signed long long *llvm_cbe_pad);
void k2c_pad2d(l_struct_OC_k2c_tensor *llvm_cbe_output, l_struct_OC_k2c_tensor *llvm_cbe_input, float llvm_cbe_fill, signed long long *llvm_cbe_pad);
void k2c_pad3d(l_struct_OC_k2c_tensor *llvm_cbe_output, l_struct_OC_k2c_tensor *llvm_cbe_input, float llvm_cbe_fill, signed long long *llvm_cbe_pad);
void k2c_conv1d(l_struct_OC_k2c_tensor *llvm_cbe_output, l_struct_OC_k2c_tensor *llvm_cbe_input, l_struct_OC_k2c_tensor *llvm_cbe_kernel, l_struct_OC_k2c_tensor *llvm_cbe_bias, signed long long llvm_cbe_stride, signed long long llvm_cbe_dilation, void  (*llvm_cbe_activation) (float *, unsigned long long ));
void k2c_conv2d(l_struct_OC_k2c_tensor *llvm_cbe_output, l_struct_OC_k2c_tensor *llvm_cbe_input, l_struct_OC_k2c_tensor *llvm_cbe_kernel, l_struct_OC_k2c_tensor *llvm_cbe_bias, signed long long *llvm_cbe_stride, signed long long *llvm_cbe_dilation, void  (*llvm_cbe_activation) (float *, unsigned long long ));
void k2c_conv3d(l_struct_OC_k2c_tensor *llvm_cbe_output, l_struct_OC_k2c_tensor *llvm_cbe_input, l_struct_OC_k2c_tensor *llvm_cbe_kernel, l_struct_OC_k2c_tensor *llvm_cbe_bias, signed long long *llvm_cbe_stride, signed long long *llvm_cbe_dilation, void  (*llvm_cbe_activation) (float *, unsigned long long ));
void k2c_crop1d(l_struct_OC_k2c_tensor *llvm_cbe_output, l_struct_OC_k2c_tensor *llvm_cbe_input, signed long long *llvm_cbe_crop);
void k2c_crop2d(l_struct_OC_k2c_tensor *llvm_cbe_output, l_struct_OC_k2c_tensor *llvm_cbe_input, signed long long *llvm_cbe_crop);
void k2c_crop3d(l_struct_OC_k2c_tensor *llvm_cbe_output, l_struct_OC_k2c_tensor *llvm_cbe_input, signed long long *llvm_cbe_crop);
void k2c_upsampling1d(l_struct_OC_k2c_tensor *llvm_cbe_output, l_struct_OC_k2c_tensor *llvm_cbe_input, signed long long llvm_cbe_size);
void k2c_upsampling2d(l_struct_OC_k2c_tensor *llvm_cbe_output, l_struct_OC_k2c_tensor *llvm_cbe_input, signed long long *llvm_cbe_size);
void k2c_upsampling3d(l_struct_OC_k2c_tensor *llvm_cbe_output, l_struct_OC_k2c_tensor *llvm_cbe_input, signed long long *llvm_cbe_size);
void k2c_linear_func(float *llvm_cbe_x, signed long long llvm_cbe_size);
void k2c_exponential_func(float *llvm_cbe_x, signed long long llvm_cbe_size);
void k2c_hard_sigmoid_func(float *llvm_cbe_x, signed long long llvm_cbe_size);
void k2c_tanh_func(float *llvm_cbe_x, signed long long llvm_cbe_size);
void k2c_softmax_func(float *llvm_cbe_x, signed long long llvm_cbe_size);
void k2c_softplus_func(float *llvm_cbe_x, signed long long llvm_cbe_size);
void k2c_softsign_func(float *llvm_cbe_x, signed long long llvm_cbe_size);
float fabsf(float );
void k2c_LeakyReLU(float *llvm_cbe_x, signed long long llvm_cbe_size, float llvm_cbe_alpha);
void k2c_PReLU(float *llvm_cbe_x, signed long long llvm_cbe_size, float *llvm_cbe_alpha);
void k2c_ELU(float *llvm_cbe_x, signed long long llvm_cbe_size, float llvm_cbe_alpha);
void k2c_ThresholdedReLU(float *llvm_cbe_x, signed long long llvm_cbe_size, float llvm_cbe_theta);
void k2c_ReLU(float *llvm_cbe_x, signed long long llvm_cbe_size, float llvm_cbe_max_value, float llvm_cbe_alpha, float llvm_cbe_theta);
void sample0(l_struct_OC_k2c_tensor *llvm_cbe_dense_13_input_input, l_struct_OC_k2c_tensor *llvm_cbe_dense_16_output);
void sample0_initialize(void);
void sample0_terminate(void);


/* Global Variable Definitions and Initialization */
static signed long long aesl_internal_k2c_dense_OC_axesB[1];
static  char aesl_internal__OC_str1[2] = "r";
static  char aesl_internal__OC_str2[25] = "Unable to open file %s \n";
static  char aesl_internal__OC_str3[4] = "%f,";
void  (*k2c_softplus) (float *, unsigned long long ) = k2c_softplus_func;
void  (*k2c_linear) (float *, unsigned long long ) = k2c_linear_func;
static  char aesl_internal__OC_str[28] = "cannot allocate memory %s \n";
void  (*k2c_exponential) (float *, unsigned long long ) = k2c_exponential_func;
void  (*k2c_hard_sigmoid) (float *, unsigned long long ) = k2c_hard_sigmoid_func;
void  (*k2c_tanh) (float *, unsigned long long ) = k2c_tanh_func;
void  (*k2c_softmax) (float *, unsigned long long ) = k2c_softmax_func;
void  (*k2c_softsign) (float *, unsigned long long ) = k2c_softsign_func;
unsigned long long i __ATTRIBUTE_WEAK__;
l_struct_OC_k2c_tensor dense_15_bias __ATTRIBUTE_WEAK__;
static float aesl_internal_sample0_OC_dense_13_bias_array[128] = { 0x1.43c998p-8, 0x1.5ca06ap-5, -0x1.71ae24p-9, -0x1.55b7f4p-7, 0x1.616a5p-6, 0x1.df74ap-5, 0x1.cfd758p-6, 0x1.3afcbap-6, -0x1.69043cp-6, 0x1.fed492p-7, -0x1.50fa08p-8, 0x1.f05674p-8, 0x1.4a0aacp-6, 0x1.befea4p-6, 0x1.258ae2p-5, -0x1.34d6f4p-11, 0x1.e13774p-6, -0x1.e9c4a8p-8, 0x1.b7f14cp-5, -0x1.3672d6p-6, 0x1.3081d2p-6, 0x1.b2995ap-5, -0x1.94dd14p-5, 0x1.3bb46ep-7, 0x1.e7649ap-7, -0x1.321b12p-9, -0x1.176664p-6, -0x1.4cbba8p-6, 0x1.0491c4p-4, 0x1.d088bp-6, 0x1.baa6a2p-10, 0x1.1d2abcp-6, 0x1.16ca46p-5, 0x1.305054p-5, 0x1.ab56ep-8, 0x1.1d3ef6p-4, -0x1.3b9f02p-7, 0x1.0377a8p-5, -0x1.f33c56p-7, 0x1.294192p-8, -0x1.dff934p-7, 0x1.d3843ep-6, 0x1.f7c384p-7, 0x1.011deep-9, 0x1.71d40ep-7, 0x1.41480ep-5, 0x1.4f2654p-5, 0x1.ea6634p-6, 0x1.362e14p-7, 0x1.030dap-4, -0x1.1b06f2p-5, 0x1.add5dap-6, -0x1.ee0688p-7, -0x1.54354ap-7, -0x1.b1bcfcp-6, -0x1.98ce24p-5, 0x1.6af36ep-5, 0x1.e38402p-6, 0x1.8f439ep-6, -0x1.c202ep-6, 0x1.6685e8p-6, 0x1.747834p-8, 0x1.459d8ap-5, -0x1.3db4c2p-7, 0x1.2cf2dap-5, 0x1.47ebacp-6, 0x1.eb7b78p-7, -0x1.192994p-6, 0x1.8c62dap-6, 0x1.0b1618p-5, -0x1.02ebbap-5, 0x1.f77104p-5, 0x1.297b62p-6, 0x1.2ee27ap-7, 0x1.6d895ap-5, -0x1.f38272p-6, 0x1.a3c58cp-6, 0x1.dc637ep-6, -0x1.506042p-6, 0x1.29df72p-5, 0x1.b9c4a6p-7, 0x1.76fd3ep-6, 0x1.5193e4p-6, -0x1.2cd0a2p-10, -0x1.907168p-7, 0x1.4fbfbap-5, -0x1.190dfp-4, -0x1.7f2a6p-6, 0x1.4ea0b6p-5, 0x1.119db4p-10, 0x1.6489fp-5, 0x1.714bcep-5, -0x1.8de054p-7, 0x1.cf5344p-6, 0x1.26ec08p-5, 0x1.d64d8ap-6, 0x1.4ac536p-7, 0x1.cb4006p-6, 0x1.09867p-5, 0x1.d644e4p-5, -0x1.20e10ep-6, -0x1.5bda12p-8, -0x1.435b94p-11, 0x1.0f00ccp-4, 0x1.34f8c6p-7, 0x1.33c528p-5, 0x1.7ac15p-11, 0x1.b705e6p-7, 0x1.d68206p-5, 0x1.8022a2p-5, 0x1.1eb4f4p-5, -0x1.d10f7ep-6, 0x1.0cdac4p-5, 0x1.063c76p-5, 0x1.33452ap-6, 0x1.a6dcf4p-6, 0x1.6ff166p-6, 0x1.05548p-6, 0x1.d9a714p-7, -0x1.eefbb6p-9, 0x1.ce04cap-6, 0x1.3747aap-5, 0x1.7398e6p-5, 0x1.c44f6cp-5, -0x1.49ecd6p-7, 0x1.66126ap-6, -0x1.c0a588p-10, 0x1.8cefd2p-5 };
l_struct_OC_k2c_tensor dense_14_output __ATTRIBUTE_WEAK__;
l_struct_OC_k2c_tensor dense_14_bias __ATTRIBUTE_WEAK__;
l_struct_OC_k2c_tensor dense_16_kernel __ATTRIBUTE_WEAK__;
static float aesl_internal_sample0_OC_dense_13_kernel_array[2560] = { -0x1.ada852p-3, -0x1.3145d2p-3, -0x1.72297cp-3, -0x1.5c4432p-4, 0x1.2fff4ap-4, -0x1.99e218p-5, 0x1.2d7b44p-5, 0x1.16616ep-3, 0x1.bc9818p-5, 0x1.5f9d58p-5, 0x1.3e1c2p-7, 0x1.11544p-3, -0x1.4a7854p-5, 0x1.4136fp-4, 0x1.2332ecp-7, -0x1.04baa8p-4, -0x1.6c37a2p-5, -0x1.9e6964p-4, -0x1.5cba38p-4, 0x1.4a9952p-3, -0x1.181ed6p-3, 0x1.5b051p-4, 0x1.9a2494p-4, 0x1.145a98p-4, -0x1.6f9f28p-5, -0x1.024e96p-4, -0x1.e6d582p-5, -0x1.6e77ecp-4, -0x1.7c3318p-4, -0x1.cc9daap-4, -0x1.6804dap-3, 0x1.fbe1bp-4, -0x1.f7f5aep-8, 0x1.7d339cp-7, -0x1.3ce30cp-3, -0x1.44baf8p-3, -0x1.5c8bp-5, 0x1.f6734cp-4, 0x1.aea37cp-6, 0x1.e606fcp-5, -0x1.90e53cp-3, 0x1.4a56dep-3, 0x1.38f646p-4, -0x1.456ef6p-6, -0x1.5a06dcp-5, 0x1.56f586p-6, -0x1.351c0ap-3, -0x1.702fbcp-3, -0x1.285f6ap-3, 0x1.cfb2f6p-7, 0x1.4cdb6cp-5, 0x1.9a869ep-7, 0x1.5e0818p-3, -0x1.a57e0ap-6, 0x1.032b38p-3, 0x1.8921bap-4, -0x1.8a78ep-5, -0x1.463c34p-3, 0x1.7a2e3ap-3, 0x1.bff572p-5, -0x1.3b2dcp-3, 0x1.439518p-11, -0x1.60cba8p-4, -0x1.810f34p-3, -0x1.d18de8p-4, -0x1.189f92p-4, -0x1.d5f7c4p-4, 0x1.af5404p-4, -0x1.2fa278p-3, 0x1.54bc54p-3, -0x1.466abep-5, -0x1.714b96p-3, 0x1.c3da0cp-8, 0x1.e112d2p-6, -0x1.f8debap-4, -0x1.12c68cp-6, -0x1.18965p-3, 0x1.f3a4aep-5, -0x1.fe7bf8p-8, 0x1.13dd66p-4, 0x1.d2d7a6p-4, 0x1.672114p-6, -0x1.3c7942p-3, -0x1.08313cp-5, 0x1.c60916p-5, -0x1.8ec2e2p-5, -0x1.ac162ep-4, 0x1.455ca8p-6, -0x1.7743a6p-4, 0x1.3e9e28p-3, -0x1.d8fb3p-4, 0x1.86988cp-3, 0x1.e924aap-5, -0x1.cb36cep-5, 0x1.d8fb22p-6, 0x1.2171e4p-3, 0x1.480506p-3, 0x1.1eabcap-5, -0x1.f8b9e4p-4, -0x1.a9cc76p-4, -0x1.c72e2cp-9, -0x1.399696p-7, 0x1.ac46dp-4, -0x1.018e56p-3, -0x1.3e0f72p-4, 0x1.a1d078p-8, -0x1.1869f6p-3, -0x1.23023ap-3, 0x1.00f9d8p-3, 0x1.a7dbc6p-6, 0x1.f73004p-4, 0x1.46ceb2p-3, -0x1.75dd1ap-4, 0x1.62aa16p-3, -0x1.8b5cb2p-7, 0x1.00966cp-5, 0x1.1b2cb8p-6, 0x1.6b10aep-3, 0x1.16697cp-3, -0x1.82e436p-4, 0x1.b4f00ep-3, -0x1.696b3cp-3, -0x1.28079cp-3, 0x1.32fb78p-4, 0x1.4a18dcp-4, 0x1.e17d24p-3, 0x1.78c2cap-4, -0x1.54f0b4p-4, -0x1.7f0914p-3, 0x1.940606p-5, -0x1.7c77dcp-4, 0x1.237978p-3, -0x1.97bcf4p-7, 0x1.b58cbcp-6, -0x1.1af246p-3, -0x1.18aedep-5, 0x1.80d91ep-3, 0x1.8cc9b2p-4, -0x1.07b7d4p-4, 0x1.e50e3cp-5, -0x1.bb2feap-6, 0x1.26e988p-4, -0x1.80d8cap-3, -0x1.839a2cp-3, 0x1.56c688p-10, 0x1.8d5422p-4, -0x1.0c5222p-6, -0x1.6899e2p-5, 0x1.66653ap-6, 0x1.44863cp-3, 0x1.9d678ap-5, -0x1.9bc422p-6, 0x1.752ddep-3, -0x1.e1691p-4, -0x1.3a8426p-3, -0x1.4aedbap-4, 0x1.35ff22p-6, -0x1.c7b3ecp-3, 0x1.79f1e2p-5, 0x1.4be77ap-5, 0x1.d48408p-4, -0x1.59ad86p-3, -0x1.81cafcp-4, -0x1.9094d6p-7, -0x1.7ab932p-3, 0x1.ae0524p-6, 0x1.840fc6p-3, 0x1.22cee8p-4, -0x1.1e8b76p-4, 0x1.d17324p-3, -0x1.83c37ep-5, 0x1.8840f2p-4, 0x1.5cea0ep-3, -0x1.fc5fe8p-5, 0x1.8fe802p-3, -0x1.68ecbp-5, 0x1.4de9b8p-3, 0x1.7fed76p-9, -0x1.eba6bp-7, -0x1.65d57p-3, 0x1.1e5696p-4, 0x1.40041ep-8, -0x1.19822p-3, 0x1.021ca6p-3, 0x1.8553dcp-5, -0x1.22e4ecp-3, -0x1.fd2d92p-6, -0x1.e2a3p-5, -0x1.c2cb66p-3, -0x1.2ec652p-6, -0x1.77627cp-4, -0x1.0d8b84p-4, 0x1.529248p-4, 0x1.7e9312p-3, 0x1.63e924p-3, 0x1.06a75p-3, 0x1.1a94cp-3, 0x1.1be17p-3, -0x1.a004ecp-3, 0x1.4b4c58p-3, 0x1.0df358p-3, 0x1.0c9acap-4, -0x1.b1879p-3, -0x1.71fff6p-8, 0x1.83aa8ap-4, 0x1.b511f6p-4, -0x1.452602p-3, 0x1.35749p-4, 0x1.ee37cep-4, 0x1.9a9b3ep-7, 0x1.05f692p-5, -0x1.f3aee8p-4, -0x1.9b8648p-10, 0x1.a4e0b2p-3, 0x1.6e4a9ep-6, 0x1.657842p-4, 0x1.3a35f8p-4, -0x1.2d6aaep-5, -0x1.4b61fep-4, -0x1.ad81ep-10, 0x1.4d7e2cp-3, 0x1.bd7b48p-8, -0x1.64ecap-3, -0x1.52b3a2p-3, 0x1.52295ep-4, -0x1.5d1c14p-3, 0x1.2809d6p-4, 0x1.0d4664p-5, -0x1.3d1ad4p-3, -0x1.00bad6p-4, -0x1.497e5ap-3, -0x1.a5fdbep-3, -0x1.cf3206p-4, -0x1.19e262p-3, 0x1.ee3a7ep-5, 0x1.91bffcp-4, -0x1.1df54ap-3, -0x1.eabebp-3, 0x1.ac90b4p-3, 0x1.929162p-4, -0x1.7981cp-4, -0x1.109428p-4, 0x1.76ee2ap-6, -0x1.9b2f8ap-3, 0x1.8af828p-5, -0x1.e93324p-7, 0x1.8b3d9ap-3, -0x1.514b82p-5, 0x1.53306ep-6, 0x1.b1d19p-3, -0x1.5a822ap-3, -0x1.64be2p-3, -0x1.1baa74p-4, -0x1.1a1f5p-3, 0x1.7b8426p-5, 0x1.95dbeap-6, 0x1.6df748p-3, -0x1.ec6b9ap-4, -0x1.8b1848p-5, -0x1.0d64f8p-5, 0x1.8ac1b4p-3, -0x1.9f0a9ap-7, 0x1.1e6bf8p-6, 0x1.db46bap-4, 0x1.35576p-4, 0x1.8d6accp-3, 0x1.ab1f38p-3, 0x1.5af1bap-3, 0x1.ae93d2p-5, -0x1.c4cc68p-5, -0x1.486f16p-3, -0x1.62f6dep-3, 0x1.30a148p-9, 0x1.1d5ad2p-3, 0x1.6a82ap-4, 0x1.629162p-3, 0x1.85937p-3, 0x1.3b899p-4, -0x1.25d204p-3, -0x1.20f1cep-4, -0x1.87e2e4p-4, -0x1.938204p-6, 0x1.8d1f14p-4, -0x1.cc633cp-8, -0x1.e0d50cp-8, 0x1.0852f4p-3, 0x1.04d86cp-4, 0x1.48672ep-5, 0x1.0348p-4, -0x1.30d5fap-4, 0x1.f7a298p-4, -0x1.9c238cp-7, 0x1.3c8b44p-3, -0x1.3b132ap-3, -0x1.5a001p-3, -0x1.5f314ap-3, 0x1.15802cp-3, -0x1.1e431p-3, 0x1.2b65d6p-4, 0x1.879efep-8, -0x1.2248cap-4, -0x1.15d8e6p-5, -0x1.122182p-3, 0x1.bb184cp-3, -0x1.2187ap-3, 0x1.c76fa8p-4, -0x1.18673ap-6, -0x1.17973ap-3, -0x1.a0d324p-3, -0x1.5760dcp-3, 0x1.e74caep-6, 0x1.a8266ap-4, -0x1.4fe812p-3, 0x1.704904p-8, 0x1.3ecd0ep-5, 0x1.979692p-4, 0x1.14aad8p-4, 0x1.6cf1eep-4, -0x1.92848p-3, -0x1.79a8eep-3, 0x1.b8956p-5, 0x1.0d9972p-3, -0x1.a12bp-4, 0x1.1d914cp-4, -0x1.b349c4p-3, -0x1.b23c4cp-5, -0x1.2e69b2p-6, -0x1.6aafeep-3, 0x1.9cc7bcp-4, -0x1.52c104p-3, -0x1.1b651p-3, 0x1.27923ap-3, -0x1.6b6ef2p-4, -0x1.7755aep-7, 0x1.7f1e68p-3, 0x1.6f8512p-5, 0x1.a2035p-5, -0x1.e2bf38p-8, -0x1.a47c18p-4, 0x1.4e30a6p-6, 0x1.16763cp-4, 0x1.006f32p-3, 0x1.c0559cp-5, 0x1.c8985ap-7, -0x1.93939ap-3, 0x1.9aa776p-6, -0x1.53d3eep-3, 0x1.9c719p-7, 0x1.4b7014p-3, 0x1.cfc5cep-4, 0x1.89ff74p-4, 0x1.5d8eeap-3, -0x1.ccdfdcp-4, -0x1.e5cbe8p-4, 0x1.d831p-5, -0x1.9b188ap-3, 0x1.054bd8p-4, 0x1.c1a024p-4, 0x1.886a6cp-3, 0x1.7f7ddap-3, -0x1.3064bp-3, -0x1.0c8234p-3, -0x1.e66b5ep-8, -0x1.4f5ebp-3, 0x1.c73c0ap-4, -0x1.6992b6p-7, -0x1.1ae4aep-5, -0x1.769054p-3, 0x1.434f02p-4, -0x1.05af9ep-4, 0x1.4560c2p-6, -0x1.f854e8p-4, 0x1.8af98ep-6, -0x1.be0adap-8, -0x1.a9dbb4p-5, 0x1.6bfd5p-4, 0x1.17915p-3, -0x1.f0cabp-7, 0x1.52956p-3, -0x1.97f80ep-4, 0x1.41d5bep-4, -0x1.a1fccap-4, -0x1.54d6fep-3, 0x1.597376p-4, -0x1.e0eaacp-5, 0x1.f88f54p-4, 0x1.88547ep-3, -0x1.20b59cp-3, 0x1.164a86p-3, -0x1.1cc3f2p-3, 0x1.15712ep-3, 0x1.8a80d4p-6, -0x1.398f0ep-3, -0x1.c24974p-4, 0x1.b41f06p-5, -0x1.87c26ap-4, 0x1.0aa23cp-3, -0x1.44a6ep-3, -0x1.dc2c26p-4, -0x1.2c3a4p-3, 0x1.66bf46p-3, 0x1.3807cp-3, -0x1.4136f2p-3, 0x1.a0ded4p-4, -0x1.a0e3a6p-5, -0x1.6d1282p-3, -0x1.7ed0dp-6, 0x1.c70cdep-4, -0x1.94e3fep-4, 0x1.2d37b2p-5, -0x1.f3363ep-4, -0x1.201012p-3, -0x1.7ad968p-4, 0x1.09c544p-3, 0x1.a8246ap-3, 0x1.74e12cp-3, -0x1.5884fp-3, -0x1.c4738ap-4, 0x1.54d0e2p-7, 0x1.b9c10ap-3, 0x1.22e66cp-3, -0x1.903aeap-3, -0x1.cf9cecp-4, -0x1.7ae14cp-3, -0x1.aa8402p-5, 0x1.57fdp-5, -0x1.b9479p-15, -0x1.e6299ap-4, -0x1.32a28ep-6, 0x1.a7e328p-3, -0x1.a8c412p-3, -0x1.3b7324p-4, -0x1.5c176ap-5, -0x1.81a0e8p-5, 0x1.d23892p-7, 0x1.46ba02p-3, -0x1.5344p-6, -0x1.12748p-3, 0x1.b9385ap-5, -0x1.8669c8p-5, -0x1.5aad76p-3, 0x1.2c5c78p-3, -0x1.2a5e58p-4, 0x1.236594p-3, 0x1.19983ap-4, -0x1.90c874p-6, 0x1.2c79fap-5, 0x1.f16e18p-5, -0x1.aef844p-3, -0x1.c5c3d2p-5, 0x1.c366b2p-4, 0x1.59fe3ap-3, -0x1.08f344p-3, 0x1.6a70b8p-3, -0x1.5214cap-5, -0x1.d76114p-5, 0x1.3d2b9p-5, 0x1.b6afa6p-9, 0x1.5bdcbap-5, 0x1.e3ce02p-4, -0x1.181b88p-3, 0x1.5d344ap-7, -0x1.d1a384p-9, -0x1.b1340cp-3, -0x1.5ee9dcp-3, 0x1.738e92p-3, -0x1.c86582p-4, -0x1.1009d8p-3, -0x1.99bb7p-4, -0x1.20050cp-6, 0x1.473e8cp-4, 0x1.4fa72cp-4, -0x1.64f8eep-3, 0x1.5d20b2p-3, 0x1.aaee5p-9, 0x1.258cccp-3, -0x1.aa98f4p-4, 0x1.24a1f8p-3, -0x1.39a9bcp-3, 0x1.43ccf4p-3, -0x1.13b138p-5, 0x1.5e9af4p-4, -0x1.0d524p-4, -0x1.f2e7fep-9, -0x1.6b0468p-4, 0x1.6c8e4ep-9, 0x1.21a304p-3, -0x1.65c9cep-4, -0x1.80a222p-5, -0x1.8a325ep-4, -0x1.4080ep-3, 0x1.03e4c8p-5, 0x1.040754p-9, 0x1.82ed66p-3, -0x1.319e38p-3, 0x1.f1e4b4p-4, 0x1.ea798cp-4, 0x1.4315b4p-5, 0x1.5a9f6ap-5, 0x1.3c79cep-3, 0x1.bdce2cp-6, 0x1.3a6ea4p-3, 0x1.6d7d48p-3, 0x1.8eee42p-3, 0x1.383702p-3, 0x1.1378ecp-5, 0x1.a3747p-6, 0x1.f3906p-4, -0x1.247e1ep-3, -0x1.a97c36p-5, 0x1.239746p-9, -0x1.384fa4p-3, -0x1.3c0844p-3, 0x1.fe7ae8p-7, 0x1.db8462p-3, 0x1.f3bbe2p-4, 0x1.65ed8ap-4, 0x1.1d638ep-5, -0x1.d7fa5ep-4, 0x1.8c74e8p-4, 0x1.40c324p-6, 0x1.604b16p-3, -0x1.9cac3cp-3, 0x1.e36a5cp-4, -0x1.17431cp-3, 0x1.3477fep-4, 0x1.4f3cb4p-5, -0x1.03b952p-3, -0x1.5fd0e2p-6, -0x1.a0854cp-4, 0x1.3628eep-5, -0x1.2b097p-3, -0x1.95f2c4p-3, 0x1.fd9dcep-4, 0x1.42e11ep-4, -0x1.703afep-4, -0x1.301d6cp-7, -0x1.e067b2p-4, -0x1.ade7cp-5, 0x1.a7b2bep-4, -0x1.91eb18p-3, -0x1.417702p-3, 0x1.2c6ed2p-5, 0x1.5c54acp-3, 0x1.856f92p-3, -0x1.2f2b6p-5, -0x1.71a20cp-4, -0x1.c51cdcp-7, -0x1.533c38p-3, -0x1.b51086p-5, 0x1.29720ap-4, -0x1.f5c938p-4, 0x1.955ep-4, -0x1.392ca8p-3, -0x1.76a30ap-6, 0x1.82cc62p-5, 0x1.b709p-4, -0x1.fd2a28p-6, -0x1.17aab4p-7, -0x1.f5cad4p-5, 0x1.cd9baap-4, 0x1.64ae68p-3, -0x1.1f7838p-3, -0x1.513cb4p-4, -0x1.5d472ap-7, -0x1.0c4ccap-4, 0x1.547b92p-3, 0x1.c765dcp-4, -0x1.84eep-3, 0x1.1cd258p-4, 0x1.af353p-6, 0x1.37b4ccp-3, 0x1.b5b2dcp-3, -0x1.d62f68p-6, 0x1.5e6e4ap-3, -0x1.c81ea4p-4, 0x1.0dc1c4p-4, 0x1.ac1338p-5, -0x1.7d2332p-5, -0x1.8ba7bp-4, 0x1.0a6878p-3, 0x1.5c875cp-5, -0x1.2cff9ep-7, -0x1.03ff4ep-4, 0x1.194462p-3, 0x1.0a62eap-4, -0x1.25bc12p-3, -0x1.f7ac54p-4, 0x1.45aa7p-5, -0x1.e21ec4p-10, 0x1.383beep-3, -0x1.cb977cp-4, 0x1.ec2514p-6, 0x1.98c714p-4, -0x1.8d8b76p-3, 0x1.0df028p-3, -0x1.a3ac6cp-6, 0x1.5c836ap-7, -0x1.742c4ap-4, 0x1.d7ba42p-6, 0x1.95adcap-4, 0x1.f3f698p-4, 0x1.54a86cp-3, 0x1.c80d24p-7, -0x1.0e082ep-4, 0x1.29a792p-3, 0x1.188608p-3, 0x1.40785ep-3, 0x1.1ce38ap-3, 0x1.401336p-3, 0x1.2fc71cp-5, 0x1.48674cp-3, 0x1.949158p-3, 0x1.2a6a7ap-3, -0x1.7b4162p-3, -0x1.a5c6cep-3, 0x1.b0867p-3, -0x1.05d116p-3, -0x1.104c84p-5, 0x1.ed0a68p-5, -0x1.b71446p-5, -0x1.81b2c4p-6, 0x1.f3be64p-4, 0x1.a1228cp-5, -0x1.31382ep-3, 0x1.4297b6p-4, 0x1.9a2ec4p-4, -0x1.b74d26p-4, 0x1.099458p-5, 0x1.54cd54p-3, -0x1.e7ed36p-5, -0x1.706134p-4, -0x1.a4cc8p-4, -0x1.2d08d2p-3, 0x1.46f924p-6, -0x1.ed57ep-4, 0x1.70b5fcp-3, -0x1.ac4048p-6, -0x1.52f79ep-3, -0x1.0c2724p-5, 0x1.a520fp-5, -0x1.b12e42p-3, 0x1.790ec6p-3, -0x1.56b83cp-6, 0x1.2cb732p-4, 0x1.a7f2d6p-3, 0x1.5f4f42p-4, 0x1.0d42eap-3, 0x1.667acep-5, 0x1.c4bf74p-3, 0x1.8eda02p-4, -0x1.742056p-4, 0x1.ddd23ep-5, 0x1.f90f54p-3, 0x1.2d68fp-5, -0x1.8383fp-5, -0x1.dc6e2p-4, -0x1.a093ccp-3, -0x1.9f003p-3, 0x1.6f7006p-5, -0x1.cb4afcp-3, -0x1.56fcdap-6, 0x1.e0e224p-4, 0x1.25b692p-8, -0x1.be0e18p-3, -0x1.a6f2a4p-5, -0x1.847126p-4, 0x1.48763ep-3, -0x1.63548p-3, 0x1.f4388ep-5, -0x1.167436p-5, -0x1.ad645cp-4, -0x1.7b67fp-3, 0x1.785f48p-7, -0x1.8ffe7p-3, 0x1.5edb7ep-3, -0x1.e9476ap-5, -0x1.4d65eep-4, 0x1.928ca2p-5, 0x1.27ab7ep-4, 0x1.0c3fd2p-3, -0x1.6abef4p-5, -0x1.e1be58p-4, 0x1.133b6ep-3, -0x1.2f453cp-3, -0x1.055d7ep-2, -0x1.acbd22p-4, -0x1.5f6cdap-3, 0x1.db8b16p-3, -0x1.14393p-2, -0x1.73259p-3, 0x1.e48b1ep-4, -0x1.b2c404p-8, 0x1.0b0164p-3, -0x1.f80d12p-4, 0x1.506328p-6, 0x1.47d0eap-4, -0x1.a7f964p-3, 0x1.9cf052p-4, -0x1.4722e8p-7, 0x1.ebb48cp-3, -0x1.76d298p-6, -0x1.b27d9p-3, 0x1.4bf446p-4, 0x1.7c5ccap-3, -0x1.132f4ep-3, -0x1.0e2f4p-3, -0x1.52aa02p-3, -0x1.e21d26p-4, -0x1.00f51p-3, -0x1.925f38p-3, -0x1.20f1a2p-4, 0x1.0236a4p-3, -0x1.9ab7bcp-4, 0x1.9dc896p-3, -0x1.0af7dap-4, -0x1.5d5c92p-3, 0x1.480eep-3, -0x1.084182p-5, 0x1.ae1d5ep-7, 0x1.c52052p-4, -0x1.28d7d6p-3, -0x1.d2326p-4, 0x1.ec4468p-4, -0x1.dd009ap-3, -0x1.4a5476p-3, 0x1.4bf7bcp-4, 0x1.08c4c2p-3, -0x1.1150d4p-3, -0x1.081932p-5, -0x1.088b4ap-2, 0x1.73e74cp-4, -0x1.7bcc48p-5, -0x1.3b8186p-4, 0x1.df8328p-3, 0x1.f9930cp-3, 0x1.8fbfep-6, 0x1.cb08e2p-5, 0x1.e1b64cp-4, -0x1.39629p-4, 0x1.37f6fep-3, -0x1.73b75ap-3, -0x1.8e7e98p-3, 0x1.889764p-3, -0x1.95b688p-5, 0x1.a42d5cp-3, -0x1.bc25bep-4, 0x1.dbb8f6p-3, 0x1.293f24p-3, 0x1.b72d64p-3, -0x1.4a73c2p-4, 0x1.00f656p-4, -0x1.160874p-2, -0x1.075bfep-2, 0x1.21a5a2p-6, 0x1.408138p-3, -0x1.41c0acp-3, 0x1.8641fap-4, -0x1.88c1ap-3, 0x1.6be4b6p-10, 0x1.a9426p-4, -0x1.92f6c2p-3, 0x1.b0976p-5, 0x1.b2d1e8p-3, 0x1.02e13p-4, -0x1.4f8102p-4, -0x1.a393dep-6, 0x1.d9b202p-3, -0x1.09441ep-6, 0x1.1ba748p-5, -0x1.546a6ap-6, 0x1.660eb4p-3, -0x1.550982p-3, 0x1.07e042p-4, 0x1.eb455cp-4, -0x1.58272cp-4, 0x1.380532p-3, -0x1.7a8e1ep-4, 0x1.cb07dap-7, 0x1.c203aep-5, -0x1.74d12p-3, -0x1.3af8a6p-5, 0x1.8caee8p-6, -0x1.35b884p-3, -0x1.34c706p-3, -0x1.7672fap-4, -0x1.05076ep-3, -0x1.5e0d2p-3, 0x1.3a9c2ap-4, -0x1.19be68p-3, -0x1.021582p-3, -0x1.d15f82p-5, -0x1.5df25cp-5, -0x1.5bb9f6p-5, 0x1.d9c634p-4, 0x1.dfe658p-11, 0x1.979398p-3, 0x1.0e6ef4p-4, 0x1.2046cep-4, 0x1.e2c926p-6, -0x1.0f16a8p-3, -0x1.8d77bep-8, 0x1.64ae6p-4, 0x1.a2a83p-4, -0x1.66d55ep-3, -0x1.f334d6p-6, -0x1.68e3ecp-3, -0x1.efc7e2p-5, -0x1.107514p-6, 0x1.578cbcp-3, -0x1.7b6922p-4, -0x1.10fe4ap-3, 0x1.22a88ap-6, 0x1.8ca578p-6, 0x1.3f2586p-3, -0x1.b9b18ap-3, 0x1.8db6fep-3, -0x1.99b9bp-4, -0x1.1c9bc6p-4, -0x1.4946a6p-3, 0x1.10665cp-5, -0x1.2a9368p-3, -0x1.61fdc4p-4, 0x1.2d7688p-3, 0x1.7512cap-4, 0x1.a0ac78p-6, 0x1.8ba608p-7, -0x1.c186b2p-4, 0x1.aa77d6p-6, -0x1.08d61cp-3, 0x1.dc7d7p-6, -0x1.f20d4ap-4, 0x1.70499ep-6, 0x1.71e23ap-3, 0x1.3df008p-3, 0x1.c2ec9cp-5, 0x1.3c5dacp-3, -0x1.3b13c8p-6, 0x1.25d9ecp-4, 0x1.6e8632p-3, 0x1.e1c1c4p-4, -0x1.276cbp-5, 0x1.b4bbc6p-4, -0x1.3349f8p-3, -0x1.3ae8fep-3, 0x1.d15806p-5, -0x1.8fc0dcp-4, 0x1.5ab4ccp-5, -0x1.45ba7ap-3, 0x1.35ebb4p-3, -0x1.903fb4p-3, -0x1.463af6p-5, 0x1.cfd75ep-4, 0x1.076328p-3, 0x1.eef19ap-8, -0x1.4b0beap-6, -0x1.720fap-3, -0x1.2e6ca8p-3, 0x1.1ab946p-3, 0x1.993bf6p-7, -0x1.54470cp-3, 0x1.dc6906p-3, -0x1.705bdcp-4, -0x1.8503e8p-3, 0x1.8da446p-4, -0x1.0dc69p-3, 0x1.64475p-7, 0x1.c7e46ep-4, 0x1.65d07p-4, -0x1.243d28p-5, -0x1.81558ep-3, -0x1.ec7c1cp-5, 0x1.2f5ebap-3, -0x1.3dcc8ep-5, -0x1.813216p-5, -0x1.8e2378p-4, -0x1.1f43a6p-3, 0x1.3c8d4cp-3, -0x1.a15378p-5, -0x1.e9c908p-5, -0x1.0b01b8p-3, -0x1.89b4bep-4, -0x1.2e7b2ap-4, -0x1.622214p-5, 0x1.d32dap-3, 0x1.b28492p-10, 0x1.a82998p-6, -0x1.4788b4p-5, 0x1.2ada2ap-3, -0x1.57327ep-5, 0x1.109af8p-3, 0x1.9aae18p-3, 0x1.6a8d7ap-3, -0x1.0faf66p-4, -0x1.af2bd6p-4, 0x1.44fa2ep-7, -0x1.6eb3fep-4, 0x1.ed35dap-4, -0x1.54144p-4, -0x1.760982p-3, 0x1.a1f3e8p-4, -0x1.13672p-3, 0x1.7bd0dep-3, -0x1.57977ap-3, 0x1.4b3a7ep-5, -0x1.73b48p-3, -0x1.c09b0ap-4, -0x1.374282p-7, 0x1.8d60b6p-8, 0x1.d4c9dcp-4, 0x1.587ed2p-5, -0x1.3c3498p-7, 0x1.66dd9ap-3, -0x1.b65aacp-3, -0x1.6fc61cp-4, -0x1.33a468p-4, 0x1.657c06p-3, 0x1.a6dea2p-5, -0x1.2a62fep-6, 0x1.ad4c24p-10, 0x1.2e8cb2p-4, -0x1.6ba87cp-5, -0x1.9116a2p-4, -0x1.108fap-4, 0x1.7255e6p-3, 0x1.7ea7cep-3, -0x1.141342p-5, 0x1.748d3cp-4, -0x1.d83da8p-4, -0x1.48b4dap-3, 0x1.784982p-4, 0x1.722b4ep-3, 0x1.3a33acp-3, -0x1.96bbe4p-3, -0x1.dc30cp-4, 0x1.3050a6p-3, 0x1.e644c6p-5, 0x1.3cfc3cp-3, -0x1.241ebp-3, -0x1.7fcccap-6, 0x1.aa7aa2p-4, 0x1.b86aacp-3, 0x1.097816p-6, 0x1.973a3cp-5, 0x1.267e02p-3, 0x1.462026p-5, -0x1.8866ccp-3, -0x1.e8f36cp-6, 0x1.61214ap-4, -0x1.05fa58p-3, 0x1.613f7p-7, 0x1.e9d6cap-4, 0x1.c3355p-10, -0x1.65366ep-3, 0x1.30e18p-4, -0x1.513644p-4, -0x1.3acb9ap-4, 0x1.ce395ep-4, 0x1.2ca146p-3, -0x1.6194c6p-3, 0x1.0af35ep-4, 0x1.3502dp-3, 0x1.3d2ecp-3, 0x1.81e444p-3, 0x1.d85fbp-4, -0x1.49a202p-5, 0x1.ea42fap-5, -0x1.7f80acp-7, 0x1.c0d574p-4, -0x1.b03b2p-4, -0x1.abc526p-6, 0x1.95c7acp-6, 0x1.67addap-4, -0x1.a6dd76p-4, -0x1.b2a1f6p-5, 0x1.0cce1cp-4, -0x1.199ccep-3, -0x1.a64fa4p-4, 0x1.03b5cp-3, -0x1.e7fb5ep-4, -0x1.b3e97ep-6, 0x1.2157dcp-5, -0x1.0adddap-3, -0x1.1be6dap-3, 0x1.bdc8c6p-4, 0x1.106b3p-7, -0x1.5dd8dep-8, 0x1.7567ap-4, 0x1.59a2eep-3, 0x1.3c452p-8, 0x1.49fb2ep-3, -0x1.25f47ap-4, 0x1.eb27ecp-4, -0x1.6dc368p-4, -0x1.64d0e4p-5, 0x1.4d07cap-4, -0x1.a317f4p-3, -0x1.4d89fcp-3, 0x1.8acbbp-3, 0x1.112fdp-3, 0x1.ea936ap-8, 0x1.bedf9p-3, -0x1.b638f2p-8, -0x1.f925fp-6, 0x1.54162p-3, -0x1.64cc7p-3, 0x1.dc0016p-4, -0x1.5901e4p-4, 0x1.e0e01cp-6, -0x1.9ee23ep-4, -0x1.0709bep-3, 0x1.a29d76p-3, -0x1.8c5dcep-4, -0x1.cb596cp-3, -0x1.7e5f24p-7, -0x1.031e9ep-4, 0x1.953f68p-3, 0x1.3e0954p-4, -0x1.d4a068p-7, 0x1.3bd5cp-3, -0x1.86a902p-3, -0x1.d23856p-4, -0x1.484218p-3, 0x1.c3db36p-5, -0x1.5590f4p-3, -0x1.002cacp-3, -0x1.7c4f98p-3, 0x1.fb1bfp-7, 0x1.a057fep-4, 0x1.439a7cp-4, 0x1.360abep-3, 0x1.86f2e4p-4, -0x1.5a4d8ap-3, -0x1.90b9c8p-6, 0x1.640f9p-4, 0x1.dfa1c8p-5, 0x1.e4d6dap-4, -0x1.3eb912p-3, 0x1.b99cf2p-4, -0x1.34069ep-3, -0x1.48c00ep-3, -0x1.236e7ep-4, 0x1.0acecp-3, -0x1.635678p-4, 0x1.bb68e2p-4, -0x1.42b874p-6, 0x1.0b309ap-4, -0x1.0b9f72p-6, -0x1.e93e66p-5, -0x1.262594p-3, 0x1.a16f06p-5, -0x1.166b2ap-5, -0x1.35775ep-4, 0x1.0343fp-5, 0x1.7bd2bcp-4, -0x1.a100e8p-4, 0x1.762668p-3, -0x1.19d974p-5, 0x1.3e750ap-4, 0x1.3ed9bep-8, -0x1.6df7d2p-3, 0x1.623d24p-6, -0x1.889b1ep-4, 0x1.85a0a6p-3, -0x1.3448dp-3, -0x1.ab35d2p-6, -0x1.bb23bcp-5, 0x1.406bd4p-3, 0x1.7dc42ep-3, -0x1.556016p-3, -0x1.978eaep-5, -0x1.c01916p-4, 0x1.35134ep-3, 0x1.593ep-3, -0x1.1d1404p-3, 0x1.4a7ac8p-10, 0x1.982c66p-6, -0x1.e4abdp-5, -0x1.05a3a8p-4, -0x1.596a74p-8, -0x1.25dd1ep-3, -0x1.8a64f8p-4, -0x1.857a74p-6, 0x1.10a92cp-4, -0x1.b7c2e2p-6, -0x1.c7deb8p-4, -0x1.96be6cp-3, 0x1.b595fcp-4, -0x1.aa709p-3, -0x1.fc32dap-7, -0x1.c2a9b8p-4, 0x1.34149p-3, 0x1.f77d0ap-5, 0x1.cb5ed6p-4, -0x1.4541b4p-3, 0x1.53c3f4p-3, -0x1.46f07ap-3, 0x1.d4a82p-7, 0x1.e7fae8p-4, -0x1.3e5c1p-3, -0x1.23eb7ep-3, 0x1.ed775p-5, -0x1.0c8e08p-7, 0x1.b8c8c2p-3, 0x1.a555dp-4, 0x1.74beaep-11, 0x1.4944acp-3, -0x1.582dcp-3, -0x1.c197f4p-5, 0x1.54c32ep-4, -0x1.209e0cp-4, 0x1.28d704p-4, -0x1.8196fap-6, 0x1.d0752ap-6, -0x1.8d261ep-3, -0x1.948aep-4, 0x1.24cdfp-7, 0x1.c7c44p-5, -0x1.ec546ep-4, -0x1.81e3bcp-3, -0x1.06a608p-4, 0x1.c1874ep-6, -0x1.ffbbaap-5, -0x1.d05efep-3, -0x1.b0bd3cp-6, -0x1.82477ap-5, -0x1.a08726p-4, 0x1.1a16ecp-3, 0x1.27e732p-3, 0x1.19db9ap-3, -0x1.60fce6p-5, -0x1.05c1f4p-3, -0x1.9d2142p-3, 0x1.74e00ap-3, 0x1.7eb94p-6, -0x1.34377cp-5, -0x1.ad825p-5, 0x1.653e6cp-3, -0x1.6db8ccp-6, -0x1.91cdf8p-4, 0x1.abec0cp-4, 0x1.6f3a42p-3, 0x1.c81a66p-5, 0x1.94ea68p-3, -0x1.415678p-3, 0x1.9566aap-4, 0x1.9cdcf4p-5, -0x1.21f336p-3, -0x1.fbe76p-4, -0x1.04fb7ep-6, -0x1.b3e98ap-6, -0x1.d21ea2p-4, 0x1.b0a0dp-3, 0x1.debd2ep-5, -0x1.7f3684p-3, 0x1.fda56ap-6, 0x1.393616p-3, -0x1.be3e76p-4, 0x1.735284p-3, 0x1.a9603ap-4, -0x1.05f6d8p-6, 0x1.52694ep-3, -0x1.b29018p-4, 0x1.5936a4p-3, 0x1.7d4ca2p-3, 0x1.348fe4p-7, -0x1.53065ap-4, -0x1.daddb8p-6, 0x1.6e48fap-4, 0x1.3ebef2p-4, 0x1.2f627ap-4, 0x1.c65158p-3, -0x1.fd9508p-4, 0x1.c12386p-3, 0x1.d23614p-5, 0x1.448c5cp-6, -0x1.0f3ce8p-4, 0x1.81a5f8p-3, -0x1.6f79e8p-3, 0x1.7b2e82p-5, -0x1.8dd472p-5, -0x1.1b5ab8p-6, 0x1.4f196ep-3, 0x1.611584p-9, -0x1.9569aap-3, 0x1.1bb51cp-4, -0x1.045f98p-4, -0x1.c7841ap-4, -0x1.1efdccp-3, 0x1.8dbba6p-3, -0x1.c84b4ap-5, -0x1.393b6p-4, -0x1.4d2a78p-4, 0x1.9b71fep-4, -0x1.669578p-3, 0x1.dad0a4p-4, 0x1.cc0f3ep-4, 0x1.38ea2ep-4, 0x1.71c062p-4, 0x1.6917b8p-9, -0x1.fc78ecp-5, -0x1.a33fdep-4, -0x1.b93508p-4, -0x1.271924p-4, 0x1.176a82p-4, -0x1.424888p-4, 0x1.14514ap-3, -0x1.2dda0ep-3, 0x1.20e426p-3, -0x1.9a1624p-5, 0x1.9c812p-4, 0x1.754e38p-4, 0x1.e362a6p-4, -0x1.c533d8p-4, -0x1.dbbe2ep-3, -0x1.e1d19cp-4, -0x1.4aaep-4, 0x1.baa2eap-3, 0x1.6e5be8p-3, 0x1.82a5cep-4, 0x1.6f9e06p-6, -0x1.08345ap-3, 0x1.d7c7fap-8, -0x1.9292dep-5, 0x1.0a6e2p-5, -0x1.0b9f0ep-3, -0x1.96cdfep-7, 0x1.6d4cb2p-3, -0x1.2301ccp-3, -0x1.16abc4p-6, 0x1.1f87f6p-4, 0x1.6e9a1ep-4, 0x1.5897dp-3, -0x1.7bec7cp-3, -0x1.7ef478p-5, -0x1.412338p-4, -0x1.a80a26p-4, -0x1.68be3ap-3, 0x1.3fd4b6p-8, 0x1.9a10e4p-7, -0x1.0875fp-4, -0x1.99d2bap-4, 0x1.31be7ap-3, -0x1.41fa4cp-3, -0x1.7c878p-5, -0x1.63c53ep-5, 0x1.66a1cap-3, 0x1.5634f6p-3, 0x1.1602eap-3, -0x1.1918dap-4, -0x1.46dcp-3, -0x1.1c9df4p-3, -0x1.23501ap-6, 0x1.563216p-3, 0x1.686164p-4, 0x1.8dcebp-5, -0x1.1bcd5cp-3, 0x1.50cefap-4, -0x1.806324p-3, 0x1.72183p-3, -0x1.f96b7ap-7, 0x1.103cccp-6, 0x1.81a5bp-4, 0x1.77013ep-4, -0x1.9108p-4, 0x1.c3d4b8p-5, 0x1.6d344ap-3, 0x1.649b46p-6, -0x1.041908p-3, 0x1.42f11cp-3, -0x1.df9398p-8, -0x1.b2b036p-4, -0x1.065c06p-3, 0x1.b30342p-6, -0x1.160c6cp-7, -0x1.373688p-5, 0x1.8e8f4ep-4, -0x1.1e9fb8p-3, 0x1.326792p-5, -0x1.8aea3ap-4, 0x1.3bbd4ap-7, 0x1.58751ap-6, -0x1.0ba03ep-4, -0x1.17a404p-4, -0x1.1e103cp-4, 0x1.cf74e8p-4, 0x1.06b5f6p-4, 0x1.06fdb8p-5, 0x1.cd0df4p-4, 0x1.d28898p-3, -0x1.7298d2p-3, 0x1.e5903ap-5, 0x1.13e63ap-3, -0x1.93cd8p-3, 0x1.6e4f3ep-4, -0x1.002c98p-3, -0x1.c6f24ap-8, 0x1.891b62p-3, 0x1.c9d5fcp-4, 0x1.a3e884p-4, -0x1.5ea03ep-5, 0x1.91f738p-5, 0x1.fba7fep-5, 0x1.25bd7p-5, -0x1.2872b6p-3, 0x1.6cc7c6p-4, -0x1.61abc2p-5, 0x1.3db6eep-4, -0x1.c393e4p-4, 0x1.0c8fe4p-5, -0x1.e868cep-5, 0x1.35187p-4, -0x1.f0de74p-4, -0x1.00b84ep-3, -0x1.96aeaep-5, 0x1.003d74p-3, 0x1.d7166ep-7, 0x1.8961ap-3, -0x1.4ed9bp-5, -0x1.2847f6p-4, -0x1.5e6b8p-3, 0x1.846d5cp-5, -0x1.0d90d2p-7, 0x1.a405f4p-3, -0x1.c2761cp-5, 0x1.6df898p-5, -0x1.053d32p-3, 0x1.7e1b6cp-3, -0x1.a3284p-3, -0x1.3b323ap-5, -0x1.2d698ap-4, 0x1.feca6cp-5, 0x1.884b9ap-5, 0x1.943c9ap-4, 0x1.bce8fp-4, 0x1.1e7fbp-3, -0x1.c197c8p-10, -0x1.0f81a6p-5, 0x1.0247bap-3, 0x1.cc9516p-4, -0x1.57a136p-3, -0x1.8d6748p-4, 0x1.3986c6p-5, -0x1.b5949p-5, 0x1.991d74p-5, -0x1.0eb60ap-4, 0x1.22bbb4p-3, -0x1.559dcp-3, -0x1.10aa5cp-3, -0x1.47bdc8p-4, 0x1.35715p-4, 0x1.04e4d4p-5, -0x1.3ab5d2p-4, -0x1.717ab6p-4, 0x1.ab5b88p-4, 0x1.7659b4p-3, 0x1.90b1b4p-9, -0x1.d1e7aep-4, -0x1.3d2c98p-6, -0x1.7675a2p-3, 0x1.a177ccp-7, 0x1.0657p-6, -0x1.120d68p-3, 0x1.5f7f3ap-6, -0x1.3d970ep-3, -0x1.98c956p-5, -0x1.3f0a8p-8, 0x1.606594p-3, -0x1.382ffap-3, -0x1.111014p-3, 0x1.58e62p-3, -0x1.211a5ap-3, 0x1.75a126p-4, 0x1.6558d4p-3, 0x1.9ea48p-3, -0x1.e344c6p-4, 0x1.50176p-4, -0x1.6e7de4p-3, 0x1.246b96p-3, 0x1.974feep-5, -0x1.a72d16p-4, 0x1.4eb02ep-4, 0x1.2d5c68p-3, 0x1.6326fcp-4, -0x1.42f62ep-4, 0x1.3070e8p-4, 0x1.1b30b6p-3, -0x1.df22fcp-6, 0x1.72ac82p-4, -0x1.273ea2p-3, 0x1.685c2p-6, 0x1.1c6b66p-4, -0x1.35ebap-4, -0x1.7658b6p-3, 0x1.88b2f2p-3, -0x1.0945fap-5, -0x1.0a916cp-4, 0x1.9721b2p-4, 0x1.97185ap-4, -0x1.044a88p-3, -0x1.0735a6p-4, -0x1.1f1668p-3, 0x1.39e3f4p-4, 0x1.ac5daap-3, -0x1.1086cp-4, 0x1.32c924p-3, -0x1.40089ap-3, 0x1.0c7e0ap-5, 0x1.fadf22p-5, 0x1.2c51b2p-5, -0x1.30944ep-5, 0x1.4b5056p-7, 0x1.284cbap-11, 0x1.c3b172p-3, 0x1.b1b1cep-3, -0x1.d2a144p-4, 0x1.f9647p-4, 0x1.5d97e8p-4, -0x1.69a7eap-7, -0x1.5cda9ap-6, -0x1.6980ccp-3, 0x1.cb351cp-5, -0x1.85b81p-3, 0x1.fd822p-4, -0x1.66010ep-4, -0x1.76ac06p-3, -0x1.a85124p-3, 0x1.868562p-5, 0x1.0f3174p-4, 0x1.0ed362p-6, -0x1.0d8c2cp-3, 0x1.38795ap-5, 0x1.61b84ap-3, 0x1.8f743p-3, -0x1.4deb2ep-3, 0x1.8c1e98p-8, 0x1.5aa796p-3, 0x1.9b5476p-3, 0x1.65425cp-3, -0x1.e8e5d8p-5, 0x1.83ef2ep-4, 0x1.dd148p-3, 0x1.35283ep-6, 0x1.3b70a2p-3, -0x1.dbedfcp-4, -0x1.0ea7dp-3, 0x1.86a9ecp-4, -0x1.34046cp-6, 0x1.643b66p-3, -0x1.7d0fa8p-4, 0x1.716984p-4, 0x1.a28c86p-5, -0x1.69a4b4p-5, -0x1.080fb8p-3, -0x1.89125cp-5, -0x1.af1f04p-5, -0x1.6b723ep-7, -0x1.48cdc6p-3, 0x1.64a526p-5, -0x1.6097bep-4, -0x1.1b6ef8p-8, 0x1.996aeap-3, 0x1.821c2ep-5, -0x1.d5ce0ap-6, 0x1.e90e38p-8, -0x1.962b58p-3, 0x1.c068f8p-3, 0x1.67ea58p-5, -0x1.205374p-6, -0x1.6d15d6p-7, 0x1.860c92p-6, -0x1.bbc0c8p-8, 0x1.aac0d8p-8, -0x1.beb688p-7, -0x1.83f208p-4, 0x1.2d980ap-4, -0x1.2dd3dap-3, -0x1.cac79ep-4, -0x1.dabf06p-5, -0x1.d775dap-4, -0x1.4b883ap-4, 0x1.28d274p-3, -0x1.59b01ap-3, 0x1.b0cf4p-4, -0x1.4173b6p-3, 0x1.a9afp-6, -0x1.7f79b2p-7, -0x1.07e31ap-3, -0x1.09f188p-3, 0x1.55e04p-5, -0x1.6fcd1p-3, -0x1.17afcap-7, -0x1.0969e8p-5, -0x1.c4cc08p-4, -0x1.0096c2p-4, -0x1.4ee572p-3, -0x1.651348p-3, -0x1.a060e2p-3, 0x1.00cadap-3, 0x1.cce79ep-4, 0x1.e344f4p-4, 0x1.2edef4p-4, 0x1.cc2184p-4, -0x1.050d12p-5, 0x1.55fe3p-3, 0x1.bf274ap-7, 0x1.066f26p-3, -0x1.06105p-3, -0x1.0e495cp-3, -0x1.7cb3e8p-5, -0x1.2719e8p-3, 0x1.69c486p-4, -0x1.74c042p-5, 0x1.f3c13p-4, 0x1.e53fc6p-5, -0x1.4fbf8ep-5, 0x1.01015p-3, 0x1.1e9116p-5, 0x1.7d8a84p-4, 0x1.fd07b2p-5, 0x1.98ad86p-4, 0x1.552bd8p-3, -0x1.4ded3ap-3, 0x1.89ab44p-3, 0x1.11d3fap-3, 0x1.be026p-3, -0x1.acdceap-4, 0x1.092f04p-4, -0x1.2b955ep-3, 0x1.681378p-5, 0x1.3e9034p-4, 0x1.729982p-3, -0x1.591b42p-3, 0x1.9b8cbcp-3, 0x1.00fcd6p-3, -0x1.379044p-3, -0x1.271fep-3, -0x1.a27eeep-4, -0x1.5acd02p-4, 0x1.8e04e8p-8, -0x1.7068dap-5, -0x1.ccd3b4p-4, 0x1.bcc2acp-4, 0x1.039f94p-3, 0x1.1a2a7ep-3, 0x1.24187p-3, 0x1.328b54p-3, 0x1.0d606cp-5, -0x1.9701b8p-3, -0x1.fd697p-4, 0x1.4b14f8p-4, -0x1.0ab98ap-4, 0x1.857a1ap-4, -0x1.2acce8p-4, 0x1.49c582p-3, 0x1.3353acp-4, 0x1.faa8d4p-4, -0x1.1888dep-4, -0x1.766beap-4, -0x1.c73fe6p-4, 0x1.553162p-3, -0x1.e96f58p-10, 0x1.1ac604p-3, -0x1.3ca598p-4, 0x1.e735e2p-7, -0x1.7eb2dep-5, -0x1.537b36p-5, -0x1.641ddap-4, 0x1.aae5ecp-4, -0x1.67ad24p-3, -0x1.17902cp-3, 0x1.7bfbe8p-3, 0x1.b0fb2ep-4, -0x1.88d0a6p-3, -0x1.f46d7p-4, -0x1.71c7fap-3, -0x1.9ebc06p-4, -0x1.986902p-3, 0x1.d76a4cp-4, -0x1.0ffa54p-3, 0x1.17a06p-6, 0x1.a61d1p-5, -0x1.adeac6p-7, -0x1.94285ap-7, 0x1.891aecp-4, 0x1.cae656p-5, 0x1.becc28p-8, 0x1.9a6deap-3, -0x1.3ecacep-3, -0x1.821066p-5, -0x1.711932p-3, -0x1.19d378p-8, 0x1.6494eep-4, 0x1.a5d374p-3, 0x1.eb1e56p-5, 0x1.c6a08ep-9, -0x1.7a61bap-3, 0x1.7345aap-4, 0x1.66876p-6, 0x1.e6bcf6p-4, -0x1.300ddcp-3, -0x1.a593f8p-4, -0x1.892bf4p-4, 0x1.533834p-3, -0x1.36daa8p-4, -0x1.29063p-4, -0x1.d66356p-4, -0x1.1bad88p-9, 0x1.88eb62p-6, 0x1.42e614p-5, -0x1.33748ep-4, -0x1.29d8f4p-3, -0x1.408208p-4, -0x1.1faadap-5, -0x1.e3e5d2p-5, 0x1.10d72ep-8, -0x1.b91028p-6, -0x1.0323fep-3, 0x1.bf9c2p-6, 0x1.a7e76ap-7, -0x1.874136p-4, -0x1.65c29p-3, 0x1.1e6866p-7, 0x1.6ca092p-3, -0x1.517ea4p-3, -0x1.a5ca7p-4, -0x1.20b9cap-4, -0x1.56ea34p-3, 0x1.4d7322p-3, -0x1.378ebp-5, 0x1.02798ep-5, -0x1.6cdff6p-3, -0x1.5f6618p-3, 0x1.37e45p-3, 0x1.dc97d6p-4, 0x1.eb328cp-5, -0x1.9705b6p-3, -0x1.6736aap-8, 0x1.83f9d2p-4, 0x1.177348p-3, -0x1.390f3cp-4, 0x1.549bcp-5, -0x1.9d64a8p-5, -0x1.ef1088p-4, 0x1.9f3412p-3, -0x1.b06272p-4, 0x1.2bdc88p-6, -0x1.c71c3ap-5, -0x1.73a666p-4, 0x1.8c26bcp-4, 0x1.723e7p-3, -0x1.3337ccp-3, 0x1.8367bep-4, -0x1.7e91cep-3, -0x1.cab54cp-4, -0x1.5ecfcp-3, -0x1.dbce18p-5, 0x1.ef323ap-4, 0x1.656e66p-5, -0x1.7fdb8p-7, 0x1.b78e02p-9, -0x1.7b3554p-4, -0x1.a1922ap-5, -0x1.557708p-3, -0x1.36248ep-3, -0x1.7c1c32p-3, -0x1.e265p-7, -0x1.54a51ep-3, -0x1.474c44p-3, -0x1.a9bf18p-4, 0x1.66cfb4p-4, 0x1.5c286ap-3, 0x1.bac40ap-4, -0x1.4c4e88p-3, 0x1.3e1fa8p-4, 0x1.a0e08cp-5, 0x1.c65b38p-6, -0x1.23109cp-5, 0x1.583bcep-5, -0x1.3f47a2p-3, 0x1.3489c6p-3, 0x1.615c9ap-4, 0x1.955684p-3, 0x1.58253p-3, -0x1.a448d8p-4, -0x1.4f93c2p-3, -0x1.db097ap-5, 0x1.b67b0cp-3, -0x1.c5b57ap-4, -0x1.81c394p-5, -0x1.16a666p-3, 0x1.3ec4dcp-4, 0x1.4f534ep-4, -0x1.046132p-3, -0x1.2bfe6ap-3, -0x1.9e58fp-8, -0x1.02d90ep-3, -0x1.1d2b06p-3, -0x1.2a47bp-5, 0x1.05ad7p-4, 0x1.270516p-3, 0x1.558edp-3, -0x1.65fd8ep-3, -0x1.08dbe8p-3, -0x1.26154cp-4, -0x1.a81fcap-3, -0x1.2550a8p-3, -0x1.32dcd8p-5, 0x1.1813p-3, -0x1.1e9846p-6, -0x1.4bd62p-4, -0x1.6f6306p-3, 0x1.1d56fp-3, -0x1.03e186p-4, -0x1.86457p-5, -0x1.438a36p-3, -0x1.334224p-7, -0x1.63180cp-6, 0x1.fccf94p-6, 0x1.2cc3c8p-4, -0x1.7acc46p-3, -0x1.f0f984p-6, 0x1.36355ep-3, 0x1.aa757ap-4, 0x1.411fc8p-5, -0x1.4360bap-3, 0x1.d83cb4p-4, -0x1.039afap-4, -0x1.63b532p-5, 0x1.7e2a62p-7, 0x1.68fap-6, 0x1.77995ep-4, 0x1.b46014p-7, 0x1.6161p-3, -0x1.1dc848p-7, 0x1.93ec74p-5, -0x1.25030cp-3, -0x1.fc4d8ap-4, -0x1.099da8p-3, 0x1.32828p-4, -0x1.a7731p-5, 0x1.6e9c3ep-5, -0x1.869f66p-5, 0x1.368b5cp-4, 0x1.7d48e2p-3, 0x1.e9e344p-4, -0x1.239828p-3, -0x1.932264p-3, 0x1.0bd68ep-5, -0x1.077a7ap-3, 0x1.0195p-3, -0x1.02f974p-6, -0x1.42f4cp-5, 0x1.d890eap-6, -0x1.6730fp-3, -0x1.12ec5p-3, 0x1.418808p-3, -0x1.0a6816p-4, 0x1.a2d884p-7, 0x1.a13358p-4, 0x1.5a91p-3, -0x1.0d7cc6p-9, -0x1.075954p-3, 0x1.09e386p-3, -0x1.54ad8cp-3, -0x1.3b372ep-3, -0x1.50f30ep-6, -0x1.7bd9c2p-9, 0x1.4703ccp-4, -0x1.abb2c8p-5, 0x1.aa66ecp-3, -0x1.12f892p-4, 0x1.1a57e4p-5, -0x1.7b7382p-6, -0x1.a17d64p-4, -0x1.8cbba4p-6, 0x1.5ee4d4p-6, 0x1.99f7bcp-6, 0x1.3c28cep-3, 0x1.8626b8p-5, -0x1.8d7a52p-4, 0x1.8ca27ep-7, 0x1.3c2342p-3, -0x1.5ec356p-3, 0x1.0e873ep-5, -0x1.b27e5ap-3, -0x1.ddfd9ep-6, 0x1.82ab6ep-4, -0x1.3116fap-3, -0x1.8e330ep-4, 0x1.836eecp-6, 0x1.5bc9bp-4, -0x1.21e406p-3, -0x1.f3156cp-5, -0x1.56e904p-3, 0x1.eb3cd4p-4, 0x1.8a103p-4, -0x1.3f400ap-8, -0x1.55b4a4p-3, 0x1.71ffa6p-3, -0x1.d9d95ap-5, -0x1.8f2014p-3, 0x1.941b46p-4, -0x1.1632b6p-5, -0x1.0de782p-3, 0x1.9d206p-6, 0x1.ba7662p-4, 0x1.43af3ep-3, 0x1.c7b752p-4, 0x1.e6387cp-4, 0x1.f20c4ap-4, 0x1.93994ep-4, -0x1.2ca57ep-4, -0x1.cd7458p-4, 0x1.81dcp-4, 0x1.dc154ap-4, -0x1.a7a13ep-4, -0x1.23c5ap-3, -0x1.9c3a68p-5, -0x1.696618p-3, 0x1.22ab7ap-3, -0x1.92dc4ep-3, 0x1.d8c89p-3, 0x1.679748p-3, -0x1.c77d32p-4, -0x1.c4972ep-4, 0x1.e038e8p-9, -0x1.305c2ap-6, -0x1.fc36fcp-4, -0x1.627842p-3, -0x1.0e7f86p-3, -0x1.10432p-4, -0x1.3efb68p-4, -0x1.07a7c4p-4, 0x1.96284p-4, 0x1.9f995ep-3, -0x1.5e889cp-3, 0x1.baac94p-3, 0x1.5da7eap-4, 0x1.bee466p-6, -0x1.b13c0cp-3, 0x1.a1aabap-3, 0x1.aeaedp-3, -0x1.e68614p-6, -0x1.f8a26p-4, -0x1.9bc9aap-3, -0x1.8d905ap-3, -0x1.1a9242p-6, -0x1.6a1588p-5, -0x1.cc8a9ep-4, 0x1.509302p-5, 0x1.01a898p-8, 0x1.4606fep-3, 0x1.665982p-4, 0x1.34885ap-4, 0x1.e70dbep-4, -0x1.63dbbp-5, 0x1.65c4d4p-3, 0x1.f4ee2p-4, 0x1.37249ep-6, -0x1.4911c6p-6, 0x1.b7d244p-3, -0x1.07fc36p-4, 0x1.ac4f9ep-3, 0x1.a5600ep-3, 0x1.89834ap-3, 0x1.59de18p-4, 0x1.3bf54ap-3, -0x1.45ff7ap-8, 0x1.662ce6p-3, 0x1.f82ab2p-4, -0x1.8a668ep-5, -0x1.00cdcap-4, 0x1.478ee8p-3, 0x1.95a5f4p-3, -0x1.fabf06p-4, 0x1.d502acp-5, -0x1.2c0d4cp-7, 0x1.dc502ap-4, 0x1.16068ap-4, 0x1.0caeeep-3, 0x1.3b7936p-3, 0x1.949228p-8, 0x1.76e526p-3, -0x1.f26606p-4, 0x1.45af4p-5, 0x1.f961a8p-5, 0x1.58757ap-5, -0x1.29f044p-9, 0x1.7957eep-7, 0x1.1d34bap-4, 0x1.010c58p-5, -0x1.5bdb9p-3, -0x1.da14d4p-4, 0x1.9efbecp-3, -0x1.578cbep-6, -0x1.32b1dp-3, 0x1.6c4972p-6, 0x1.d75afap-4, 0x1.fde6dp-4, 0x1.1e092ep-5, 0x1.826e08p-3, 0x1.45c2ap-4, -0x1.f712f8p-7, 0x1.afc638p-3, 0x1.65a518p-4, 0x1.251ad8p-3, -0x1.086b6cp-7, 0x1.1e18a6p-4, 0x1.8a106cp-3, 0x1.4ad216p-5, 0x1.0b4a7cp-5, -0x1.ea034p-6, -0x1.eb5c96p-5, -0x1.6da1e2p-3, -0x1.49a2b4p-3, 0x1.854182p-4, -0x1.a843f6p-4, 0x1.e79f4p-5, -0x1.81d5ccp-4, 0x1.551044p-3, 0x1.7928b2p-3, -0x1.5bf32ep-4, -0x1.5815ccp-3, -0x1.22f562p-4, -0x1.9f5052p-3, 0x1.408146p-3, 0x1.fe997ep-4, -0x1.25356ap-5, -0x1.fa181p-5, -0x1.0b8bd4p-4, 0x1.4f3e38p-3, 0x1.ce24ep-4, 0x1.00765p-3, 0x1.8aac0cp-3, 0x1.267a28p-5, 0x1.aa459ep-5, 0x1.3ad8b2p-3, -0x1.4c65d2p-3, 0x1.b23e92p-4, -0x1.81ac44p-3, -0x1.15c54cp-3, -0x1.76d81ep-5, -0x1.2be17cp-3, -0x1.a6ee88p-3, -0x1.034d2ap-5, 0x1.36112ap-3, 0x1.609034p-5, -0x1.0cc9cep-6, -0x1.258b7ap-3, 0x1.bdd4eep-3, -0x1.67f9a8p-3, -0x1.95f8fep-6, 0x1.a41282p-3, -0x1.c4b754p-4, 0x1.d0d67ap-5, -0x1.a2d1a4p-5, 0x1.cb7fbcp-6, 0x1.9b2e4ap-5, -0x1.596fd6p-3, -0x1.e087f6p-5, 0x1.40405ep-3, 0x1.42a0ecp-4, 0x1.473556p-4, 0x1.f5d0c4p-4, 0x1.31a3bp-5, 0x1.5068acp-3, -0x1.3b9812p-5, 0x1.639614p-4, 0x1.23e13p-4, -0x1.54a172p-3, -0x1.e876a8p-5, -0x1.2dc428p-3, -0x1.424aaap-3, -0x1.dc781ap-7, -0x1.07336p-4, -0x1.599cfep-5, 0x1.b84bc4p-8, 0x1.cd5716p-5, 0x1.1f0cbcp-4, 0x1.4dd506p-3, -0x1.e54b4p-4, 0x1.20db48p-3, -0x1.91273cp-3, 0x1.36ea58p-3, -0x1.558dd6p-5, -0x1.f9e64p-6, 0x1.2d6b9ep-6, 0x1.bcd39ep-4, -0x1.2de3c2p-6, -0x1.a0c958p-4, 0x1.98f5c2p-3, 0x1.eb39d2p-4, -0x1.19a1ap-3, 0x1.c3e8bap-4, 0x1.5ab16ep-3, 0x1.6d011ep-3, -0x1.1b35c4p-3, -0x1.2b488ep-3, -0x1.c11c96p-3, 0x1.3feaaep-3, -0x1.0a406cp-3, 0x1.5ccb44p-3, -0x1.6f2532p-4, -0x1.55c412p-5, -0x1.1724p-3, 0x1.c412c8p-6, -0x1.2dc874p-3, 0x1.18c7f6p-3, 0x1.bab62p-4, 0x1.a20bfep-4, -0x1.b10b2ap-3, 0x1.1b94a8p-4, 0x1.4b12aap-5, -0x1.d60292p-5, 0x1.54196cp-3, -0x1.04df64p-6, 0x1.3b7d58p-3, 0x1.727c14p-4, -0x1.935304p-4, -0x1.6a9754p-3, -0x1.52f254p-5, -0x1.30afbcp-7, 0x1.b2e13cp-4, 0x1.09c4f8p-4, -0x1.365fa2p-13, -0x1.3731e4p-5, -0x1.787ccap-3, -0x1.145474p-3, 0x1.6853eap-7, 0x1.4b762ap-5, 0x1.a359ep-7, -0x1.9caa86p-3, 0x1.390d56p-5, 0x1.84fb5ap-3, -0x1.1a1828p-3, -0x1.555b94p-3, 0x1.f98fe4p-5, 0x1.ea352cp-5, 0x1.54012ap-5, 0x1.759256p-3, -0x1.87304ep-3, 0x1.3a1d7p-7, -0x1.00022ep-4, 0x1.832acp-3, 0x1.064582p-3, -0x1.6a3a2cp-6, 0x1.7d2c5ep-3, 0x1.b4701ep-5, -0x1.1f52e4p-3, -0x1.96d7fp-3, -0x1.25b7e4p-5, -0x1.69504p-5, -0x1.9e266ep-8, -0x1.75a57cp-7, -0x1.30df68p-3, -0x1.a66b4ep-4, 0x1.3ce80ep-5, 0x1.4ca52ap-3, 0x1.a489c4p-4, 0x1.2e4abcp-4, -0x1.6f28e8p-3, 0x1.908b76p-5, -0x1.dd9c42p-7, 0x1.dc15acp-5, -0x1.6d9ad8p-4, 0x1.518b84p-6, -0x1.5f6dccp-6, 0x1.f447b8p-5, 0x1.30194cp-5, -0x1.40d38cp-4, 0x1.c854d2p-4, -0x1.626b04p-3, -0x1.abd19ap-3, -0x1.994ef8p-3, -0x1.2c80b4p-3, -0x1.899dp-3, 0x1.7903b6p-3, -0x1.602b06p-3, 0x1.3b29a2p-3, -0x1.459a18p-4, -0x1.091772p-4, -0x1.31999ep-3, 0x1.ce4d28p-7, -0x1.0509ep-3, 0x1.1a03e4p-4, -0x1.53db1p-4, 0x1.aca062p-5, 0x1.8a65ep-3, -0x1.fe0a02p-5, 0x1.a8b6e6p-3, -0x1.8e9766p-9, -0x1.a3ec84p-3, 0x1.36108cp-4, -0x1.0332p-4, -0x1.10669ap-7, 0x1.27cdc8p-4, -0x1.9f9d8cp-6, 0x1.423252p-5, -0x1.80db58p-5, -0x1.d72e94p-4, -0x1.1471f2p-4, -0x1.c10452p-6, 0x1.b8f4d6p-8, -0x1.a1b608p-4, 0x1.b98d54p-5, -0x1.3783cap-3, 0x1.5b545p-3, -0x1.c322ecp-3, -0x1.18787p-3, 0x1.0a5b36p-4, 0x1.1ca106p-3, 0x1.f2559ap-4, 0x1.f4d782p-4, 0x1.033d54p-3, 0x1.e235e8p-4, -0x1.78a4c8p-4, -0x1.d00e76p-7, -0x1.4dcfccp-4, -0x1.fe0ab6p-6, -0x1.7df7cp-3, 0x1.31781ap-7, -0x1.be7b7p-4, 0x1.3b9a32p-3, -0x1.df88b8p-6, -0x1.91ae3ep-3, -0x1.2a0fbp-3, -0x1.022cacp-3, 0x1.05e47p-3, -0x1.d354f8p-5, -0x1.d32b9ep-6, -0x1.822f28p-5, 0x1.b64f5ep-4, 0x1.d52cf8p-4, -0x1.31c334p-5, -0x1.ae5ddcp-4, -0x1.f7ffdp-5, 0x1.e7325ep-7, 0x1.00768ap-5, -0x1.296c0cp-6, -0x1.417f02p-3, -0x1.2cc734p-4, -0x1.591cdep-4, 0x1.295668p-3, 0x1.aae73ep-4, -0x1.3efb34p-3, -0x1.6b63c4p-5, 0x1.91ed4ap-5, 0x1.00563ep-4, 0x1.b8d7p-5, -0x1.9df08p-6, 0x1.517a58p-4, -0x1.253da8p-3, -0x1.f2cc44p-4, 0x1.10256ap-4, -0x1.924d38p-4, 0x1.ef8dp-5, -0x1.b18552p-7, 0x1.214ce8p-6, 0x1.56d38cp-3, -0x1.20c316p-9, -0x1.052f54p-4, -0x1.7ce35ap-3, -0x1.9909fap-4, -0x1.a1c432p-5, 0x1.73a01ep-3, 0x1.85be38p-7, -0x1.29567ap-4, -0x1.495724p-4, -0x1.88c3eep-8, 0x1.faf6e4p-4, 0x1.7fa7bcp-3, 0x1.1583fap-4, -0x1.9738a2p-6, 0x1.10c26ap-5, 0x1.dec4eap-10, -0x1.19257p-5, 0x1.254fdp-3, 0x1.0414f8p-3, 0x1.0dfff6p-6, -0x1.202982p-6, 0x1.54ec8cp-7, -0x1.3ca364p-3, -0x1.6d5468p-3, -0x1.cc1994p-5, 0x1.a16dc4p-4, 0x1.3119ecp-3, 0x1.18248cp-3, 0x1.a71aaap-4, -0x1.0b90a8p-3, -0x1.e0ab1ap-6, -0x1.0aed98p-3, -0x1.f14cdap-4, 0x1.2f520ep-3, 0x1.f10418p-4, 0x1.6317a8p-3, 0x1.d5a68cp-5, 0x1.168b8ap-4, 0x1.53d28ep-4, 0x1.d89876p-5, -0x1.672da8p-3, 0x1.208602p-4, 0x1.579e76p-3, 0x1.4d3d9cp-3, -0x1.4a59dep-6, -0x1.099656p-3, 0x1.0d1d6ep-5, 0x1.0b1828p-3, 0x1.53d1e2p-3, 0x1.d4142cp-5, 0x1.e16c06p-5, -0x1.e249cp-3, -0x1.1f25d2p-9, 0x1.620ba2p-5, -0x1.236d92p-4, -0x1.80703ap-4, 0x1.39ee64p-3, -0x1.1a686cp-3, 0x1.a0ef78p-3, 0x1.84a906p-3, 0x1.ca6936p-7, 0x1.e93354p-4, 0x1.d6acccp-5, -0x1.ab58fap-4, 0x1.39c3dap-3, 0x1.b00a1p-3, 0x1.cb6a3cp-6, -0x1.ba404ep-4, 0x1.c8246ap-4, 0x1.5587ep-5, 0x1.1769f4p-3, -0x1.2b5148p-6, -0x1.4e2122p-7, -0x1.cd6074p-4, 0x1.e824ccp-4, 0x1.ded71ap-7, 0x1.7145cp-3, 0x1.3f8a1cp-6, 0x1.89de1p-3, 0x1.2d744ep-4, -0x1.6432a4p-4, -0x1.05f984p-3, 0x1.b24404p-4, 0x1.77c22cp-4, -0x1.d21f42p-7, -0x1.52e164p-3, 0x1.2fd326p-3, 0x1.c5d44cp-6, 0x1.1910bep-3, -0x1.bc81cap-5, -0x1.5fcbdp-11, 0x1.7bf8e2p-3, -0x1.b5397cp-4, 0x1.2a989p-4, 0x1.2b690ep-4, -0x1.a48434p-8, 0x1.55636cp-4, -0x1.9d75eap-4, -0x1.d3ef68p-4, 0x1.70b22ap-4, 0x1.84c978p-10, -0x1.c68b04p-4, -0x1.44694p-5, -0x1.c1a1ccp-7, -0x1.0eda12p-3, 0x1.4c176cp-3, 0x1.ebb78ep-5, -0x1.0295dp-10, -0x1.69a1e2p-6, -0x1.21a64cp-4, 0x1.27ed4cp-4, -0x1.7d2326p-3, 0x1.745bcap-3, 0x1.909a6cp-3, -0x1.835942p-3, -0x1.0586cp-5, -0x1.152c62p-3, 0x1.9596d6p-5, -0x1.d0225cp-4, 0x1.a78a98p-4, -0x1.299df8p-3, 0x1.7d998ap-8, -0x1.bc0292p-5, 0x1.792f86p-5, 0x1.88c0a6p-5, -0x1.8b3f0ep-5, -0x1.17072ap-8, 0x1.8081cap-4, -0x1.bf18p-6, -0x1.f7b8a4p-4, -0x1.a49b0ep-5, 0x1.95b3aap-3, 0x1.eca8eep-5, -0x1.4ad1bp-3, 0x1.46a96ep-3, -0x1.0c5b28p-3, -0x1.e55788p-5, 0x1.44a046p-3, 0x1.99bdfcp-4, 0x1.5229fcp-7, -0x1.06a3b8p-4, 0x1.a79a32p-7, -0x1.51088ap-4, -0x1.56a758p-3, -0x1.0f909p-3, 0x1.e89a0ep-5, -0x1.c510d2p-5, 0x1.6d0cb8p-3, -0x1.748ee2p-3, -0x1.94fa2p-3, -0x1.3774fcp-3, -0x1.27f196p-4, -0x1.971422p-4, -0x1.014ea4p-12, 0x1.d5429ep-4, 0x1.cdfcf8p-4, 0x1.5be5dp-3, -0x1.849da2p-3, -0x1.ea146ep-3, -0x1.b91e9p-7, 0x1.7de81cp-5, -0x1.158b8cp-3, 0x1.0e85aep-3, -0x1.602b5ep-3, -0x1.f240d4p-4, -0x1.7ec47ap-4, -0x1.d0278ep-5, -0x1.20fbfep-3, 0x1.028864p-5, 0x1.5c95acp-3, 0x1.20e2f2p-3, -0x1.2fb854p-8, 0x1.38b998p-3, -0x1.759268p-6, -0x1.362aap-3, 0x1.1bc77ep-3, -0x1.de9778p-4, 0x1.175b56p-4, -0x1.849a4ap-4, -0x1.298c64p-3, -0x1.76c4bcp-5, 0x1.6ac942p-3, -0x1.0b8b66p-3, 0x1.5a79e4p-4, 0x1.b71c3ap-5, 0x1.c0b4ccp-5, 0x1.8adaaap-3, 0x1.29c2cp-3, 0x1.acb2f4p-3, 0x1.4a1806p-3, 0x1.a97794p-5, -0x1.1c8b3ap-3, 0x1.522146p-9, 0x1.9037b4p-5, 0x1.54abacp-5, 0x1.7d3ffap-4, 0x1.5db634p-8, 0x1.bf3b9ep-4, -0x1.35472ap-6, 0x1.d35a5p-4, 0x1.55683ep-3, -0x1.242c2ap-3, 0x1.afbf68p-7, 0x1.3b5122p-3, -0x1.34e2dcp-3, -0x1.2f6f92p-7, 0x1.58f82p-3, 0x1.90e17cp-5, 0x1.687e24p-6, 0x1.1d47aap-4, 0x1.a2e21ap-4, -0x1.300ef4p-5, 0x1.f58c04p-4, 0x1.ec8016p-5, 0x1.53dbb4p-3, 0x1.083d8p-3, 0x1.72c4c8p-3, 0x1.6f525ep-3, -0x1.08e77ep-5, -0x1.31bf1p-3, 0x1.aa224ap-5, -0x1.0e835ap-3, -0x1.4d5542p-4, -0x1.6dd142p-3, -0x1.13adfap-3, 0x1.a01fbap-3, 0x1.e2372ep-4, 0x1.45a5c4p-3, -0x1.7af358p-4, 0x1.a9b194p-5, 0x1.b5fd86p-3, 0x1.47622p-3, 0x1.8ce29cp-4, -0x1.006762p-3, 0x1.30feb8p-3, 0x1.6f6f0cp-3, -0x1.568274p-4, -0x1.23b3d6p-4, -0x1.8da4b2p-5, -0x1.6e12ap-3, -0x1.1acc5cp-3, -0x1.1f05bp-3, -0x1.0cbc62p-3, 0x1.74285p-4, -0x1.b4ad34p-5, -0x1.ff0546p-5, 0x1.3ec914p-3, -0x1.98b2e4p-3, -0x1.02ce1cp-4, -0x1.d72b68p-3, 0x1.bacc1cp-7, -0x1.3bde7ep-4, -0x1.546682p-3, -0x1.0b5eeep-3, 0x1.62f9c8p-5, 0x1.50cd22p-4, 0x1.043e08p-2, -0x1.1d6d04p-10, 0x1.213536p-3, -0x1.ff7134p-4, 0x1.58b1dap-3, -0x1.03226ep-3, 0x1.03d964p-5, -0x1.22abeep-3, -0x1.56af62p-3, -0x1.a022eep-6, -0x1.63cfdp-3, -0x1.458282p-4, -0x1.7b717p-3, 0x1.ee97p-4, 0x1.ee2bcap-5, 0x1.4d7fe2p-4, 0x1.823a84p-6, 0x1.0558ep-3, 0x1.e6cc2ep-5, 0x1.f47c26p-4, 0x1.88db06p-4, 0x1.9a4f9cp-5, -0x1.4a95fcp-4, 0x1.a9a0a4p-6, 0x1.a457e2p-4, -0x1.62e9eep-3, 0x1.5fe3eep-4, 0x1.65d668p-3, -0x1.284606p-3, -0x1.e5db2ap-5, 0x1.a38274p-3, 0x1.14f1f8p-3, -0x1.a56b82p-3, -0x1.b5751p-4, -0x1.471184p-7, -0x1.76de94p-4, 0x1.552f58p-3, -0x1.cbd148p-3, -0x1.aa5faap-5, -0x1.12f6c4p-3, 0x1.3b5dccp-6, -0x1.469d9ap-4, 0x1.1c7fa8p-6, -0x1.addc18p-5, 0x1.03292p-3, 0x1.6a00cep-5, 0x1.06a0ep-3, 0x1.98bb3p-3, -0x1.b79e36p-5, -0x1.0d3986p-3, 0x1.e1bfe6p-5, 0x1.4557b6p-4, -0x1.32d90cp-3, -0x1.686bc8p-4, -0x1.394a2ap-5, 0x1.3545aap-4, 0x1.bc687p-5, 0x1.83a8bep-7, -0x1.465a6ap-7, 0x1.414a8ap-3, 0x1.ae1458p-4, 0x1.e768bp-5, 0x1.6dac7p-5, 0x1.a9b6cap-4, 0x1.6e30c6p-4, 0x1.1dd68cp-4, 0x1.6fb1f6p-3, 0x1.da1eccp-6, 0x1.20f158p-5, 0x1.152c68p-3, 0x1.c10d2p-6, 0x1.7835f6p-8, 0x1.578c1cp-3, 0x1.50721p-3, 0x1.31c216p-5, -0x1.5d7168p-3, 0x1.9f4008p-6, -0x1.f02454p-7, -0x1.0e88a6p-4, 0x1.c6d26p-5, -0x1.b8b5dep-4, -0x1.9fae12p-3, -0x1.75e42cp-3, -0x1.5a2bdcp-4, -0x1.4414dep-3, -0x1.f50d68p-5, -0x1.20e79cp-3, 0x1.2d4ef4p-3, -0x1.25f4d4p-3, -0x1.320584p-3, -0x1.094832p-4, 0x1.2a8bdap-4, 0x1.010e98p-5, -0x1.6046b2p-3, -0x1.1b65f8p-3, -0x1.0e4e9ep-6, -0x1.722d46p-3, -0x1.2cf99ap-3, 0x1.333bc6p-4, -0x1.7f2d62p-5, 0x1.cebfc4p-4, -0x1.9ae0fcp-3, 0x1.14a0e8p-3, -0x1.2eb3e4p-4, -0x1.9170dp-3, -0x1.bf8ec2p-4, 0x1.73cc1cp-4, -0x1.638d78p-3, 0x1.2a541ap-3, 0x1.4b84e8p-3, -0x1.9b4e34p-7, -0x1.57b5e2p-3, -0x1.0cf854p-3, 0x1.9d1e9cp-3, -0x1.9da81ep-4, -0x1.f079f8p-3, 0x1.2640c6p-4, 0x1.287804p-8, 0x1.56c40cp-3, -0x1.05121ep-5, 0x1.2cb28ap-3, -0x1.9dbe3ep-4, -0x1.378a6ap-5, 0x1.4eea12p-4, 0x1.79cc14p-4, -0x1.727f6cp-4, -0x1.0c638ep-8, 0x1.f0b566p-4, 0x1.470908p-3, 0x1.ebe968p-6, -0x1.725772p-3, 0x1.58a874p-3, -0x1.cb90a8p-4, 0x1.239fdep-3, -0x1.17086cp-3, 0x1.10a066p-4, 0x1.b4fdc6p-11, -0x1.b05a92p-4, 0x1.b23c4p-3, 0x1.6f28e6p-3, 0x1.f27d38p-4, -0x1.1fc95p-3, -0x1.efbfaep-4, -0x1.9475e4p-3 };
l_struct_OC_k2c_tensor dense_13_output __ATTRIBUTE_WEAK__;
l_struct_OC_k2c_tensor dense_14_kernel __ATTRIBUTE_WEAK__;
static float aesl_internal_sample0_OC_dense_15_kernel_array[512] = { -0x1.8b6facp-3, -0x1.002c16p-5, -0x1.10638p-2, 0x1.0081eap-6, -0x1.41d80ep-4, 0x1.91f3b2p-3, 0x1.f4857cp-8, -0x1.ed473ep-3, -0x1.87d14ap-7, -0x1.3c29a4p-2, -0x1.33ff58p-2, 0x1.69ad1ep-3, 0x1.8cbf7ap-3, 0x1.0503e2p-2, 0x1.5f25c6p-3, -0x1.244c64p-3, 0x1.8e76aap-4, 0x1.5a1362p-3, 0x1.359e3p-2, -0x1.76758ep-2, 0x1.cb8e9ep-3, -0x1.91586ep-4, -0x1.6c659p-3, 0x1.e8e89p-3, -0x1.7125aep-3, -0x1.1b923ep-3, -0x1.bec26p-4, -0x1.3b8bdep-2, 0x1.050358p-2, 0x1.954e78p-3, 0x1.ab1d4ap-3, -0x1.46174ep-7, 0x1.28e104p-6, -0x1.1f32e6p-2, -0x1.659d9p-4, 0x1.55422ap-2, 0x1.7eabb4p-2, -0x1.721ccap-3, -0x1.cd4e68p-3, 0x1.9b5edp-2, -0x1.52f8bep-2, -0x1.36100ap-2, -0x1.853358p-3, -0x1.74af56p-3, 0x1.056e38p-2, -0x1.3bb404p-3, 0x1.b9e852p-3, 0x1.c53ea2p-3, 0x1.4fc9f2p-3, -0x1.754096p-2, 0x1.6da79ap-3, -0x1.b031a2p-3, 0x1.32eec4p-3, 0x1.5e7b26p-4, -0x1.9143dcp-5, 0x1.6ba382p-2, -0x1.0b085p-3, 0x1.520234p-3, 0x1.15b6a4p-2, -0x1.225136p-2, 0x1.2276dap-4, -0x1.0f7a28p-3, -0x1.457d84p-7, -0x1.0f9cdap-2, -0x1.115a68p-2, 0x1.13aeacp-6, -0x1.5c2124p-2, 0x1.3b9216p-2, 0x1.0a0388p-2, -0x1.b6bfbcp-4, 0x1.653d4ap-3, 0x1.2e59b4p-2, -0x1.1c59c4p-2, -0x1.2b828ap-2, -0x1.12f4ecp-7, 0x1.622b0ap-5, 0x1.5ebbb6p-5, 0x1.c3dddcp-3, 0x1.64cb72p-2, 0x1.1f8f88p-2, 0x1.3d956p-3, -0x1.f3f6fap-4, -0x1.fc3792p-4, -0x1.5aa8c4p-6, -0x1.39f402p-2, 0x1.83b2eap-2, -0x1.1b56f8p-2, -0x1.0c97aap-2, 0x1.a6a9c4p-3, 0x1.1188dp-6, -0x1.08bc7cp-3, -0x1.3f52f8p-2, 0x1.97eb3ep-3, -0x1.026972p-4, 0x1.15941ap-2, 0x1.2fdcaap-2, 0x1.454d12p-6, -0x1.7aa3dp-3, -0x1.a892bp-5, 0x1.6a2e72p-3, -0x1.462d04p-4, 0x1.bf30cap-5, -0x1.c04b6cp-7, 0x1.59f628p-2, -0x1.6104f2p-8, -0x1.e71f98p-7, -0x1.7e342ap-5, -0x1.30b0f4p-2, 0x1.58913ep-2, 0x1.bf03e6p-5, 0x1.85b272p-3, 0x1.7942aep-4, -0x1.d5768ep-3, 0x1.019104p-3, -0x1.6a24cap-3, 0x1.aa7534p-3, -0x1.9e3d98p-7, 0x1.b6cf3p-3, -0x1.181f0ep-2, -0x1.145eeap-2, -0x1.0eda58p-2, -0x1.f2477p-5, -0x1.966b3cp-4, 0x1.11e14cp-2, 0x1.38674ep-2, -0x1.026b64p-3, -0x1.f1faccp-3, -0x1.32e088p-4, -0x1.315a7cp-2, -0x1.d99a6ep-3, -0x1.c280aep-4, 0x1.8b446ap-2, -0x1.1565ap-2, 0x1.04bdf8p-3, -0x1.97537p-3, 0x1.841308p-2, -0x1.3190c4p-3, -0x1.53dc0ap-7, -0x1.2c9674p-2, -0x1.095fcap-2, 0x1.63c704p-3, -0x1.856888p-6, 0x1.25d5cp-2, 0x1.375a3p-4, 0x1.39a436p-4, -0x1.4b98fcp-3, -0x1.0cf59ep-2, 0x1.4084acp-3, 0x1.9e938ap-4, -0x1.422748p-4, 0x1.215908p-2, 0x1.b54c48p-3, -0x1.1a22cp-4, -0x1.7547e2p-2, -0x1.2cc29p-5, 0x1.6b0824p-3, -0x1.462fcep-4, -0x1.f2c7e2p-3, -0x1.6e5dfcp-3, 0x1.b9ef6p-3, -0x1.35309p-2, 0x1.703536p-3, 0x1.2b9f9ep-2, -0x1.276cd4p-3, -0x1.52f79cp-3, -0x1.d205e6p-3, 0x1.fe1186p-4, -0x1.089e46p-4, 0x1.1c811ap-2, -0x1.f4492cp-3, -0x1.3add8cp-2, -0x1.4f7524p-2, -0x1.47d082p-3, 0x1.f83f26p-3, 0x1.fe23d8p-5, -0x1.7757ep-3, -0x1.5d8a26p-4, -0x1.639b08p-4, 0x1.80c104p-3, 0x1.d4fcbp-3, 0x1.5e351cp-3, -0x1.98aa32p-4, -0x1.8fb532p-5, -0x1.6e7362p-4, 0x1.09a55p-8, -0x1.4889eep-4, 0x1.3ba532p-3, -0x1.bed0aep-3, -0x1.e7ed8ep-5, 0x1.379f1ep-2, -0x1.2d2b86p-5, -0x1.7f6c5ep-5, -0x1.eca47cp-4, -0x1.134a0ep-2, 0x1.22183p-4, -0x1.0c0ae6p-2, -0x1.04d3b8p-3, -0x1.1a09dep-3, -0x1.63edbcp-4, -0x1.524c74p-2, 0x1.9e56ap-5, -0x1.648c2ep-3, -0x1.205dc4p-2, -0x1.62e276p-3, 0x1.fc512cp-3, -0x1.5e9efap-3, 0x1.e3db12p-3, 0x1.fdd95ap-5, 0x1.9f9cdp-4, 0x1.7192dap-3, -0x1.0426d2p-2, 0x1.012e5p-3, 0x1.7dd86p-2, 0x1.c2678p-5, -0x1.499a8p-2, 0x1.d23bb2p-3, 0x1.286002p-2, 0x1.518398p-4, 0x1.9ad074p-3, 0x1.e5df4ap-3, -0x1.d4940ep-10, 0x1.5fa584p-5, -0x1.062d78p-2, -0x1.4d46cp-4, 0x1.1ce8fp-2, 0x1.021c24p-2, -0x1.09b2e4p-3, 0x1.3a953ap-5, 0x1.eb7e94p-6, 0x1.0983ep-3, 0x1.35c66cp-3, 0x1.7221f8p-2, 0x1.6c1a44p-2, -0x1.81ac7p-4, -0x1.f0d09ep-4, -0x1.559b14p-6, 0x1.dcd44p-5, -0x1.24a3cep-2, 0x1.695354p-4, -0x1.36dcdcp-3, -0x1.ba1a78p-3, -0x1.7a7a9p-5, -0x1.3424c8p-2, 0x1.119266p-8, -0x1.92b03cp-3, 0x1.bd5f92p-5, 0x1.70fb6cp-3, -0x1.4c21c6p-3, 0x1.2e04d8p-6, -0x1.6bf01ap-2, 0x1.974352p-4, 0x1.bfb416p-3, 0x1.8a2684p-4, 0x1.1a2e12p-4, -0x1.65b116p-5, -0x1.4f3324p-2, 0x1.2e0766p-3, 0x1.01f16cp-2, 0x1.923fdep-3, -0x1.1e3fa6p-3, 0x1.6aa534p-7, -0x1.4aea1p-4, -0x1.132526p-2, 0x1.9cfa46p-4, -0x1.dd4d28p-3, 0x1.d1f74ap-5, 0x1.22a49cp-2, -0x1.bb257ep-4, 0x1.255022p-3, -0x1.8f0e6ap-3, 0x1.5255f8p-6, 0x1.61ca8ep-2, -0x1.be62fcp-4, 0x1.8052b2p-4, 0x1.994722p-3, 0x1.efff92p-5, -0x1.d61e2cp-5, -0x1.2f9a3cp-2, -0x1.56c506p-2, 0x1.3c1174p-2, 0x1.bd3c2ap-3, -0x1.38ed84p-4, 0x1.ae6676p-3, 0x1.556076p-4, 0x1.ef231p-3, -0x1.856048p-3, -0x1.e08322p-5, 0x1.3e325ep-4, -0x1.45d98ap-3, 0x1.f64a3ep-7, -0x1.9b69dep-5, 0x1.bfbc6p-4, -0x1.048f72p-4, -0x1.2911c6p-2, -0x1.15baa4p-2, -0x1.004322p-5, -0x1.171fecp-2, 0x1.cee668p-3, -0x1.9937f6p-4, -0x1.782cfcp-5, 0x1.529946p-2, -0x1.d1c32ap-8, -0x1.e3ba66p-3, -0x1.e00f88p-9, 0x1.5ce704p-3, -0x1.edb04ap-3, -0x1.577848p-2, 0x1.623cdp-5, 0x1.31653cp-8, -0x1.7f1838p-2, 0x1.29af2ap-2, -0x1.a2a148p-4, -0x1.38804p-2, 0x1.b5966ap-4, 0x1.64f28p-3, 0x1.c6fadcp-3, -0x1.df751ep-3, -0x1.b2d8acp-4, -0x1.17cf04p-2, -0x1.ca45ep-6, 0x1.4f7894p-2, 0x1.4fbdfap-5, -0x1.8484ccp-4, 0x1.14e5c8p-2, 0x1.d54b8cp-3, -0x1.7d801ep-3, 0x1.5fcf7cp-5, -0x1.7c3294p-3, -0x1.39897ep-5, -0x1.a14d7cp-4, 0x1.9797b6p-5, 0x1.94f57cp-3, 0x1.2d0838p-2, 0x1.946144p-3, -0x1.05df8p-2, 0x1.23483cp-2, -0x1.63ff38p-2, 0x1.5b8d7ep-2, 0x1.6e69f8p-2, 0x1.4adf1ap-2, -0x1.3e5538p-3, 0x1.b1905cp-3, 0x1.7df322p-8, -0x1.c806ecp-4, 0x1.2a2a12p-2, -0x1.3c3706p-2, -0x1.601e8ep-3, -0x1.1dfc22p-2, 0x1.c23dccp-3, -0x1.0e481ep-2, -0x1.1f63c2p-3, -0x1.1107eep-2, -0x1.625d5cp-2, -0x1.571a9cp-3, -0x1.12d13ep-2, -0x1.63d9c8p-2, -0x1.2782d6p-6, 0x1.0ff54cp-5, -0x1.3b0eeap-4, -0x1.3555fp-2, 0x1.5174f4p-2, -0x1.755afcp-6, 0x1.6370dcp-2, -0x1.36d15ap-2, -0x1.2f54e2p-6, -0x1.565a96p-2, 0x1.b94e62p-4, 0x1.4e09f8p-3, -0x1.3b3cb8p-4, -0x1.4f2d18p-9, -0x1.3bd826p-3, 0x1.03d154p-2, 0x1.8bbab4p-2, 0x1.4ab974p-3, -0x1.0aee3ap-2, 0x1.2e33eep-2, 0x1.4197bap-3, -0x1.15042cp-3, -0x1.1d3dc8p-4, -0x1.d7ada6p-4, -0x1.3b201ap-4, 0x1.bd0e86p-3, -0x1.b6816ap-3, -0x1.0203e6p-2, 0x1.14998ap-5, 0x1.aadbcap-3, 0x1.91e22cp-2, -0x1.692e1p-6, -0x1.c47948p-3, 0x1.63a6eep-2, 0x1.9d2b7p-3, -0x1.f05832p-6, -0x1.732da4p-3, -0x1.90c4e2p-3, -0x1.6d4032p-3, -0x1.97decap-3, 0x1.7c0c44p-2, -0x1.919f58p-7, 0x1.f4d7eep-3, 0x1.f79802p-6, -0x1.e62ebep-5, 0x1.6677a4p-5, 0x1.4c43a4p-2, -0x1.01113p-3, 0x1.545f3p-2, -0x1.cc8c22p-4, -0x1.3cbe4ep-2, 0x1.60e10cp-5, -0x1.923c18p-7, 0x1.fc9eb4p-3, -0x1.3a34bep-3, -0x1.588f2p-3, -0x1.ad8304p-3, -0x1.0d6ff6p-2, -0x1.c7f1f2p-5, -0x1.22b46cp-2, 0x1.9d581p-3, 0x1.f08ddep-4, 0x1.e09c3ap-3, -0x1.c183c2p-3, 0x1.932edap-3, 0x1.15e5dp-2, 0x1.4b60e6p-3, 0x1.83742cp-3, 0x1.20881ap-2, -0x1.47e218p-2, 0x1.47b872p-2, -0x1.023fcep-6, -0x1.1fab04p-2, -0x1.2963b8p-2, 0x1.e6009ep-3, -0x1.d9f784p-5, -0x1.9c830ep-4, -0x1.63716ep-3, 0x1.587582p-2, -0x1.f744eep-3, -0x1.444c18p-4, -0x1.92ecbcp-4, 0x1.4f5282p-2, -0x1.d12e72p-3, -0x1.24349cp-2, 0x1.1aecbap-3, 0x1.9f40f4p-3, -0x1.2bfa1ap-3, -0x1.6d8dbp-3, -0x1.6d36fp-3, -0x1.1eb5eep-2, -0x1.548f6ap-3, -0x1.59876cp-4, -0x1.7737cep-4, 0x1.7931b8p-2, 0x1.527284p-2, -0x1.c2c6aap-3, -0x1.dca99ep-5, -0x1.ac1992p-3, 0x1.973282p-3, 0x1.480f58p-2, 0x1.8804e4p-4, 0x1.73704p-4, -0x1.4f3876p-4, 0x1.47cbfap-3, -0x1.e792dep-5, -0x1.423d82p-3, 0x1.33aaa2p-2, -0x1.bc3ea4p-3, 0x1.2d648cp-7, -0x1.591204p-2, -0x1.24138ep-5, 0x1.40918cp-2, -0x1.a30e84p-3, -0x1.22d3cep-2, 0x1.484514p-5, -0x1.58adbcp-2, 0x1.a9cadcp-4, 0x1.39b702p-2, 0x1.e7c5cep-4, 0x1.14f6f2p-2, 0x1.667118p-4, -0x1.59cba2p-3, 0x1.90042ap-4, -0x1.4324a2p-2, 0x1.120c8ap-5, 0x1.af6004p-3, -0x1.2badbap-2, -0x1.3b999ep-2, -0x1.30781ep-2, 0x1.c9462p-4, -0x1.35bd98p-2, 0x1.acd9aap-4, 0x1.44e116p-5, -0x1.5d9dcep-2, -0x1.462dcap-2, -0x1.65c318p-3, 0x1.c0f34ep-7, -0x1.28d3fp-2, 0x1.4f1dbep-2, -0x1.5f4384p-2, 0x1.24c012p-2, -0x1.59b842p-4, -0x1.161bfp-3, -0x1.af2d7ep-3, 0x1.1307bep-3, 0x1.62208ep-2, 0x1.6d7018p-3, 0x1.31b1d4p-4, 0x1.03ca22p-2, -0x1.b81f34p-6, 0x1.5e4722p-2, -0x1.cfbbc6p-4, -0x1.28276p-2, 0x1.17f98cp-10, 0x1.3145d6p-3 };
static float aesl_internal_sample0_OC_dense_14_kernel_array[4096] = { 0x1.4a7a0cp-3, -0x1.1b5a5p-3, -0x1.2133fp-5, -0x1.82a2e2p-4, 0x1.15dd5p-3, 0x1.6f5832p-3, 0x1.4befdap-5, -0x1.a9f4b2p-4, 0x1.2ad26cp-5, -0x1.9b4ff6p-3, 0x1.73e81cp-3, -0x1.32a7dap-7, -0x1.9b1936p-8, 0x1.179868p-6, -0x1.f0de56p-4, -0x1.555d9cp-3, -0x1.00b584p-4, 0x1.64442p-7, -0x1.c1c592p-4, -0x1.9d6b78p-4, 0x1.4f60bp-3, 0x1.f638b4p-4, 0x1.4dce52p-3, -0x1.9e85f4p-5, 0x1.a6b832p-4, 0x1.12b76ap-5, -0x1.82a0fp-6, 0x1.1b5c8ap-5, -0x1.066ebep-3, -0x1.96917ap-3, -0x1.28981cp-3, -0x1.3ce2dap-7, 0x1.1f3128p-3, -0x1.3a66b8p-3, 0x1.a34186p-4, 0x1.09d27ap-4, -0x1.6c1cdep-7, -0x1.53740cp-3, 0x1.920be8p-4, -0x1.6fa37ep-7, 0x1.2eada6p-3, 0x1.57f276p-6, -0x1.1f12d2p-4, -0x1.0661acp-3, 0x1.00b7c4p-5, 0x1.16491ap-3, 0x1.ad4866p-5, 0x1.76fdb8p-3, -0x1.529bccp-4, -0x1.6c59dp-6, -0x1.86c698p-4, 0x1.e9d6acp-4, 0x1.59556cp-5, 0x1.649c2ep-5, 0x1.bf9f62p-7, 0x1.4c6864p-3, 0x1.5615fp-3, -0x1.5f04a2p-4, -0x1.6d45dcp-5, 0x1.2c31bcp-3, -0x1.4b9a6cp-3, 0x1.588732p-3, -0x1.324e82p-5, -0x1.1f6648p-5, -0x1.62facep-3, -0x1.170418p-4, 0x1.2347ap-4, 0x1.589894p-3, -0x1.8b9ab8p-3, 0x1.10bc84p-3, 0x1.04a2eap-3, 0x1.5fc446p-3, -0x1.435c32p-4, 0x1.6a09ap-4, 0x1.a25324p-4, -0x1.63e0e6p-3, 0x1.9994acp-4, -0x1.471c76p-4, -0x1.45284cp-3, 0x1.285a0ap-4, 0x1.2378a8p-3, -0x1.96e7aep-6, -0x1.76692ap-3, -0x1.54a0cep-3, 0x1.76551cp-4, 0x1.3f90d8p-3, -0x1.73c142p-5, -0x1.15a25cp-3, -0x1.281cf8p-3, 0x1.4338bep-5, -0x1.c1ec1cp-7, 0x1.0feecap-7, 0x1.c2606ap-3, -0x1.326b6ep-3, 0x1.9b4674p-3, 0x1.b31628p-4, -0x1.5a769ep-4, 0x1.3011d4p-3, 0x1.50ead8p-5, 0x1.54b0c6p-3, -0x1.485a3ap-4, -0x1.60b4fep-5, 0x1.410d6cp-3, -0x1.4be2fp-3, -0x1.935c96p-4, -0x1.7da67ap-3, 0x1.d4f3f6p-6, -0x1.809e66p-4, 0x1.4fdbeep-4, -0x1.dac49ep-4, 0x1.598324p-3, -0x1.6050d6p-4, 0x1.027e04p-3, -0x1.f4668ep-5, 0x1.c05b18p-3, 0x1.5a4252p-3, 0x1.4dfb5ep-3, -0x1.50560cp-4, 0x1.30ec52p-3, 0x1.3799bcp-3, -0x1.f88716p-4, -0x1.4cd822p-8, 0x1.3e3782p-5, 0x1.5470d8p-4, -0x1.d993b6p-4, 0x1.69a9fcp-3, 0x1.ff7004p-4, -0x1.31fecap-3, -0x1.8d4612p-3, 0x1.026e6cp-5, 0x1.461726p-4, -0x1.d0eb04p-4, -0x1.23a53ep-3, 0x1.a485d8p-4, 0x1.68291ep-6, 0x1.468146p-4, 0x1.be1d8ap-6, -0x1.2007b2p-5, -0x1.4867d6p-5, -0x1.8349f4p-4, -0x1.ca543cp-7, 0x1.76453ap-4, -0x1.747d66p-4, 0x1.0733c4p-4, 0x1.da793ap-4, 0x1.7eb07p-5, -0x1.aae3b8p-5, -0x1.52983ep-4, 0x1.4012b6p-3, 0x1.2cf4acp-3, 0x1.c14a6ep-7, -0x1.20ca88p-4, 0x1.8b47c8p-4, 0x1.07a496p-3, 0x1.ce08ep-5, -0x1.5c8fd8p-3, -0x1.fa5f64p-4, 0x1.18aecap-3, 0x1.1a3034p-4, 0x1.76983ep-4, 0x1.7c814cp-5, 0x1.262d3cp-3, 0x1.1ba55ep-4, -0x1.228d04p-3, -0x1.dc6c8p-4, 0x1.3264fap-7, -0x1.9c959cp-5, -0x1.01e866p-4, 0x1.ec0f3p-6, -0x1.445bf6p-3, -0x1.d4d346p-4, -0x1.36b928p-3, 0x1.6018b6p-3, -0x1.791e9cp-3, -0x1.0e7096p-3, -0x1.cb782p-3, 0x1.f1642cp-4, 0x1.5a1a46p-4, -0x1.22446ap-4, -0x1.abf07ap-6, -0x1.9d48f8p-3, 0x1.caeeacp-3, 0x1.9c7b66p-4, 0x1.d5eac6p-4, -0x1.9d726ep-4, -0x1.74f24p-4, 0x1.21cdbep-3, 0x1.8cfcc8p-4, 0x1.1b8d12p-6, 0x1.93a3fap-4, 0x1.de0372p-3, 0x1.acda94p-3, -0x1.9e17bep-4, 0x1.022c0ap-3, -0x1.05949cp-3, -0x1.ebd49cp-4, -0x1.d6f348p-4, -0x1.e527ecp-4, 0x1.4f700ep-4, 0x1.5d0a48p-3, -0x1.f95c8ep-6, -0x1.0b6616p-4, 0x1.e4235ep-3, 0x1.4281fep-4, 0x1.a0789ap-4, -0x1.52228cp-5, 0x1.ab98fcp-5, 0x1.07ad9cp-9, -0x1.403f0cp-6, 0x1.43a122p-3, -0x1.f97d8ap-7, -0x1.42e6b2p-4, -0x1.b7359cp-3, 0x1.b80f66p-4, 0x1.c07742p-5, 0x1.57238ep-11, -0x1.1df1cap-3, 0x1.0d8fbap-3, 0x1.802924p-8, -0x1.c04fap-5, 0x1.a5848p-5, -0x1.7d82p-3, -0x1.0f923p-3, 0x1.f0e05ep-3, 0x1.598b76p-5, 0x1.fa8074p-4, 0x1.2365e4p-3, 0x1.979d02p-4, 0x1.3547p-3, 0x1.5452eep-3, 0x1.158462p-4, 0x1.0d0034p-5, 0x1.4d72a4p-6, -0x1.30d064p-4, 0x1.6401e8p-3, 0x1.3fb33ap-3, -0x1.cf5196p-4, -0x1.528032p-3, 0x1.39353ap-5, -0x1.0be2b6p-4, -0x1.2d6fe2p-4, -0x1.dc77b4p-4, -0x1.649078p-3, -0x1.38a254p-4, -0x1.568facp-5, -0x1.243b52p-3, 0x1.611bb6p-5, 0x1.70e104p-4, 0x1.75c5e2p-3, 0x1.fc6b58p-4, 0x1.c266fp-3, -0x1.600b7ep-3, 0x1.c87ed4p-3, -0x1.7e1c86p-6, 0x1.68f1c2p-4, -0x1.263734p-4, -0x1.a8a2cap-7, -0x1.5ccb08p-7, 0x1.6b3544p-3, -0x1.9ab2f2p-5, -0x1.47662ep-3, -0x1.e4423ep-4, 0x1.5aae3ep-3, -0x1.4d47acp-3, 0x1.8b8c7ap-5, -0x1.dcc624p-4, 0x1.c0f64ep-3, -0x1.e8953ap-9, 0x1.645e26p-5, -0x1.c45a06p-10, 0x1.66acf4p-5, -0x1.6da912p-3, 0x1.649068p-4, 0x1.c24a2ap-4, -0x1.10be4ap-5, 0x1.f17658p-5, -0x1.8d71dcp-3, -0x1.6629eap-4, -0x1.8347c2p-5, -0x1.ac6a86p-8, 0x1.35043ap-3, -0x1.11972p-3, -0x1.c8d778p-4, -0x1.9dc05ep-4, 0x1.edcc58p-4, 0x1.90ec8ep-12, 0x1.6f8834p-3, 0x1.99ef5ep-5, 0x1.7a8808p-5, -0x1.bb49dp-5, -0x1.0239bp-3, 0x1.9614ep-4, 0x1.cccb4cp-4, 0x1.81c058p-8, 0x1.9d96fep-4, 0x1.457502p-7, -0x1.37f356p-3, 0x1.31c402p-3, -0x1.107cb6p-5, -0x1.3b8f18p-4, 0x1.29e4bep-3, -0x1.5c014p-3, -0x1.31cb9ep-3, -0x1.570d12p-6, -0x1.337168p-3, -0x1.20cfap-3, 0x1.e4b80cp-4, 0x1.392c02p-3, 0x1.896c28p-7, 0x1.b1306ap-3, 0x1.4bd6cap-3, -0x1.6a0fa2p-6, 0x1.7b65e6p-6, 0x1.dcbd2cp-4, 0x1.3dca96p-5, 0x1.3ba7dap-3, 0x1.9b46acp-6, 0x1.4e239ep-4, 0x1.5efdfp-3, -0x1.4cd5f8p-5, 0x1.37cf74p-4, 0x1.93fdcep-4, -0x1.967934p-3, -0x1.67407ap-4, -0x1.234332p-3, -0x1.67ad6cp-7, 0x1.22d88ap-3, -0x1.176036p-4, 0x1.b2a088p-8, 0x1.f77822p-5, 0x1.ae2074p-4, 0x1.6284ecp-5, -0x1.3bac66p-3, -0x1.88afbap-5, -0x1.b30458p-4, -0x1.c02c4cp-3, 0x1.f5f776p-4, -0x1.ee2732p-5, -0x1.4570a2p-3, 0x1.5245d8p-4, -0x1.1ed852p-4, 0x1.c0e09ap-7, -0x1.232996p-4, 0x1.b66728p-5, 0x1.f41e04p-4, 0x1.a94f3ap-4, 0x1.bdea0ap-4, 0x1.d4696ep-4, 0x1.903a02p-3, -0x1.5c4e7ep-5, -0x1.43ee96p-3, -0x1.1bb05p-3, 0x1.aeac8ep-5, -0x1.31877p-11, -0x1.f4dc5ap-4, -0x1.30eab8p-3, 0x1.1d92bp-3, -0x1.41a82cp-3, 0x1.5c5636p-3, -0x1.7b4d42p-4, -0x1.2d6f6ap-3, -0x1.9b5d2cp-4, 0x1.39c464p-3, -0x1.4e0686p-9, 0x1.f0b6d2p-4, 0x1.14897p-3, 0x1.1ee278p-3, 0x1.a9df3ap-3, -0x1.49a812p-5, 0x1.b63fbep-3, 0x1.a0ded4p-3, -0x1.596fa4p-5, -0x1.13e89ep-3, -0x1.4830fap-8, -0x1.7d8e36p-3, -0x1.5b2a98p-4, -0x1.21c1f2p-3, 0x1.7d140ap-3, -0x1.0ba5c2p-4, 0x1.694564p-3, 0x1.fb1488p-7, 0x1.0654cp-6, 0x1.b13a1cp-6, -0x1.386206p-3, -0x1.a7802cp-5, -0x1.9e753ep-4, 0x1.bc6ea2p-4, 0x1.89898ap-5, 0x1.9e2236p-3, 0x1.4f18aap-3, 0x1.7fa734p-3, -0x1.97125cp-4, 0x1.349d8cp-5, -0x1.7dbb0cp-3, 0x1.a5af7p-4, -0x1.247caap-3, 0x1.702abp-3, -0x1.fabbe2p-5, -0x1.11938p-3, 0x1.d31f34p-4, -0x1.2b4ce4p-7, 0x1.4bce7p-4, 0x1.1544e4p-7, -0x1.92f86ep-4, -0x1.18ab62p-5, 0x1.3a180ep-3, -0x1.26ae4ap-3, 0x1.0d7d56p-4, -0x1.ea269ep-6, -0x1.24395p-3, -0x1.04a2e6p-3, -0x1.0f591p-4, -0x1.4c33a4p-3, -0x1.55a7d8p-8, -0x1.550582p-5, 0x1.ddba9ep-5, 0x1.d4cac2p-4, 0x1.585acp-3, 0x1.6eb0bep-6, -0x1.0f23f4p-3, 0x1.1c6c28p-4, 0x1.22bf3p-3, -0x1.3ab13ap-3, -0x1.67df38p-3, 0x1.896736p-4, -0x1.65fea8p-4, 0x1.ce5a08p-3, 0x1.f67dc4p-4, -0x1.a3dcb4p-5, -0x1.2a4c4ap-3, 0x1.dd18c4p-5, -0x1.3ddfccp-3, 0x1.9400d4p-3, 0x1.79de1ep-5, 0x1.c38d5cp-5, 0x1.e57ea4p-5, -0x1.146f3cp-3, 0x1.14e73ep-3, -0x1.3186bep-3, -0x1.c975bep-4, 0x1.b33a24p-6, 0x1.ac1402p-4, 0x1.9f4994p-3, -0x1.b2a5aap-5, -0x1.7b3102p-6, -0x1.338fd8p-11, 0x1.032ff6p-5, -0x1.fb0abcp-6, -0x1.4e5bbcp-3, -0x1.f54896p-5, 0x1.e24302p-6, 0x1.29569ap-5, 0x1.639d66p-4, 0x1.8956bcp-3, -0x1.bbe082p-4, -0x1.97e27ap-3, 0x1.2a67d2p-4, -0x1.49d2f6p-3, -0x1.2b33d2p-4, -0x1.9f3632p-3, -0x1.43d294p-5, -0x1.63d88ep-6, 0x1.7e8718p-3, -0x1.7f8512p-3, -0x1.626e2p-13, 0x1.b2055p-5, -0x1.19121p-3, 0x1.8b2d4cp-4, 0x1.586014p-4, -0x1.020308p-3, -0x1.0eb44cp-3, 0x1.b60192p-5, 0x1.278c7ap-3, 0x1.f49b96p-6, 0x1.bbc39ap-3, 0x1.5c1078p-5, -0x1.2ba6dp-10, -0x1.44b2a2p-4, -0x1.722d96p-5, 0x1.3c6eacp-5, -0x1.faec08p-7, -0x1.40f9a4p-3, -0x1.723ff4p-6, 0x1.421d4ap-3, 0x1.5f9698p-5, 0x1.062b8ap-3, -0x1.1ca628p-6, 0x1.87086ap-3, 0x1.9d71bp-4, 0x1.57a14p-3, -0x1.41eb5ep-5, -0x1.67d0d8p-4, -0x1.1719b6p-5, 0x1.75b27p-5, 0x1.351ca4p-3, -0x1.444114p-4, 0x1.326b62p-3, 0x1.c543a8p-3, 0x1.3ee694p-9, -0x1.35aabcp-6, 0x1.6b32dp-3, 0x1.72899ap-3, 0x1.feb092p-5, -0x1.d7098ep-5, 0x1.87a67cp-3, 0x1.2da73cp-3, -0x1.539178p-3, 0x1.6d57a2p-3, 0x1.6799dcp-4, -0x1.2ecc6ap-3, -0x1.a58fe2p-3, -0x1.a67f32p-5, -0x1.dbe8dap-4, -0x1.7f70a6p-4, 0x1.090292p-3, 0x1.4144ecp-3, -0x1.08589ap-5, -0x1.21254ep-3, 0x1.92741p-3, -0x1.4535c2p-3, 0x1.4f724cp-4, -0x1.24fa84p-3, -0x1.51f986p-4, -0x1.b9dc82p-7, 0x1.6217fep-7, 0x1.6136eep-3, -0x1.e78e98p-5, 0x1.cb563p-3, -0x1.680e66p-4, 0x1.6dc70ep-4, -0x1.d23184p-4, -0x1.03c7eap-3, 0x1.d3b5dep-7, 0x1.f6260cp-4, 0x1.4cabbp-3, -0x1.a11158p-5, -0x1.edb792p-8, 0x1.35e134p-3, -0x1.84dfa4p-5, -0x1.8943a8p-6, -0x1.4cbf44p-3, 0x1.b73e9cp-3, 0x1.037168p-4, 0x1.bf5faap-7, 0x1.ea6e2ep-6, 0x1.9746d2p-4, -0x1.08ed88p-3, -0x1.3d18aep-6, -0x1.310de8p-6, 0x1.4cbbdap-6, 0x1.6ba466p-3, 0x1.279d46p-3, -0x1.bdd5bp-4, 0x1.e9b6bap-4, -0x1.62d6cp-4, 0x1.92be58p-4, -0x1.1a5e22p-4, 0x1.134712p-4, -0x1.8c208p-3, 0x1.8dada8p-3, 0x1.2df426p-3, 0x1.69bf1cp-5, 0x1.db42c8p-3, 0x1.57caaap-3, -0x1.e20844p-5, 0x1.15aabap-4, 0x1.dda49ep-4, 0x1.e020f8p-4, -0x1.8f489p-4, 0x1.5b7078p-3, -0x1.5cec8ep-3, -0x1.9b4572p-3, 0x1.649274p-3, -0x1.182cb8p-5, 0x1.3038b6p-4, -0x1.26fa4cp-4, -0x1.c28522p-4, 0x1.eecc94p-5, 0x1.77cd0ep-3, -0x1.376f86p-4, 0x1.8d8642p-3, -0x1.b7fd04p-4, -0x1.4e3f62p-5, 0x1.d000c2p-4, 0x1.e4c75ap-5, 0x1.2718acp-4, -0x1.0fa8cep-4, 0x1.a76b4ap-4, 0x1.0a7644p-6, -0x1.e6890cp-4, 0x1.2bd4f2p-5, 0x1.5fe1fep-3, 0x1.bac328p-6, 0x1.0cef26p-3, -0x1.3dbd6cp-5, 0x1.ff3908p-4, 0x1.1a6c52p-3, 0x1.d08042p-4, -0x1.0f9d88p-5, 0x1.f4d3c6p-11, 0x1.d9603p-10, -0x1.c9ff7ep-5, 0x1.02689ep-4, 0x1.999f06p-6, 0x1.40dacep-3, 0x1.791546p-3, -0x1.659564p-3, -0x1.ba1034p-9, 0x1.311b2cp-3, -0x1.3c39cap-4, 0x1.226ffap-3, -0x1.258698p-6, 0x1.301498p-4, 0x1.230da2p-3, -0x1.938a7cp-5, -0x1.7ad708p-3, -0x1.9ca566p-7, -0x1.fcf6a4p-5, -0x1.d5ea5ep-6, -0x1.0cd50cp-6, -0x1.b2d3e4p-4, 0x1.c370a6p-4, 0x1.8dc7b4p-3, -0x1.afa624p-13, -0x1.7df54ap-4, -0x1.a9a62ep-6, 0x1.485d8p-5, -0x1.daca56p-4, 0x1.66f048p-4, 0x1.429c68p-5, 0x1.1fca62p-4, -0x1.48ebaap-3, 0x1.26ac2ap-3, 0x1.79998ap-3, 0x1.d190c4p-9, 0x1.3f3dc4p-4, -0x1.cd0bcep-5, -0x1.720524p-3, -0x1.e191e2p-5, -0x1.d9589ap-4, -0x1.463f4p-3, -0x1.70c90cp-3, -0x1.5dbdd6p-3, -0x1.aeb00ep-5, -0x1.910f8ep-4, -0x1.a57d7cp-4, 0x1.ba7b9p-3, -0x1.d11156p-5, -0x1.d55a2ap-4, -0x1.56286ep-6, -0x1.cd25dcp-4, 0x1.4f4a78p-10, -0x1.441e7ep-3, 0x1.3e8838p-5, 0x1.566cd2p-5, -0x1.c8ce2ep-4, -0x1.0726p-3, -0x1.ec5934p-13, 0x1.8ce396p-3, 0x1.14c6c4p-6, 0x1.53c842p-4, 0x1.1e435ep-3, 0x1.c3ae94p-9, 0x1.75c508p-3, 0x1.5bb984p-4, -0x1.0d9994p-3, -0x1.1684e6p-3, 0x1.040962p-5, -0x1.e77caep-4, 0x1.46b5a4p-3, -0x1.d82412p-7, -0x1.148dfcp-3, 0x1.cda44p-5, 0x1.43c602p-5, 0x1.1472ccp-3, -0x1.d50416p-4, 0x1.352902p-3, 0x1.d1ca0ap-4, 0x1.ad74acp-7, 0x1.a1dc24p-5, 0x1.889f36p-5, -0x1.14402cp-3, -0x1.5009d4p-7, -0x1.c55ad2p-5, 0x1.88a2c8p-3, 0x1.36a5d4p-4, -0x1.12e8acp-3, -0x1.543a36p-7, -0x1.1c987p-4, 0x1.6e3deap-3, 0x1.a76668p-5, -0x1.746e68p-3, 0x1.366476p-4, 0x1.6fb258p-3, 0x1.3a84fp-4, 0x1.6db9ecp-3, 0x1.ff97ccp-5, -0x1.f02a16p-4, 0x1.53f4f6p-6, -0x1.4de35ap-5, 0x1.3d8f76p-4, 0x1.7b5c1ep-5, -0x1.ce7aa4p-6, 0x1.84ad66p-3, 0x1.395fbep-3, 0x1.b8405ap-4, -0x1.e61d3ep-4, 0x1.09cf6cp-4, -0x1.1b8a66p-5, -0x1.9add82p-6, -0x1.d433e8p-4, 0x1.488c52p-3, 0x1.5ba7d6p-4, -0x1.8636e4p-3, 0x1.5a8b5cp-3, -0x1.1b0d5cp-3, -0x1.4ec114p-3, 0x1.2d1ee2p-3, -0x1.a0ccap-7, 0x1.54ad02p-4, 0x1.22464ap-5, 0x1.cc6f74p-4, -0x1.0404b2p-4, -0x1.1aa66cp-3, -0x1.2049fep-3, -0x1.22b4c6p-3, -0x1.703e62p-4, -0x1.ab89f4p-5, -0x1.1a4ea4p-3, 0x1.0a76d8p-6, -0x1.11e45cp-3, -0x1.faa8ep-4, -0x1.6b9e8p-4, 0x1.ff8816p-4, 0x1.34f2b4p-3, 0x1.202146p-6, -0x1.40c292p-3, 0x1.361c7ep-4, 0x1.c82eb8p-4, -0x1.51d34ep-3, -0x1.6658bep-4, 0x1.0f381ep-4, 0x1.1425eap-3, -0x1.85526ap-5, -0x1.bebb1p-4, 0x1.63130cp-3, -0x1.943c5p-5, 0x1.1c3b7p-3, -0x1.3fed62p-3, 0x1.8e466p-4, -0x1.729dcap-4, -0x1.7a759cp-4, 0x1.4b7c9cp-4, 0x1.abad9p-3, -0x1.493a3ap-3, -0x1.d1c37p-5, -0x1.9e0964p-9, 0x1.2954f4p-3, 0x1.1d306ep-3, -0x1.090abp-4, -0x1.e7e7ccp-5, 0x1.132064p-3, 0x1.1a0354p-3, 0x1.9347ccp-4, 0x1.25a56p-4, 0x1.34dec8p-5, -0x1.5e9986p-10, 0x1.5d1692p-3, -0x1.43eb9p-3, -0x1.f246dcp-4, 0x1.246a3ap-5, 0x1.00b5ep-4, 0x1.d52acap-4, -0x1.706b9ap-4, -0x1.d8d564p-7, -0x1.3384p-3, 0x1.3c1fdap-3, 0x1.fd33c8p-4, -0x1.a2926ap-4, 0x1.8f74c4p-3, -0x1.fa1ccap-4, 0x1.e38fecp-5, -0x1.dc715ap-8, 0x1.20dc3ep-3, -0x1.2343d6p-6, -0x1.d4d0aap-4, 0x1.0ff24cp-3, 0x1.5ab6f6p-3, 0x1.068582p-3, 0x1.5c09bep-3, 0x1.c68df6p-5, 0x1.a4b23cp-4, 0x1.1b0f34p-3, -0x1.0be33ap-3, -0x1.9cd6e8p-4, 0x1.2974ccp-3, 0x1.8efa52p-5, -0x1.af747ap-4, -0x1.a88f9cp-9, 0x1.c4c40ap-7, -0x1.244f92p-3, 0x1.a16154p-3, 0x1.4c1572p-4, -0x1.1c5dp-3, -0x1.83750ap-3, 0x1.c73784p-7, -0x1.710ff4p-6, -0x1.7c07d4p-4, -0x1.2d0078p-4, 0x1.c116ecp-5, -0x1.350f7p-3, -0x1.a6196cp-4, -0x1.5827cp-4, 0x1.884ea8p-3, -0x1.58b3c4p-3, 0x1.cdfc1p-4, 0x1.4b685ep-3, -0x1.08448ap-5, -0x1.5e553ep-5, 0x1.fc0f3cp-4, -0x1.4f7098p-5, 0x1.5c6054p-3, -0x1.857c0ep-3, 0x1.8a4788p-7, 0x1.97ae68p-3, -0x1.9e24e2p-4, 0x1.3f27c2p-4, 0x1.a46338p-4, 0x1.95d9bap-6, 0x1.adac12p-5, 0x1.002466p-5, 0x1.03b8cp-6, 0x1.daf6c8p-7, -0x1.acf73p-6, -0x1.5abf78p-4, 0x1.26635ep-3, -0x1.cee0fep-5, -0x1.07aa6ap-4, -0x1.04b534p-6, -0x1.4118eep-4, 0x1.fbe21p-4, 0x1.1474ccp-4, 0x1.549a34p-4, 0x1.6af65ep-5, -0x1.6c176ep-3, 0x1.1107a8p-5, 0x1.6afd1p-3, -0x1.0ac808p-5, -0x1.6d6eb8p-3, 0x1.64ec94p-4, 0x1.160d0ap-3, 0x1.475d36p-3, -0x1.1d4dcp-4, -0x1.17f76ep-6, -0x1.b4cf8ap-4, -0x1.49f60ap-11, 0x1.f414a8p-4, 0x1.29488cp-3, -0x1.1f05fep-4, -0x1.9dba32p-4, 0x1.02f2c4p-4, 0x1.1ac596p-7, 0x1.37425ap-3, -0x1.0f75cep-3, 0x1.784f1p-6, 0x1.6a7532p-5, 0x1.cb7486p-7, -0x1.2b03cap-3, -0x1.ebdc5p-5, -0x1.776b06p-5, -0x1.4113cep-5, -0x1.df13a8p-4, 0x1.bf205ap-7, -0x1.cc6266p-4, 0x1.48b38ap-3, 0x1.b5addep-5, 0x1.57b6f8p-3, -0x1.fe6156p-6, 0x1.2fcfbap-8, -0x1.3b5402p-8, 0x1.c229b4p-5, -0x1.68b25cp-5, -0x1.eea0cp-8, -0x1.0a856ap-4, -0x1.4882dp-4, -0x1.90c688p-10, 0x1.fc0e26p-4, -0x1.9aaba8p-3, -0x1.f74616p-4, -0x1.f1d60ep-7, 0x1.024b52p-3, -0x1.f5f08cp-9, -0x1.580a98p-6, 0x1.f5d5ep-4, -0x1.27f90cp-5, -0x1.cb3702p-4, -0x1.e01a3p-7, 0x1.920918p-3, 0x1.ccdcccp-3, 0x1.4c38a2p-4, 0x1.e3b408p-7, -0x1.2a831ep-4, 0x1.6d464ap-3, 0x1.8625c2p-3, 0x1.3a9f82p-4, 0x1.325bc8p-5, -0x1.24759ap-6, -0x1.03b848p-5, 0x1.2994eep-4, 0x1.7536acp-3, 0x1.058628p-4, -0x1.ba65bap-4, 0x1.0b008ap-3, 0x1.c81742p-4, 0x1.6493f2p-4, 0x1.561cf2p-4, -0x1.fd4d2ep-5, 0x1.a891fp-3, -0x1.c1e7dcp-3, -0x1.63c6f2p-7, -0x1.509222p-3, 0x1.917388p-3, 0x1.6be3dp-4, -0x1.d42da2p-4, 0x1.40431p-3, 0x1.d4e52p-4, -0x1.0b0702p-5, 0x1.adf1dep-4, -0x1.00bf8cp-4, 0x1.63b43cp-3, -0x1.6236aap-4, -0x1.8e4c9p-4, -0x1.0ba486p-5, -0x1.06d2b2p-3, -0x1.4084cep-3, -0x1.90c508p-5, -0x1.af597ap-3, 0x1.c2736ep-4, -0x1.68ddd6p-3, -0x1.26771ep-5, -0x1.7f78b2p-5, 0x1.4b022p-3, -0x1.8752f2p-5, -0x1.1d792cp-4, -0x1.3f3ab6p-8, 0x1.463d4ep-3, -0x1.31d6f4p-4, -0x1.804b2ap-4, 0x1.4d3296p-8, 0x1.242872p-3, -0x1.019a56p-5, -0x1.df3e74p-6, -0x1.bc491cp-4, 0x1.bec80cp-3, 0x1.b196bp-3, -0x1.6acfb2p-5, -0x1.3eff7p-3, -0x1.9f57e2p-4, 0x1.74d672p-3, 0x1.5627f2p-4, 0x1.3b7b2ap-4, 0x1.c4a628p-5, -0x1.0a896ep-3, -0x1.0a091cp-6, 0x1.2fbb44p-4, 0x1.ff907ap-4, 0x1.8868f8p-3, 0x1.ac2832p-8, -0x1.c1441ep-8, -0x1.5560c2p-4, -0x1.684a4ap-6, 0x1.6ed9a4p-6, -0x1.7e804ep-3, -0x1.7518ep-4, -0x1.3f9516p-4, 0x1.7cf376p-4, -0x1.29a6c6p-5, 0x1.afbef6p-8, 0x1.6bec3cp-3, 0x1.5df448p-3, 0x1.899de2p-3, -0x1.b27052p-5, 0x1.261b8ep-5, 0x1.2eab9cp-3, 0x1.bb0c76p-3, -0x1.0287bp-5, -0x1.2f973ap-6, 0x1.014c18p-3, -0x1.2d85b6p-8, 0x1.663b8ap-3, 0x1.3013cep-3, 0x1.f98b6cp-4, 0x1.489234p-4, 0x1.761636p-3, 0x1.c4ac56p-3, -0x1.10e25ap-3, 0x1.b57484p-4, -0x1.62d87ap-3, 0x1.6e68c6p-6, -0x1.895da2p-3, 0x1.b0d86ep-4, -0x1.06bd02p-3, -0x1.57a68p-3, -0x1.91e9b2p-4, 0x1.67398cp-3, -0x1.a986d2p-5, -0x1.86506cp-6, -0x1.8ed726p-6, -0x1.d738a6p-4, -0x1.85df04p-5, -0x1.a3f8ecp-4, -0x1.52ef8p-5, 0x1.d1632cp-5, -0x1.61ea6ep-7, 0x1.509982p-3, 0x1.429ab6p-6, 0x1.bb219p-4, -0x1.ad4c02p-6, 0x1.7b1114p-5, -0x1.01869p-4, -0x1.922c42p-4, 0x1.65da5ep-5, -0x1.448f7ap-6, 0x1.37738p-5, 0x1.6fb206p-10, 0x1.758714p-3, -0x1.2f5c7cp-3, 0x1.538914p-3, 0x1.573fbp-4, -0x1.ea313ep-5, -0x1.e66bb2p-7, 0x1.ea76d2p-6, 0x1.01d428p-3, -0x1.f49d6cp-4, 0x1.6aa328p-3, -0x1.8161dep-6, -0x1.7ec6cap-6, 0x1.6c9c46p-3, 0x1.182ec4p-5, -0x1.6a505ap-3, 0x1.1bed5ap-4, 0x1.55aff6p-3, 0x1.8ca2p-3, 0x1.95378ap-5, -0x1.9660a8p-4, -0x1.1f2e76p-5, -0x1.213f36p-5, 0x1.1bcc6p-3, -0x1.789e66p-4, -0x1.334e8p-3, 0x1.aa913cp-5, 0x1.72ab96p-3, 0x1.5d435ep-4, 0x1.d20b32p-4, 0x1.1fe96cp-7, 0x1.d8b172p-4, -0x1.b0aba6p-3, 0x1.e9f4bap-4, 0x1.6091d8p-3, -0x1.7eb682p-3, -0x1.f04f8ep-4, 0x1.b9a7d8p-4, -0x1.732fd4p-4, -0x1.9bf346p-3, -0x1.6dc778p-4, 0x1.cac2c4p-4, 0x1.6149cap-3, -0x1.ba71p-4, -0x1.5becaap-4, -0x1.8008dep-4, -0x1.d9be4ap-4, 0x1.274564p-3, 0x1.243cd6p-7, 0x1.e89eb8p-3, -0x1.242204p-3, -0x1.738e88p-3, -0x1.25f9a2p-3, 0x1.8a4f5cp-3, 0x1.55b924p-3, 0x1.61cc0ap-4, 0x1.d253ep-3, 0x1.894dd2p-3, 0x1.e370dep-5, 0x1.b436dep-6, -0x1.86bb9cp-4, 0x1.f3f96cp-6, -0x1.f16222p-4, 0x1.65e068p-4, 0x1.553546p-3, -0x1.4eef4p-4, 0x1.8e128ep-3, 0x1.67c87ap-6, -0x1.56c648p-4, 0x1.543b42p-3, 0x1.42a96ep-3, -0x1.d57cc2p-4, 0x1.6be49p-5, 0x1.98ce68p-6, 0x1.79ec22p-4, 0x1.49071p-10, 0x1.db9d76p-5, -0x1.a6bd4p-4, -0x1.4020e8p-3, 0x1.79e0a8p-3, -0x1.a9b01p-4, 0x1.d40936p-5, -0x1.762a2ap-4, -0x1.90faa2p-4, 0x1.0c38a4p-4, 0x1.af95c4p-7, -0x1.b98f3ep-4, 0x1.22b426p-3, -0x1.19ae32p-4, 0x1.021522p-3, 0x1.051f68p-6, 0x1.071b06p-3, -0x1.d9412cp-4, 0x1.272fecp-7, -0x1.97c6fcp-5, -0x1.49643cp-4, 0x1.ceb09p-6, 0x1.23e646p-4, -0x1.53e06p-4, 0x1.716e18p-3, -0x1.636facp-3, -0x1.f23122p-4, -0x1.57d21ep-3, -0x1.56bc14p-3, 0x1.5ab328p-6, 0x1.087662p-4, -0x1.fee098p-6, 0x1.14e41cp-5, 0x1.85f68ep-6, -0x1.2a3dfp-3, 0x1.5760d6p-4, 0x1.c014f8p-4, 0x1.bc873ep-3, 0x1.494deap-3, -0x1.18c6e4p-7, -0x1.88806ep-3, 0x1.157978p-4, 0x1.6acf3ep-5, 0x1.99fc08p-3, -0x1.276a24p-5, -0x1.14105ap-5, -0x1.fa20bap-4, 0x1.d090eep-3, -0x1.c8b92p-6, -0x1.2b2b38p-6, -0x1.7bbe46p-9, -0x1.674dccp-4, 0x1.d7cbb6p-3, -0x1.7fcb36p-5, 0x1.4f20a4p-3, -0x1.2a7252p-4, -0x1.2a1816p-5, 0x1.f282a6p-4, 0x1.f9827ep-4, 0x1.52da66p-3, 0x1.62571ap-3, -0x1.1a4486p-10, 0x1.9d9c38p-5, 0x1.014eaap-3, -0x1.d58428p-4, 0x1.1145cap-3, 0x1.19df8cp-3, 0x1.133beep-4, -0x1.20eb92p-5, 0x1.51b902p-3, -0x1.d8f844p-6, -0x1.46041p-3, -0x1.644fa6p-3, -0x1.f61edap-6, -0x1.f4de46p-6, 0x1.2bc4f6p-3, -0x1.9f934cp-5, 0x1.27f1fp-3, -0x1.be1ab4p-4, 0x1.8df48cp-6, 0x1.8435f8p-4, -0x1.743842p-3, 0x1.1ee7ap-5, 0x1.928d8cp-4, -0x1.15381cp-6, 0x1.bc86cap-4, -0x1.2c6b86p-3, -0x1.291db4p-5, -0x1.3ad638p-4, -0x1.62e8bp-3, 0x1.0ba868p-4, 0x1.cfda18p-3, -0x1.4cc92ep-3, 0x1.cd43bep-6, 0x1.5f3e0ep-5, -0x1.650b48p-5, 0x1.1ed186p-5, 0x1.b3a778p-4, 0x1.3d94cep-6, -0x1.713602p-5, -0x1.97c65cp-5, -0x1.6f12dep-4, 0x1.ddb1bcp-4, 0x1.5e815cp-3, 0x1.5747d4p-6, 0x1.9a8918p-4, -0x1.1a9bc4p-7, 0x1.b0981cp-4, 0x1.fa9e04p-4, -0x1.c2b644p-5, 0x1.4d9932p-4, 0x1.829c7p-6, -0x1.866a3p-3, 0x1.5d643ep-5, -0x1.edadb4p-6, 0x1.e66484p-5, 0x1.59fa94p-3, -0x1.7bf5b2p-4, 0x1.a3a992p-3, 0x1.abe63cp-4, -0x1.3a739cp-4, -0x1.05e50ep-3, -0x1.0a8c6ep-7, 0x1.c67272p-4, 0x1.2f0192p-3, 0x1.41e956p-4, 0x1.2fd448p-3, -0x1.cd1938p-4, -0x1.48e5fp-6, -0x1.8962dcp-5, 0x1.a346bep-4, -0x1.41e444p-5, 0x1.1ef0b2p-3, -0x1.4a37e4p-3, 0x1.5a9206p-3, 0x1.11f0fap-3, -0x1.58069p-3, 0x1.82636ep-5, -0x1.e33bap-4, -0x1.97d344p-4, -0x1.20f66p-3, 0x1.97aa12p-4, -0x1.511ceap-5, -0x1.48d958p-8, 0x1.059906p-5, 0x1.acf0f8p-4, -0x1.37232p-3, -0x1.852a94p-5, -0x1.4fe706p-4, 0x1.7a4718p-5, 0x1.5fa086p-3, -0x1.fb5d6ep-4, -0x1.229a8p-3, -0x1.00f818p-5, -0x1.7a2316p-4, -0x1.4d9cf6p-4, -0x1.6f201cp-3, -0x1.fb744ep-6, 0x1.cc43fp-9, 0x1.4f84f2p-5, -0x1.b55bc6p-6, -0x1.3e8934p-3, -0x1.61fbf4p-4, 0x1.f09cc4p-4, 0x1.0ce962p-3, -0x1.3cd8ap-3, 0x1.3425ap-4, -0x1.ec9906p-6, -0x1.7dfedcp-7, -0x1.386dep-3, 0x1.79acecp-3, 0x1.6c812ap-4, 0x1.df6a9cp-4, 0x1.c872b6p-5, 0x1.b4878p-4, 0x1.d3e604p-7, 0x1.06a7c6p-3, -0x1.6e38cep-3, 0x1.12fcdcp-3, 0x1.d2bfaap-4, -0x1.551c4ep-4, 0x1.525c78p-4, 0x1.0bdbfcp-6, -0x1.289c96p-4, -0x1.7cb7cep-3, 0x1.ea5fa2p-4, 0x1.6b0552p-3, 0x1.3f1992p-3, 0x1.209898p-4, 0x1.468d9ap-5, -0x1.a0177ep-7, -0x1.cdfffcp-6, -0x1.b43f7cp-4, 0x1.4a06f8p-7, 0x1.1faa76p-4, 0x1.2414c4p-3, -0x1.70a2a4p-6, 0x1.988268p-6, -0x1.20b6a8p-3, 0x1.30af92p-5, -0x1.6cf436p-5, 0x1.38376ep-3, 0x1.637c7ap-3, -0x1.3cfd3cp-4, -0x1.6d9e9cp-3, 0x1.a420c4p-6, 0x1.70bb0ep-7, -0x1.2be4ep-4, 0x1.36acc8p-4, -0x1.4198ap-3, 0x1.c6a1acp-4, -0x1.59ae32p-5, 0x1.1c13ap-3, -0x1.1af906p-3, -0x1.43c3d8p-4, 0x1.a88d5ap-3, -0x1.49d918p-3, 0x1.21bfc4p-8, -0x1.131f64p-5, 0x1.3eb87p-3, -0x1.633be8p-3, -0x1.62d36ep-3, 0x1.9d80fcp-4, 0x1.17a278p-3, 0x1.bd92c8p-4, -0x1.c0fbb6p-5, -0x1.a1a414p-4, 0x1.af0644p-4, -0x1.eb78e4p-4, -0x1.0693acp-3, -0x1.9f1706p-4, 0x1.ccefbep-3, -0x1.62c0c2p-4, 0x1.7adcc4p-4, 0x1.004358p-5, -0x1.569adap-3, -0x1.31250ep-4, 0x1.884d6ep-3, 0x1.2f9f46p-5, -0x1.d1f98ep-5, 0x1.6448fep-3, -0x1.603054p-3, 0x1.c15fcp-3, -0x1.085ae4p-3, 0x1.1a7ffcp-3, 0x1.95a744p-3, -0x1.475cf2p-3, 0x1.1eaef2p-3, -0x1.430766p-4, 0x1.0c9efcp-5, 0x1.1410dcp-9, -0x1.20023ep-6, -0x1.209d8ap-4, 0x1.0034f6p-3, -0x1.4cee18p-3, 0x1.169b72p-4, 0x1.37ef0ap-3, 0x1.60f3aap-4, 0x1.351816p-4, 0x1.815df2p-4, 0x1.c0c658p-3, 0x1.fa1304p-5, -0x1.02bf64p-3, -0x1.0e8ad8p-5, 0x1.733b4p-3, -0x1.50b69cp-3, 0x1.ce4b88p-8, -0x1.34ac86p-7, 0x1.c4624ap-3, 0x1.fcba34p-6, -0x1.608e3ap-3, 0x1.fb806cp-5, 0x1.0c1b4ap-6, -0x1.598956p-3, 0x1.2d6c48p-4, 0x1.4b35d8p-3, 0x1.60772cp-3, -0x1.4510c8p-6, 0x1.967242p-3, 0x1.2a01ap-4, 0x1.78131ep-3, 0x1.5f9a84p-3, -0x1.076e6cp-3, 0x1.51d5bcp-4, -0x1.124cbep-4, 0x1.fb139ep-4, -0x1.010ca2p-4, 0x1.9b5584p-3, -0x1.20ae56p-3, 0x1.112fbap-4, -0x1.9b0338p-4, -0x1.01383ep-3, 0x1.747d3p-8, 0x1.bb7c0ep-4, -0x1.12d942p-4, 0x1.2f673cp-5, 0x1.ae69cp-5, -0x1.1d1588p-6, -0x1.1678d4p-5, -0x1.acf17ep-4, -0x1.bbbb4p-9, -0x1.569c6p-4, -0x1.91766ap-6, 0x1.8f3662p-4, -0x1.8efa7ap-6, 0x1.84e03cp-3, 0x1.2195c6p-4, 0x1.8842dp-4, -0x1.9afb2cp-7, -0x1.83c32cp-3, -0x1.34ed86p-5, 0x1.828704p-3, -0x1.29fa72p-3, 0x1.067246p-4, -0x1.687e8ap-5, 0x1.c61f46p-4, -0x1.3443ecp-6, 0x1.92512ap-3, -0x1.a70d6ep-3, 0x1.7c61ecp-5, 0x1.40d9f6p-6, 0x1.372bf8p-4, 0x1.c991cp-4, 0x1.d27eeep-4, -0x1.0a4a24p-4, 0x1.0db09p-3, -0x1.3279b6p-4, -0x1.0dc13ap-4, 0x1.29212cp-3, 0x1.6e45f2p-8, -0x1.91b5dcp-5, 0x1.80dc0ep-6, 0x1.1fd59p-3, -0x1.6be75cp-7, -0x1.e96002p-5, 0x1.0ce70ap-3, -0x1.e2821ap-5, 0x1.a8c762p-4, 0x1.0aa8bp-3, 0x1.42e0e4p-3, 0x1.ae27ccp-5, 0x1.44aadap-3, -0x1.21476ep-3, 0x1.cad7bep-3, 0x1.9d7ee2p-3, -0x1.02510cp-3, 0x1.bcec72p-5, -0x1.1abfeep-6, 0x1.04e9dep-3, -0x1.137d4ep-4, 0x1.6c17d8p-4, -0x1.66e6c4p-3, 0x1.67729ep-11, 0x1.fd5abp-5, 0x1.8a11c2p-5, 0x1.666004p-4, -0x1.02068p-3, -0x1.b7811ap-3, -0x1.dc472ap-8, 0x1.c13996p-8, 0x1.0a329ap-3, 0x1.2fe1dp-3, 0x1.b0e496p-3, 0x1.223fcep-3, -0x1.fd3df8p-9, -0x1.95f7d6p-6, 0x1.9823a2p-4, 0x1.2bc33ep-4, -0x1.0b715cp-3, 0x1.52fe38p-3, 0x1.2ac07ap-4, -0x1.89c17p-4, -0x1.4fea08p-3, 0x1.ca9daap-4, 0x1.1dcd5ap-3, 0x1.0c0bfp-3, 0x1.578cf4p-3, 0x1.0cc962p-5, -0x1.2a0a64p-3, -0x1.42f76p-4, -0x1.fc3268p-5, 0x1.eb6b1p-5, -0x1.a3f008p-3, -0x1.730f8ap-5, -0x1.1796ap-3, -0x1.6cc698p-3, 0x1.4ca0dap-3, 0x1.07c704p-3, -0x1.ce5014p-5, 0x1.d48c74p-4, -0x1.de5d62p-4, 0x1.39c772p-3, 0x1.390654p-4, -0x1.0deafp-4, 0x1.959a9ep-3, 0x1.f434f4p-7, 0x1.7212cp-7, -0x1.12557cp-4, -0x1.0f7ff6p-3, -0x1.61a7e4p-5, -0x1.5a805p-4, 0x1.d63ec4p-4, 0x1.7fb608p-5, -0x1.b8fc0cp-4, -0x1.f23dfep-5, 0x1.038c7cp-3, -0x1.628f4ep-3, -0x1.b1d906p-4, 0x1.a41138p-10, 0x1.a862ccp-6, 0x1.f2f65ap-5, 0x1.1f7a18p-3, 0x1.44c43ap-5, 0x1.1c011ap-3, 0x1.ae3bc6p-4, -0x1.80496ap-4, -0x1.783998p-3, 0x1.a1a3cep-4, -0x1.a08a58p-4, 0x1.0c184p-5, -0x1.739e18p-6, 0x1.a0c288p-4, -0x1.d9111ap-5, 0x1.b1030ap-5, -0x1.0cf34cp-3, -0x1.71c8c4p-4, 0x1.b1d96p-8, -0x1.29eb84p-11, 0x1.aa4f9ep-4, 0x1.7e54b4p-8, 0x1.77da02p-4, -0x1.69b468p-7, -0x1.986314p-3, 0x1.03b9e2p-3, 0x1.39999cp-3, -0x1.527fb6p-5, 0x1.1a95e2p-3, 0x1.4e1b9ap-6, -0x1.c8aeeap-5, -0x1.65f932p-3, -0x1.af01aep-4, 0x1.01bb9cp-3, -0x1.11fd44p-4, -0x1.8d0382p-4, 0x1.b069bcp-4, -0x1.238d1ap-5, 0x1.02218ep-3, -0x1.442994p-8, 0x1.58b4bap-4, 0x1.0d363ep-4, 0x1.5b21ccp-3, 0x1.791c76p-4, 0x1.6d34f6p-5, -0x1.fd9616p-6, 0x1.cf1e1ep-3, 0x1.71da6ep-4, -0x1.de9f6cp-7, -0x1.0a143cp-4, 0x1.1c945ep-6, -0x1.28d788p-3, -0x1.01b532p-4, -0x1.414f88p-4, -0x1.56109p-3, 0x1.2c88bap-3, 0x1.2bdadp-4, -0x1.50de4ap-6, -0x1.d48892p-4, 0x1.fc967p-4, 0x1.357556p-4, 0x1.50bab8p-3, 0x1.3dc7d6p-4, -0x1.b35bfap-4, -0x1.57b448p-3, -0x1.35f1eap-3, 0x1.7b8bb2p-4, 0x1.87afa8p-3, -0x1.1ad552p-4, 0x1.a9ee92p-3, 0x1.c7cc8ep-5, -0x1.6ca9e4p-3, 0x1.a6572p-3, 0x1.9bcb94p-5, 0x1.bbe8e8p-5, -0x1.0e3f5cp-3, 0x1.0be824p-3, -0x1.707d94p-3, 0x1.4d4814p-3, 0x1.1b16aap-3, 0x1.c714a2p-10, -0x1.7b7afep-4, 0x1.52b1c2p-4, 0x1.1ef69p-3, 0x1.703778p-3, 0x1.3797c4p-4, -0x1.292794p-6, 0x1.8d5fecp-7, 0x1.181b74p-3, 0x1.f66dfap-11, 0x1.594acap-3, 0x1.8546a6p-10, -0x1.215a3cp-3, 0x1.5bd0f4p-4, 0x1.f813e6p-7, 0x1.3917ap-3, 0x1.b445a2p-3, 0x1.9ab972p-3, -0x1.50386ep-5, -0x1.2ef17ep-4, -0x1.f48f12p-8, -0x1.8b8cd8p-6, 0x1.41f418p-3, -0x1.27f60cp-4, 0x1.180016p-3, -0x1.912a82p-4, -0x1.0caa9cp-5, -0x1.4cab48p-4, 0x1.5cf24cp-3, 0x1.2a00d8p-7, 0x1.e6c448p-4, -0x1.44bb84p-5, 0x1.7f75f8p-6, 0x1.588ea4p-4, -0x1.295c98p-3, -0x1.57cadp-3, 0x1.0556eep-6, 0x1.5a329p-4, 0x1.3c74fp-3, -0x1.1d06d6p-3, 0x1.0c16p-3, -0x1.030f0ep-4, 0x1.3748d6p-3, 0x1.a4a2e8p-5, 0x1.34d6acp-3, -0x1.5fa072p-3, 0x1.86cd54p-4, -0x1.47f85p-4, -0x1.9756b4p-4, 0x1.1cb888p-3, 0x1.222634p-4, -0x1.dd2a8ep-4, 0x1.b0392ep-4, 0x1.8236b8p-3, 0x1.08baa2p-4, -0x1.68a414p-6, 0x1.4e91fp-3, -0x1.2af66p-3, 0x1.e309a4p-4, 0x1.518286p-3, 0x1.ea1d16p-4, -0x1.dbdd38p-5, -0x1.2ad386p-3, 0x1.0056cap-4, -0x1.81fa86p-3, 0x1.965e5ap-4, -0x1.2f44a4p-4, -0x1.20d27p-5, 0x1.9a8ff6p-5, 0x1.da8f38p-4, 0x1.c41f04p-4, 0x1.405b22p-3, -0x1.22f9fp-4, 0x1.7fe726p-3, -0x1.119cf4p-6, 0x1.a3ed16p-5, -0x1.e7d04ep-6, 0x1.095a22p-3, 0x1.5fcf48p-3, -0x1.6d63a8p-8, -0x1.0ae0aep-3, -0x1.2e769cp-4, -0x1.1f4a92p-3, 0x1.b6d862p-6, 0x1.3ba888p-3, -0x1.beeb6ep-5, 0x1.20744ap-4, -0x1.cf0522p-7, 0x1.657824p-3, -0x1.b52752p-7, 0x1.7d030ap-4, 0x1.1db05cp-3, 0x1.14fbfcp-4, -0x1.430236p-3, 0x1.d6a6c8p-4, 0x1.a16c1p-3, -0x1.ffa554p-4, -0x1.3c3e2cp-4, -0x1.49fe1cp-3, -0x1.87b0c6p-9, 0x1.438cc4p-4, -0x1.603354p-3, 0x1.db0db6p-4, -0x1.f466cap-5, -0x1.7925c2p-7, 0x1.1062d6p-4, 0x1.766468p-4, 0x1.5a5756p-4, -0x1.a2fceap-6, 0x1.26a98ap-3, -0x1.38142ap-3, -0x1.62facep-3, -0x1.789c8ap-6, -0x1.5ff54ap-4, 0x1.318886p-3, -0x1.645cdcp-3, 0x1.470622p-3, -0x1.649dbcp-4, -0x1.eb5356p-4, 0x1.cc3dc4p-4, 0x1.2108dp-3, 0x1.33bc64p-3, 0x1.a73724p-4, -0x1.72fe0ep-5, -0x1.f07b74p-4, -0x1.861c7ap-7, -0x1.16ecap-7, 0x1.4e501ep-4, 0x1.037856p-4, 0x1.87a9fcp-4, -0x1.6fb2a6p-4, -0x1.83a8acp-6, 0x1.bb7132p-7, -0x1.847c5cp-8, -0x1.4edac6p-3, 0x1.e02dfap-4, 0x1.3831fep-3, -0x1.3eadf8p-3, -0x1.ea929ap-4, 0x1.27e9aep-5, -0x1.60f12ap-4, -0x1.17115ep-3, -0x1.057c46p-5, -0x1.54f62p-3, -0x1.358e88p-3, -0x1.871e98p-5, 0x1.c68046p-6, -0x1.87db2p-6, -0x1.4e24aap-3, 0x1.b68e5cp-4, 0x1.c5fd22p-4, 0x1.8f0008p-4, -0x1.a2d0acp-8, 0x1.c619e8p-4, -0x1.440c74p-3, -0x1.4579e8p-4, 0x1.e51f0ap-5, 0x1.428b6p-3, -0x1.1718c8p-3, -0x1.6f947cp-3, 0x1.7ed392p-4, 0x1.31097p-5, -0x1.4bad94p-7, -0x1.0a131cp-3, 0x1.86d178p-3, 0x1.54367cp-3, 0x1.17c8ccp-3, 0x1.533a06p-3, -0x1.6f6a4ap-4, -0x1.e1f7bcp-8, -0x1.2cb82ep-7, 0x1.bbccb4p-4, -0x1.2779bap-3, 0x1.b7c326p-8, 0x1.af05ccp-6, 0x1.7f60b4p-3, -0x1.585e48p-4, 0x1.6d4afcp-4, -0x1.1c10acp-4, -0x1.97561p-4, 0x1.25cd16p-3, -0x1.9a812p-4, -0x1.2d901cp-3, -0x1.21461ap-3, 0x1.50d51ep-3, -0x1.273ae4p-5, -0x1.3dde02p-3, 0x1.5a7ba6p-3, -0x1.425638p-6, 0x1.47764p-3, -0x1.53b2e2p-4, -0x1.44550ap-3, -0x1.4e4176p-5, -0x1.7d43dap-4, 0x1.d15ea8p-5, -0x1.9ea16cp-4, -0x1.0cfe7ep-4, -0x1.c89f54p-4, -0x1.1989fep-3, -0x1.6851e2p-5, 0x1.0a3c66p-3, -0x1.3a99e4p-3, -0x1.493f5ep-4, -0x1.933d4ap-4, 0x1.1ddf8p-4, -0x1.c833dep-4, -0x1.294142p-5, 0x1.a336c8p-6, -0x1.93d3aap-4, -0x1.edc778p-4, -0x1.054442p-4, 0x1.3c4d56p-4, 0x1.27143ap-3, 0x1.52100cp-7, -0x1.4cf022p-5, -0x1.be3954p-5, 0x1.5fa06ep-5, -0x1.a75632p-4, -0x1.354304p-4, 0x1.193ef6p-3, -0x1.d83eecp-4, -0x1.e14fd4p-4, -0x1.0ea31p-5, 0x1.863c58p-7, 0x1.3036e8p-4, 0x1.5acc3ep-3, 0x1.264e32p-3, 0x1.754888p-4, 0x1.b996fp-3, 0x1.a9bebep-4, 0x1.995f2p-4, 0x1.3b0bfep-5, 0x1.65ff1cp-4, 0x1.f7b0c4p-5, 0x1.1c0a5ap-3, -0x1.c43b04p-8, 0x1.8a267ap-4, -0x1.ccf876p-5, 0x1.c680fep-4, 0x1.d4d6f4p-4, -0x1.38e8ap-3, 0x1.0ac942p-3, -0x1.f80924p-9, 0x1.1c6d94p-3, 0x1.c8609ap-4, -0x1.7a2104p-3, -0x1.9358ap-3, -0x1.6ae2bap-5, 0x1.69b398p-3, -0x1.0af5dep-3, -0x1.694fa8p-3, 0x1.bdeff6p-7, -0x1.ddb0d8p-7, -0x1.d50b9p-4, 0x1.9292a2p-3, -0x1.ec487p-4, -0x1.1e60fp-3, -0x1.5133f4p-3, 0x1.1a7ec2p-4, -0x1.678f0ep-4, 0x1.5f8e6ap-3, 0x1.3d146p-5, 0x1.6dda5cp-4, 0x1.2e88acp-4, 0x1.5babcp-4, 0x1.67637ap-5, -0x1.1125cp-4, -0x1.31cac8p-3, -0x1.7cc374p-4, -0x1.9aaa1p-3, 0x1.7c791p-3, 0x1.f5a6c8p-4, -0x1.23f874p-3, 0x1.1b5b02p-5, -0x1.03608ep-3, -0x1.72df1ap-9, 0x1.48fd8p-3, -0x1.6c1962p-4, -0x1.2d12e2p-4, -0x1.ad535cp-5, -0x1.090c96p-4, 0x1.dcf63p-5, -0x1.193d98p-3, 0x1.b34d5ap-3, 0x1.2a1a64p-4, -0x1.2669cp-3, 0x1.2debf2p-5, 0x1.bc4a2ep-6, -0x1.7b0e3cp-3, 0x1.382972p-10, 0x1.1800c8p-3, 0x1.5b5edcp-3, 0x1.30b53cp-5, 0x1.3fb9b8p-3, 0x1.2f5deap-6, 0x1.6bce24p-4, -0x1.16d052p-4, 0x1.cac77p-6, -0x1.420dc4p-5, -0x1.81c294p-14, -0x1.c45b88p-4, -0x1.8b6dfap-3, -0x1.51bf14p-3, -0x1.13a77p-4, 0x1.45a28ap-6, 0x1.6a5p-3, -0x1.27b4e4p-3, -0x1.8ecc1ep-8, 0x1.527bccp-3, -0x1.d526f8p-4, 0x1.e4daeep-6, 0x1.9ec83p-7, 0x1.90b8fp-5, -0x1.364ed6p-3, -0x1.5ddc04p-3, -0x1.9d7946p-4, 0x1.eb2e1ap-4, -0x1.102b94p-3, -0x1.d161b8p-5, -0x1.896db4p-4, 0x1.58b07ap-6, 0x1.23e8dcp-5, 0x1.2483c8p-4, -0x1.1b3cb2p-5, -0x1.2bd1e4p-4, 0x1.be40b8p-4, -0x1.feafbp-6, -0x1.066568p-3, 0x1.fa38aep-6, -0x1.592d1cp-5, 0x1.cdf8b6p-5, -0x1.830788p-4, 0x1.77a726p-5, 0x1.c93024p-4, 0x1.9d7f3p-7, -0x1.db55dap-6, 0x1.58ddf8p-7, 0x1.480494p-4, 0x1.b909bp-4, 0x1.bb5b02p-5, -0x1.483c26p-8, -0x1.a6ceaep-3, 0x1.acfa8cp-4, 0x1.370964p-3, -0x1.894b38p-3, 0x1.6e19d4p-4, 0x1.67c71ap-5, 0x1.8b704cp-3, -0x1.6c63aep-6, 0x1.58c87p-4, 0x1.c73c42p-4, -0x1.bebdcp-3, -0x1.edddd2p-5, -0x1.39fe0ap-3, 0x1.05af5ap-7, -0x1.3dd718p-4, -0x1.65e576p-3, 0x1.78e044p-7, 0x1.c0dab6p-4, 0x1.87ff32p-4, -0x1.12fa38p-4, 0x1.7bd884p-3, 0x1.d171f2p-5, 0x1.371b24p-6, -0x1.cdf8cep-4, 0x1.56d20cp-6, -0x1.4cc5c2p-4, 0x1.d49f28p-7, 0x1.4c647ap-4, -0x1.e94766p-7, 0x1.604232p-3, 0x1.a9b106p-3, 0x1.4c38dp-6, 0x1.d8a2e4p-4, 0x1.3feedcp-3, -0x1.036fbap-4, 0x1.71de46p-5, 0x1.a9d38ap-4, 0x1.cef8bcp-4, -0x1.2f896ep-3, -0x1.ec286ep-7, 0x1.d3e466p-4, -0x1.3eb936p-4, -0x1.ba75c2p-5, 0x1.ed9faap-5, 0x1.03c8ap-3, 0x1.da967ap-7, -0x1.55278ep-3, 0x1.b71df6p-7, 0x1.38e824p-4, 0x1.5a594cp-8, 0x1.576df6p-3, -0x1.796c12p-3, 0x1.76618cp-5, -0x1.cc2ba8p-5, 0x1.e0d114p-6, -0x1.b9266p-8, 0x1.3c460ep-5, -0x1.c07e8p-4, -0x1.eab32ap-4, 0x1.6af81ap-4, 0x1.92666ap-6, -0x1.1890ccp-3, 0x1.5eb09p-4, -0x1.fa4becp-12, 0x1.390cbap-4, 0x1.309e1ap-3, -0x1.a30582p-3, -0x1.43fb4cp-4, 0x1.c6aee8p-4, -0x1.1d272ep-3, -0x1.e23bdcp-4, 0x1.dfc8a8p-4, 0x1.28eaf4p-4, 0x1.3d1ecep-3, 0x1.7586dcp-3, 0x1.af445p-9, 0x1.eda464p-3, 0x1.1a8b2p-4, -0x1.891926p-3, 0x1.1805ecp-3, 0x1.da4458p-4, -0x1.0c6b0cp-3, -0x1.c0b40ep-5, -0x1.b4398cp-5, -0x1.5e728ap-5, -0x1.23719cp-8, -0x1.3a185cp-7, 0x1.5610eep-4, -0x1.042bcp-3, 0x1.db477ep-7, -0x1.33bc5cp-3, 0x1.32fb6cp-3, -0x1.200966p-3, 0x1.8cd1b2p-3, 0x1.64fbc6p-4, -0x1.9827e8p-4, -0x1.68daa4p-4, 0x1.e3e178p-4, -0x1.7bdd88p-6, 0x1.ab5202p-3, -0x1.1a49aap-3, 0x1.58a7bcp-5, -0x1.6f3252p-6, 0x1.68d16p-3, -0x1.e9e1dep-12, 0x1.0dabbap-3, 0x1.07d68p-4, 0x1.258c16p-4, -0x1.3ac842p-4, -0x1.8e0f8p-8, -0x1.3701dp-4, 0x1.c939e8p-4, -0x1.cce07ap-4, 0x1.0859b4p-7, -0x1.e0bda4p-5, -0x1.4cdf4ep-4, -0x1.99b996p-4, -0x1.ac8f6cp-4, -0x1.067fccp-7, -0x1.d35622p-7, -0x1.872702p-3, 0x1.a65e6p-5, -0x1.db5998p-4, -0x1.3877a6p-6, -0x1.b66748p-4, 0x1.774d6ap-3, 0x1.592948p-5, 0x1.0e169ep-6, 0x1.6eb54ep-4, 0x1.0bee12p-5, -0x1.e8349ep-4, 0x1.30781ap-4, -0x1.b9543cp-7, 0x1.7f90f6p-3, 0x1.e09caep-5, -0x1.3a962p-3, -0x1.5534dp-4, 0x1.23d252p-3, 0x1.4fa4c8p-7, 0x1.a246bp-5, 0x1.e10516p-4, 0x1.959b94p-3, -0x1.c1246ap-4, -0x1.07752cp-4, 0x1.93747ep-4, 0x1.029322p-5, 0x1.0cf488p-5, 0x1.66cfbp-3, 0x1.546f3cp-3, -0x1.bd1b4ep-4, 0x1.495f7cp-4, 0x1.a04834p-5, -0x1.57179ap-3, -0x1.9858cap-4, 0x1.ca96b4p-3, -0x1.96f3a4p-5, 0x1.48e2bap-5, 0x1.d7133ap-7, -0x1.efa928p-5, 0x1.159424p-3, 0x1.c0f566p-3, -0x1.2400fap-4, -0x1.76fc9cp-4, 0x1.03f5fap-2, -0x1.9754eap-3, 0x1.f3ec3cp-3, 0x1.093aa8p-4, 0x1.036d0ap-2, -0x1.8567dap-4, 0x1.fe446cp-3, -0x1.e6829ep-5, 0x1.7e6c12p-3, -0x1.67709p-5, -0x1.134eeap-4, -0x1.b100e6p-3, 0x1.b8c234p-3, 0x1.35e3c4p-5, -0x1.021a1ap-4, -0x1.3465fep-3, -0x1.89bd06p-3, -0x1.2ec73cp-4, 0x1.8452b4p-4, 0x1.44ee94p-6, -0x1.1472fep-3, 0x1.7d5b72p-5, -0x1.0bdc3ep-6, 0x1.537adep-3, 0x1.cbd84cp-6, -0x1.8fe4ecp-5, 0x1.24ddcap-4, 0x1.ff3b2ap-5, -0x1.37d0dap-3, 0x1.6a74c4p-3, -0x1.4d4c78p-3, 0x1.1d72ecp-5, 0x1.821316p-6, 0x1.038fa2p-5, 0x1.9811f8p-4, -0x1.bca1bep-6, -0x1.ce03a8p-4, 0x1.6c1bc8p-4, -0x1.63933ep-4, 0x1.1ea788p-5, -0x1.e0612ap-5, 0x1.272b7ep-3, 0x1.2a1688p-5, -0x1.36057p-5, 0x1.419d5ep-7, -0x1.5c882cp-5, 0x1.3dd4f4p-4, 0x1.192d3cp-5, -0x1.a33752p-4, 0x1.6420bp-4, 0x1.db2fbp-3, -0x1.2f8b3p-6, 0x1.723908p-4, 0x1.fdd074p-4, -0x1.2931d8p-3, 0x1.ac367p-3, -0x1.0ef2a8p-3, 0x1.85db54p-8, 0x1.7bae42p-4, -0x1.302f56p-3, -0x1.3d439ep-3, -0x1.85162cp-4, -0x1.e0cb9ep-4, -0x1.84c386p-3, 0x1.3956dcp-3, -0x1.245fcp-3, 0x1.416f1cp-4, 0x1.5c21aep-4, -0x1.ff806cp-4, 0x1.49086ap-3, 0x1.af6d5p-3, -0x1.9ed7d4p-4, 0x1.16ca8ep-5, -0x1.26324ap-4, -0x1.aa1998p-6, 0x1.02bb68p-5, 0x1.b178f6p-3, -0x1.00a0e6p-8, 0x1.03cad4p-5, 0x1.537de6p-4, -0x1.d81952p-4, -0x1.6cf114p-3, -0x1.0fe6dep-3, 0x1.3e3b12p-3, -0x1.250b9p-4, 0x1.4bd004p-3, 0x1.8ffe9cp-3, 0x1.6f224ep-3, 0x1.809772p-5, -0x1.322feap-6, -0x1.b0476ep-4, -0x1.bbd106p-5, -0x1.9f6deap-3, 0x1.c9283p-4, 0x1.abf69ep-4, 0x1.214084p-3, 0x1.0977e6p-5, -0x1.2dbff4p-3, 0x1.7c8452p-5, 0x1.c8a1f4p-5, 0x1.a3f576p-3, -0x1.672692p-3, 0x1.6e78ap-3, -0x1.2e0eb4p-7, 0x1.3fda76p-6, 0x1.a7279ap-3, -0x1.2dcb38p-3, 0x1.15607cp-3, -0x1.3f52e2p-4, 0x1.784ec8p-3, -0x1.784894p-4, 0x1.096926p-6, 0x1.03b4b4p-4, 0x1.15b866p-3, 0x1.1c4f0ap-3, 0x1.3deeb2p-7, -0x1.48cd0ap-8, 0x1.385a98p-4, 0x1.2db3cep-3, 0x1.21f68p-4, 0x1.223cf8p-4, 0x1.67bb7p-4, 0x1.555bfep-3, 0x1.ecd14p-3, -0x1.455d1p-5, 0x1.77d6a6p-3, -0x1.2670dap-3, 0x1.8748a2p-5, 0x1.8293a4p-3, -0x1.2feac4p-5, -0x1.06f422p-4, 0x1.4577c4p-4, 0x1.436afap-3, 0x1.c48cbp-5, -0x1.20cb2cp-3, -0x1.173c82p-5, 0x1.48a934p-3, -0x1.41ac54p-3, -0x1.9c722p-6, 0x1.3f26c2p-3, 0x1.c1672cp-3, 0x1.72f1acp-3, 0x1.a778ep-4, -0x1.1a01aep-3, 0x1.d6053ep-7, -0x1.2820b8p-4, -0x1.4deb0ep-5, -0x1.b1c406p-3, -0x1.d66c5ap-5, -0x1.048316p-3, -0x1.eebaap-5, -0x1.ddd2d2p-4, 0x1.fd4ab6p-4, -0x1.bbde56p-4, 0x1.1c1da2p-4, 0x1.88b958p-4, 0x1.726dep-3, 0x1.62e454p-4, 0x1.227232p-5, -0x1.4a469ep-5, 0x1.0454d4p-5, 0x1.1a0c7ep-5, -0x1.06c2ecp-5, 0x1.46451ap-3, 0x1.74ab54p-8, -0x1.4616f8p-3, 0x1.a0bae2p-4, 0x1.6b1fdcp-3, 0x1.f68df4p-4, -0x1.5b4d62p-5, -0x1.5c5264p-5, 0x1.3432ep-3, -0x1.9e43fp-4, 0x1.32aea2p-4, -0x1.6c5bbep-8, -0x1.67ad94p-3, 0x1.c5b944p-5, -0x1.9fdb6cp-7, 0x1.98e184p-4, 0x1.d55994p-5, -0x1.4ff542p-4, 0x1.db164ep-4, 0x1.77cf06p-4, 0x1.9aac5ep-3, 0x1.923002p-3, 0x1.a9f5c4p-5, 0x1.137f0ap-3, 0x1.eb115ep-3, 0x1.7ed228p-5, 0x1.4098cep-3, 0x1.125edcp-3, 0x1.13195ap-5, 0x1.cecbbp-4, 0x1.0de4bap-4, 0x1.336b46p-3, 0x1.006ae6p-4, -0x1.bbe11p-4, 0x1.771652p-6, 0x1.b124e2p-3, -0x1.9b1a32p-7, 0x1.42b896p-3, -0x1.ba51c6p-4, 0x1.2feea2p-4, 0x1.d4f70cp-6, 0x1.c53ea4p-3, 0x1.9e7ce4p-3, 0x1.98dd08p-4, 0x1.43922ap-3, -0x1.33b3bp-7, -0x1.579efp-4, -0x1.b93942p-4, -0x1.b601bap-3, 0x1.998eeap-6, -0x1.522d5p-3, 0x1.28ba18p-3, 0x1.4cfaa4p-3, -0x1.e803acp-4, 0x1.9e28cep-4, -0x1.fe0c66p-5, -0x1.e566ep-4, 0x1.3f0178p-4, 0x1.9fa76ep-4, -0x1.20c9p-7, -0x1.230fe8p-3, 0x1.3a004p-6, -0x1.bd8506p-6, 0x1.719834p-3, 0x1.597a2cp-3, 0x1.d2815ap-4, 0x1.8814fcp-3, 0x1.aa325ap-4, 0x1.8626a2p-3, -0x1.553c48p-7, 0x1.75167ep-5, -0x1.12d0fp-4, 0x1.2d7836p-3, 0x1.5713bap-4, 0x1.89ec32p-3, 