BE45B7D6
BD00160B
BE8831C0
3C8040F5
BDA0EC07
3E48F9D9
3BFA42BE
BE76A39F
BC43E8A5
BE9E14D2
BE99FFAC
3E34D68F
3E465FBD
3E8281F1
3E2F92E3
BE122632
3DC73B55
3E2D09B1
3E9ACF18
BEBB3AC7
3E65C74F
BDC8AC37
BE3632C8
3E747448
BE3892D7
BE0DC91F
BDDF6130
BE9DC5EF
3E8281AC
3E4AA73C
3E558EA5
BC230BA7
3C947082
BE8F9973
BDB2CEC8
3EAAA115
3EBF55DA
BE390E65
BE66A734
3ECDAF68
BEA97C5F
BE9B0805
BE4299AC
BE3A57AB
3E82B71C
BE1DDA02
3E5CF429
3E629F51
3E27E4F9
BEBAA04B
3E36D3CD
BE5818D1
3E197762
3DAF3D93
BD48A1EE
3EB5D1C1
BE058428
3E29011A
3E8ADB52
BE91289B
3D913B6D
BE07BD14
BC22BEC2
BE87CE6D
BE88AD34
3C89D756
BEAE1092
3E9DC90B
3E8501C4
BDDB5FDE
3E329EA5
3E972CDA
BE8E2CE2
BE95C145
BC097A76
3D311585
3D2F5DDB
3E61EEEE
3EB265B9
3E8FC7C4
3E1ECAB0
BDF9FB7D
BDFE1BC9
BCAD5462
BE9CFA01
3EC1D975
BE8DAB7C
BE864BD5
3E5354E2
3C88C468
BE045E3E
BE9FA97C
3E4BF59F
BD8134B9
3E8ACA0D
3E97EE55
3CA2A689
BE3D51E8
BD544958
3E351739
BDA31682
3D5F9865
BC6025B6
3EACFB14
BBB08279
BC738FCC
BD3F1A15
BE98587A
3EAC489F
3D5F81F3
3E42D939
3DBCA157
BE6ABB47
3E00C882
BE351265
3E553A9A
BC4F1ECC
3E5B6798
BE8C0F87
BE8A2F75
BE876D2C
BD7923B8
BDCB359E
3E88F0A6
3E9C33A7
BE0135B2
BE78FD66
BD997044
BE98AD3E
BE6CCD37
BDE14057
3EC5A235
BE8AB2D0
3E025EFC
BE4BA9B8
3EC20984
BE18C862
BC29EE05
BE964B3A
BE84AFE5
3E31E382
BCC2B444
3E92EAE0
3D9BAD18
3D9CD21B
BE25CC7E
BE867ACF
3E204256
3DCF49C5
BDA113A4
3E90AC84
3E5AA624
BD8D1160
BEBAA3F1
BD166148
3E358412
BDA317E7
BE7963F1
BE372EFE
3E5CF7B0
BE9A9848
3E381A9B
3E95CFCF
BE13B66A
BE297BCE
BE6902F3
3DFF08C3
BD844F23
3E8E408D
BE7A2496
BE9D6EC6
BEA7BA92
BE23E841
3E7C1F93
3D7F11EC
BE3BABF0
BDAEC513
BDB1CD84
3E406082
3E6A7E58
3E2F1A8E
BDCC5519
BD47DA99
BDB739B1
3B84D2A8
BDA444F7
3E1DD299
BE5F6857
BD73F6C7
3E9BCF8F
BD1695C3
BD3FB62F
BDF6523E
BE89A507
3D910C18
BE860573
BE0269DC
BE0D04EF
BDB1F6DE
BEA9263A
3D4F2B50
BE324617
BE902EE2
BE31713B
3E7E2896
BE2F4F7D
3E71ED89
3D7EECAD
3DCFCE68
3E38C96D
BE821369
3E009728
3EBEEC30
3D6133C0
BEA4CD40
3E691DD9
3E943001
3DA8C1CC
3E4D683A
3E72EFA5
BAEA4A07
3D2FD2C2
BE8316BC
BDA6A360
3E8E7478
3E810E12
BE04D972
3D1D4A9D
3CF5BF4A
3E04C1F0
3E1AE336
3EB910FC
3EB60D22
BDC0D638
BDF8684F
BCAACD8A
3D6E6A20
BE9251E7
3DB4A9AA
BE1B6E6E
BE5D0D3C
BD3D3D48
BE9A1264
3B88C933
BE49581E
3D5EAFC9
3E387DB6
BE2610E3
3C97026C
BEB5F80D
3DCBA1A9
3E5FDA0B
3DC51342
3D8D1709
BD32D88B
BEA79992
3E1703B3
3E80F8B6
3E491FEF
BE0F1FD3
3C35529A
BDA57508
BE899293
3DCE7D23
BE6EA694
3D68FBA5
3E91524E
BDDD92BF
3E12A811
BE478735
3CA92AFC
3EB0E547
BDDF317E
3DC02959
3E4CA391
3D77FFC9
BD6B0F16
BE97CD1E
BEAB6283
3E9E08BA
3E5E9E15
BD9C76C2
3E57333B
3DAAB03B
3E779188
BE42B024
BD704191
3D9F192F
BE22ECC5
3C7B251F
BD4DB4EF
3DDFDE30
BD8247B9
BE9488E3
BE8ADD52
BD002191
BE8B8FF6
3E677334
BDCC9BFB
BD3C167E
3EA94CA3
BBE8E195
BE71DD33
BB7007C4
3E2E7382
BE76D825
BEABBC24
3D311E68
3B98B29E
BEBF8C1C
3E94D795
BDD150A4
BE9C4020
3DDACB35
3E327940
3E637D6E
BE6FBA8F
BDD96C56
BE8BE782
BCE522F0
3EA7BC4A
3D27DEFD
BDC24266
3E8A72E4
3E6AA5C6
BE3EC00F
3D2FE7BE
BE3E194A
BD1CC4BF
BDD0A6BE
3D4BCBDB
3E4A7ABE
3E96841C
3E4A30A2
BE82EFC0
3E91A41E
BEB1FF9C
3EADC6BF
3EB734FC
3EA56F8D
BE1F2A9C
3E58C82E
3BBEF991
BDE40376
3E951509
BE9E1B83
BE300F47
BE8EFE11
3E611EE6
BE87240F
BE0FB1E1
BE8883F7
BEB12EAE
BE2B8D4E
BE89689F
BEB1ECE4
BC93C16B
3D07FAA6
BD9D8775
BE9AAAF8
3EA8BA7A
BCBAAD7E
3EB1B86E
BE9B68AD
BC97AA71
BEAB2D4B
3DDCA731
3E2704FC
BD9D9E5C
BB27968C
BE1DEC13
3E81E8AA
3EC5DD5A
3E255CBA
BE85771D
3E9719F7
3E20CBDD
BE0A8216
BD8E9EE4
BDEBD6D3
BD9D900D
3E5E8743
BE5B40B5
BE8101F3
3D0A4CC5
3E556DE5
3EC8F116
BCB49708
BE623CA4
3EB1D377
3E4E95B8
BCF82C19
BE3996D2
BE486271
BE36A019
BE4BEF65
3EBE0622
BC48CFAC
3E7A6BF7
3CFBCC01
BD73175F
3D333BD2
3EA621D2
BE008898
3EAA2F98
BDE64611
BE9E5F27
3D307086
BC491E0C
3E7E4F5A
BE1D1A5F
BE2C4790
BE56C182
BE86B7FB
BD63F8F9
BE915A36
3E4EAC08
3DF846EF
3E704E1D
BE60C1E1
3E49976D
3E8AF2E8
3E25B073
3E41BA16
3E90440D
BEA3F10C
3EA3DC39
BC811FE7
BE8FD582
BE94B1DC
3E73004F
BD6CFBC2
BDCE4187
BE31B8B7
3EAC3AC1
BE7BA277
BDA2260C
BDC9765E
3EA7A941
BE689739
BE921A4E
3E0D765D
3E4FA07A
BE15FD0D
BE36C6D8
BE369B78
BE8F5AF7
BE2A47B5
BDACC3B6
BDBB9BE7
3EBC98DC
3EA93942
BE616355
BD6E54CF
BE560CC9
3E4B9941
3EA407AC
3DC40272
3DB9B820
BDA79C3B
3E23E5FD
BD73C96F
BE211EC1
3E99D551
BE5E1F52
3C16B246
BEAC8902
BD1209C7
3EA048C6
BE518742
BE9169E7
3D24228A
BEAC56DE
3DD4E56E
3E9CDB81
3DF3E2E7
3E8A7B79
3DB3388C
BE2CE5D1
3DC80215
BEA19251
3D090645
3E57B002
BE95D6DD
BE9DCCCF
BE983C0F
3DE4A310
BE9ADECC
3DD66CD5
3D22708B
BEAECEE7
BEA316E5
BE32E18C
3C6079A7
BE9469F8
3EA78EDF
BEAFA1C2
3E926009
BDACDC21
BE0B0DF8
BE5796BF
3E0983DF
3EB11047
3E36B80C
3D98D8EA
3E81E511
BCDC0F9A
3EAF2391
BDE7DDE3
BE9413B0
3A8BFCC6
3E18A2EB

