BDA0EC07
3E465FBD
3E65C74F
3E8281AC
3EBF55DA
3E82B71C
3E197762
3D913B6D
3E8501C4
3D2F5DDB
BE9CFA01
3E4BF59F
BDA31682
3EAC489F
BC4F1ECC
3E9C33A7
BE8AB2D0
3E31E382
3DCF49C5
BDA317E7
BE297BCE
BE23E841
3E2F1A8E
BD73F6C7
BE0269DC
3E7E2896
3EBEEC30
BAEA4A07
3CF5BF4A
3D6E6A20
BE49581E
3DC51342
3C35529A
3E12A811
BD6B0F16
3E779188
BD8247B9
3EA94CA3
3B98B29E
BE6FBA8F
3E6AA5C6
3E96841C
BE1F2A9C
3E611EE6
BC93C16B
BC97AA71
3EC5DD5A
BD9D900D
BE623CA4
3EBE0622
3EAA2F98
BE56C182
3E49976D
BE8FD582
BDA2260C
BE36C6D8
BE616355
3E23E5FD
3EA048C6
3E8A7B79
BE9DCCCF
BE32E18C
BE5796BF
BDE7DDE3

